/*
 * Copyright (c) 2025 EdgeImpulse Inc.
 *
 * Generated by Edge Impulse and licensed under the applicable Edge Impulse
 * Terms of Service. Community and Professional Terms of Service
 * (https://edgeimpulse.com/legal/terms-of-service) or Enterprise Terms of
 * Service (https://edgeimpulse.com/legal/enterprise-terms-of-service),
 * according to your product plan subscription (the “License”).
 *
 * This software, documentation and other associated files (collectively referred
 * to as the “Software”) is a single SDK variation generated by the Edge Impulse
 * platform and requires an active paid Edge Impulse subscription to use this
 * Software for any purpose.
 *
 * You may NOT use this Software unless you have an active Edge Impulse subscription
 * that meets the eligibility requirements for the applicable License, subject to
 * your full and continued compliance with the terms and conditions of the License,
 * including without limitation any usage restrictions under the applicable License.
 *
 * If you do not have an active Edge Impulse product plan subscription, or if use
 * of this Software exceeds the usage limitations of your Edge Impulse product plan
 * subscription, you are not permitted to use this Software and must immediately
 * delete and erase all copies of this Software within your control or possession.
 * Edge Impulse reserves all rights and remedies available to enforce its rights.
 *
 * Unless required by applicable law or agreed to in writing, the Software is
 * distributed on an "AS IS" BASIS, WITHOUT WARRANTIES OR CONDITIONS OF ANY KIND,
 * either express or implied. See the License for the specific language governing
 * permissions, disclaimers and limitations under the License.
 */

#ifndef _EI_CLASSIFIER_TFLITE_LEARN_3_H_
#define _EI_CLASSIFIER_TFLITE_LEARN_3_H_

#define EI_CLASSIFIER_TFLITE_LEARN_3_ARENA_SIZE     9817
const size_t tflite_learn_3_arena_size = 9817;

#if defined __GNUC__
#define ALIGN(X) __attribute__((aligned(X)))
#elif defined _MSC_VER
#define ALIGN(X) __declspec(align(X))
#elif defined __TASKING__
#define ALIGN(X) __align(X)
#else
#define ALIGN(X)
#endif

#if defined(EI_MODEL_SECTION) && (defined(__GNUC__) || defined(__clang__))
#define STRINGIZE(x) #x
#define STRINGIZE_VALUE_OF(x) STRINGIZE(x)
#define MODEL_SECTION(X) __attribute__((section(STRINGIZE_VALUE_OF(X))))
#else
#define MODEL_SECTION(X)
#endif


MODEL_SECTION(EI_MODEL_SECTION) ALIGN(16) const unsigned char tflite_learn_3[] = {
  0x20, 0x00, 0x00, 0x00, 0x54, 0x46, 0x4c, 0x33, 0x00, 0x00, 0x00, 0x00,
  0x14, 0x00, 0x20, 0x00, 0x1c, 0x00, 0x18, 0x00, 0x14, 0x00, 0x10, 0x00,
  0x0c, 0x00, 0x00, 0x00, 0x08, 0x00, 0x04, 0x00, 0x14, 0x00, 0x00, 0x00,
  0x1c, 0x00, 0x00, 0x00, 0x8c, 0x00, 0x00, 0x00, 0xe4, 0x00, 0x00, 0x00,
  0x7c, 0x11, 0x00, 0x00, 0x8c, 0x11, 0x00, 0x00, 0x6c, 0x29, 0x00, 0x00,
  0x03, 0x00, 0x00, 0x00, 0x01, 0x00, 0x00, 0x00, 0x10, 0x00, 0x00, 0x00,
  0x00, 0x00, 0x0a, 0x00, 0x10, 0x00, 0x0c, 0x00, 0x08, 0x00, 0x04, 0x00,
  0x0a, 0x00, 0x00, 0x00, 0x0c, 0x00, 0x00, 0x00, 0x1c, 0x00, 0x00, 0x00,
  0x3c, 0x00, 0x00, 0x00, 0x0f, 0x00, 0x00, 0x00, 0x73, 0x65, 0x72, 0x76,
  0x69, 0x6e, 0x67, 0x5f, 0x64, 0x65, 0x66, 0x61, 0x75, 0x6c, 0x74, 0x00,
  0x01, 0x00, 0x00, 0x00, 0x04, 0x00, 0x00, 0x00, 0x9c, 0xff, 0xff, 0xff,
  0x1e, 0x00, 0x00, 0x00, 0x04, 0x00, 0x00, 0x00, 0x08, 0x00, 0x00, 0x00,
  0x6f, 0x75, 0x74, 0x70, 0x75, 0x74, 0x5f, 0x30, 0x00, 0x00, 0x00, 0x00,
  0x01, 0x00, 0x00, 0x00, 0x04, 0x00, 0x00, 0x00, 0x4e, 0xee, 0xff, 0xff,
  0x04, 0x00, 0x00, 0x00, 0x01, 0x00, 0x00, 0x00, 0x78, 0x00, 0x00, 0x00,
  0x02, 0x00, 0x00, 0x00, 0x34, 0x00, 0x00, 0x00, 0x04, 0x00, 0x00, 0x00,
  0xdc, 0xff, 0xff, 0xff, 0x21, 0x00, 0x00, 0x00, 0x04, 0x00, 0x00, 0x00,
  0x13, 0x00, 0x00, 0x00, 0x43, 0x4f, 0x4e, 0x56, 0x45, 0x52, 0x53, 0x49,
  0x4f, 0x4e, 0x5f, 0x4d, 0x45, 0x54, 0x41, 0x44, 0x41, 0x54, 0x41, 0x00,
  0x08, 0x00, 0x0c, 0x00, 0x08, 0x00, 0x04, 0x00, 0x08, 0x00, 0x00, 0x00,
  0x20, 0x00, 0x00, 0x00, 0x04, 0x00, 0x00, 0x00, 0x13, 0x00, 0x00, 0x00,
  0x6d, 0x69, 0x6e, 0x5f, 0x72, 0x75, 0x6e, 0x74, 0x69, 0x6d, 0x65, 0x5f,
  0x76, 0x65, 0x72, 0x73, 0x69, 0x6f, 0x6e, 0x00, 0x22, 0x00, 0x00, 0x00,
  0x94, 0x10, 0x00, 0x00, 0x8c, 0x10, 0x00, 0x00, 0x6c, 0x10, 0x00, 0x00,
  0x4c, 0x10, 0x00, 0x00, 0x2c, 0x10, 0x00, 0x00, 0x0c, 0x10, 0x00, 0x00,
  0xec, 0x0f, 0x00, 0x00, 0xcc, 0x0f, 0x00, 0x00, 0xb4, 0x0f, 0x00, 0x00,
  0x94, 0x0f, 0x00, 0x00, 0xa4, 0x0e, 0x00, 0x00, 0x74, 0x0e, 0x00, 0x00,
  0xe4, 0x0c, 0x00, 0x00, 0x94, 0x0c, 0x00, 0x00, 0x84, 0x06, 0x00, 0x00,
  0xf4, 0x05, 0x00, 0x00, 0x04, 0x01, 0x00, 0x00, 0xfc, 0x00, 0x00, 0x00,
  0xf4, 0x00, 0x00, 0x00, 0xec, 0x00, 0x00, 0x00, 0xe4, 0x00, 0x00, 0x00,
  0xdc, 0x00, 0x00, 0x00, 0xd4, 0x00, 0x00, 0x00, 0xcc, 0x00, 0x00, 0x00,
  0xc4, 0x00, 0x00, 0x00, 0xbc, 0x00, 0x00, 0x00, 0xb4, 0x00, 0x00, 0x00,
  0xac, 0x00, 0x00, 0x00, 0xa4, 0x00, 0x00, 0x00, 0x9c, 0x00, 0x00, 0x00,
  0x94, 0x00, 0x00, 0x00, 0x8c, 0x00, 0x00, 0x00, 0x6c, 0x00, 0x00, 0x00,
  0x04, 0x00, 0x00, 0x00, 0x46, 0xef, 0xff, 0xff, 0x04, 0x00, 0x00, 0x00,
  0x58, 0x00, 0x00, 0x00, 0x0c, 0x00, 0x00, 0x00, 0x08, 0x00, 0x0e, 0x00,
  0x08, 0x00, 0x04, 0x00, 0x08, 0x00, 0x00, 0x00, 0x10, 0x00, 0x00, 0x00,
  0x28, 0x00, 0x00, 0x00, 0x00, 0x00, 0x06, 0x00, 0x08, 0x00, 0x04, 0x00,
  0x06, 0x00, 0x00, 0x00, 0x04, 0x00, 0x00, 0x00, 0x01, 0x00, 0x00, 0x00,
  0xeb, 0x03, 0x00, 0x00, 0x00, 0x00, 0x0a, 0x00, 0x10, 0x00, 0x0c, 0x00,
  0x08, 0x00, 0x04, 0x00, 0x0a, 0x00, 0x00, 0x00, 0x03, 0x00, 0x00, 0x00,
  0x02, 0x00, 0x00, 0x00, 0x04, 0x00, 0x00, 0x00, 0x06, 0x00, 0x00, 0x00,
  0x32, 0x2e, 0x31, 0x31, 0x2e, 0x31, 0x00, 0x00, 0xaa, 0xef, 0xff, 0xff,
  0x04, 0x00, 0x00, 0x00, 0x10, 0x00, 0x00, 0x00, 0x31, 0x2e, 0x31, 0x34,
  0x2e, 0x30, 0x00, 0x00, 0x00, 0x00, 0x00, 0x00, 0x00, 0x00, 0x00, 0x00,
  0x34, 0xd9, 0xff, 0xff, 0x38, 0xd9, 0xff, 0xff, 0x3c, 0xd9, 0xff, 0xff,
  0x40, 0xd9, 0xff, 0xff, 0x44, 0xd9, 0xff, 0xff, 0x48, 0xd9, 0xff, 0xff,
  0x4c, 0xd9, 0xff, 0xff, 0x50, 0xd9, 0xff, 0xff, 0x54, 0xd9, 0xff, 0xff,
  0x58, 0xd9, 0xff, 0xff, 0x5c, 0xd9, 0xff, 0xff, 0x60, 0xd9, 0xff, 0xff,
  0x64, 0xd9, 0xff, 0xff, 0x68, 0xd9, 0xff, 0xff, 0x6c, 0xd9, 0xff, 0xff,
  0x02, 0xf0, 0xff, 0xff, 0x04, 0x00, 0x00, 0x00, 0xe0, 0x04, 0x00, 0x00,
  0xc5, 0xd3, 0xd9, 0xce, 0x29, 0xe1, 0x09, 0xd4, 0xef, 0xf5, 0x25, 0x85,
  0xdb, 0xcd, 0xcd, 0xdf, 0xc7, 0xf6, 0xb4, 0xfd, 0xf7, 0xdb, 0x5c, 0x36,
  0xaf, 0x4a, 0x09, 0x81, 0xc1, 0xb6, 0xd0, 0xfe, 0x53, 0xfb, 0x02, 0x06,
  0xb6, 0xf8, 0x8d, 0x93, 0x81, 0xe7, 0x0b, 0x2e, 0x00, 0x0d, 0xf3, 0xf0,
  0x0d, 0xec, 0xf4, 0x02, 0x00, 0xfc, 0x25, 0xdd, 0x40, 0x0b, 0xe3, 0x17,
  0xd0, 0xd0, 0x0c, 0x37, 0xf7, 0x3f, 0x0e, 0xeb, 0xfe, 0xf1, 0x19, 0xf2,
  0x03, 0xd6, 0xf2, 0x1f, 0x10, 0xfa, 0x30, 0xc9, 0x12, 0x4a, 0x24, 0xea,
  0xef, 0x26, 0xd7, 0x7f, 0x15, 0x3e, 0xdd, 0xc7, 0xd0, 0x42, 0xe5, 0xf4,
  0xd7, 0xf7, 0x07, 0x01, 0x50, 0x41, 0x12, 0x3b, 0x2c, 0xfe, 0xf9, 0x2e,
  0x2e, 0xaf, 0xfa, 0x51, 0x3f, 0x39, 0xa9, 0xbd, 0xec, 0x2f, 0x1d, 0xfe,
  0x15, 0x45, 0xe7, 0x26, 0xb0, 0x60, 0x02, 0xf1, 0xb8, 0xeb, 0x45, 0x33,
  0x3d, 0xea, 0xf9, 0x0b, 0xea, 0xdb, 0x4f, 0xb7, 0x19, 0xd8, 0xf1, 0x6b,
  0x7f, 0xe5, 0xfe, 0x30, 0xfe, 0xb2, 0xc4, 0x55, 0xd3, 0x22, 0xaa, 0xfc,
  0xaf, 0xcd, 0xde, 0xc7, 0xfa, 0xaa, 0xb6, 0x00, 0xef, 0x24, 0x0b, 0xce,
  0xfd, 0xd6, 0xa5, 0xe0, 0xbd, 0xda, 0xb6, 0xfa, 0xf0, 0xf3, 0x4e, 0x21,
  0xd8, 0xd8, 0xdf, 0x81, 0xfd, 0xd2, 0xf1, 0xfb, 0xfd, 0xb1, 0xa3, 0x44,
  0x0a, 0xd8, 0x00, 0x29, 0x2c, 0xdb, 0x95, 0xbb, 0x5d, 0xe5, 0xa2, 0x47,
  0x43, 0xd1, 0xd9, 0x1b, 0xf4, 0xfa, 0xcb, 0xac, 0xff, 0xbe, 0xfa, 0x53,
  0x51, 0x33, 0x02, 0xf2, 0x08, 0x81, 0xe3, 0xa6, 0xbb, 0xfe, 0x29, 0xb0,
  0xe1, 0x45, 0xf4, 0x94, 0x0c, 0x10, 0x12, 0xf9, 0xe3, 0xdf, 0x1c, 0x9d,
  0xc4, 0x12, 0x10, 0x02, 0xf7, 0xcd, 0x21, 0xe0, 0xeb, 0xe9, 0xee, 0xc7,
  0x10, 0x58, 0xfd, 0xc2, 0x45, 0xdd, 0x0f, 0x07, 0x06, 0xda, 0xe8, 0x1b,
  0xd4, 0x18, 0x3b, 0x1d, 0xa7, 0x81, 0xed, 0x2f, 0xac, 0xe5, 0x7f, 0x11,
  0x34, 0x11, 0xe1, 0x07, 0x32, 0x23, 0xf7, 0xf9, 0xbf, 0x26, 0x35, 0xcd,
  0x19, 0x0c, 0x03, 0x15, 0x07, 0x04, 0xfb, 0xf8, 0xe6, 0xd7, 0x11, 0xeb,
  0xdd, 0xf6, 0xb0, 0xc5, 0x2a, 0x27, 0xec, 0xf7, 0xc4, 0xdb, 0x0c, 0xe2,
  0x7e, 0xfb, 0xc1, 0x2d, 0xd2, 0xdd, 0x2e, 0xaa, 0x00, 0xed, 0xf7, 0x06,
  0x81, 0x51, 0x48, 0x5c, 0xb9, 0xed, 0xef, 0xef, 0xf4, 0xd0, 0xc7, 0x06,
  0x39, 0xc3, 0xef, 0x66, 0x23, 0x35, 0xd7, 0x1a, 0xa0, 0xc6, 0x57, 0xe8,
  0xf3, 0x1e, 0x28, 0xd1, 0x7f, 0xff, 0xe1, 0x0b, 0xae, 0xcb, 0xfa, 0x05,
  0xb1, 0xb5, 0xd9, 0x23, 0xce, 0xfa, 0xf1, 0xe1, 0x34, 0x65, 0xe8, 0xb9,
  0xf0, 0x07, 0xb8, 0x0d, 0x39, 0xf5, 0xcb, 0xe1, 0x0d, 0x15, 0x09, 0x43,
  0xc4, 0xd3, 0xd9, 0x1f, 0xe8, 0xfd, 0x7f, 0x94, 0x23, 0x0d, 0x1d, 0x13,
  0xf1, 0xf9, 0xfc, 0x05, 0x05, 0x04, 0x15, 0x2a, 0xc0, 0x2b, 0x1c, 0x12,
  0x12, 0xfc, 0xe6, 0x0d, 0xf0, 0x04, 0xf9, 0x24, 0xe4, 0xe5, 0xe0, 0x16,
  0x1b, 0x0b, 0xfd, 0xef, 0x08, 0x03, 0xfe, 0x0a, 0x1a, 0xca, 0x81, 0x94,
  0x10, 0x26, 0xed, 0x66, 0xbc, 0xb9, 0x17, 0x30, 0x09, 0xcc, 0xe6, 0x10,
  0x03, 0xd7, 0xa0, 0x3f, 0x17, 0xd6, 0xe5, 0xdc, 0x13, 0x3e, 0xfc, 0x5b,
  0x1d, 0xb0, 0xdd, 0xa0, 0x0a, 0xff, 0x27, 0x03, 0xf9, 0xf0, 0x23, 0xfe,
  0x81, 0xf0, 0x0d, 0x0c, 0xf2, 0xf5, 0x03, 0x00, 0xff, 0x16, 0x00, 0x07,
  0xff, 0x21, 0x31, 0xf4, 0xf4, 0x19, 0xf7, 0xfd, 0x01, 0x0b, 0x00, 0x06,
  0xf3, 0x04, 0xa0, 0x44, 0xf0, 0x04, 0xfd, 0x08, 0x06, 0xf9, 0x06, 0xfb,
  0xff, 0x07, 0x0a, 0x1f, 0xeb, 0x24, 0xf2, 0x7b, 0xb4, 0xf0, 0x2f, 0xd8,
  0x09, 0xff, 0xc0, 0x00, 0x7f, 0xb8, 0xfb, 0xcd, 0x09, 0xc9, 0xf5, 0x43,
  0xc5, 0x77, 0xaa, 0x29, 0x25, 0x05, 0x06, 0xdb, 0xd6, 0x26, 0xf6, 0xdf,
  0x15, 0xc0, 0x51, 0xdd, 0x17, 0xed, 0x13, 0x81, 0xbc, 0x2a, 0x45, 0x0a,
  0xf7, 0xbd, 0xbe, 0x00, 0x1d, 0x08, 0x4a, 0x0a, 0xac, 0x29, 0xf2, 0xb1,
  0x5b, 0xd0, 0x0b, 0xbe, 0xce, 0x07, 0x58, 0x48, 0x52, 0x1b, 0xe7, 0xaf,
  0x9c, 0x2d, 0xdc, 0x32, 0xcb, 0xfa, 0x15, 0x1d, 0x46, 0xed, 0xdd, 0x5b,
  0x0d, 0x7f, 0xe3, 0x04, 0x07, 0x01, 0x0f, 0x3a, 0x1f, 0xed, 0xc4, 0xc0,
  0x24, 0xac, 0x1c, 0x11, 0x32, 0xda, 0x03, 0x14, 0x1b, 0xd8, 0x01, 0x12,
  0x50, 0x4e, 0xd6, 0xc3, 0x88, 0x00, 0xca, 0xec, 0x1f, 0xf4, 0xe9, 0x00,
  0x0a, 0xfa, 0xf5, 0xf9, 0x39, 0x4c, 0xe8, 0xfe, 0x4b, 0xff, 0x97, 0x18,
  0x51, 0xe4, 0x81, 0x0f, 0xd7, 0xef, 0xf6, 0xc6, 0x20, 0xb9, 0xe8, 0xcf,
  0xcc, 0xd9, 0xb0, 0x8d, 0xf3, 0x0a, 0xfd, 0xc9, 0x20, 0x7a, 0x1f, 0x29,
  0xf8, 0xd3, 0xd1, 0xa7, 0xb9, 0xba, 0x1b, 0x7b, 0xe7, 0xea, 0x84, 0x1a,
  0x04, 0xbb, 0xea, 0xd4, 0xac, 0xdd, 0xfe, 0xfa, 0x7f, 0xe4, 0xbf, 0xdf,
  0xd5, 0xd3, 0xb5, 0x61, 0xce, 0x34, 0x3b, 0x17, 0xad, 0xb6, 0x13, 0xf7,
  0x0e, 0x18, 0x13, 0xd2, 0x1e, 0xe4, 0x90, 0xd4, 0xf9, 0xcc, 0x36, 0x03,
  0xab, 0xf0, 0xb7, 0xc1, 0x18, 0xe3, 0xf4, 0x20, 0x15, 0x17, 0xd5, 0xe1,
  0x1a, 0x81, 0xfe, 0x0e, 0xb0, 0x22, 0xf6, 0x20, 0x11, 0x11, 0x44, 0xce,
  0xc8, 0x0d, 0xb1, 0x45, 0xd2, 0xd0, 0x28, 0xec, 0x0f, 0x23, 0x07, 0x24,
  0x46, 0xdc, 0x7f, 0xce, 0xee, 0xd1, 0xfd, 0xb7, 0x52, 0xe1, 0xe5, 0x44,
  0x39, 0x48, 0xd3, 0x24, 0xfb, 0x3b, 0xd2, 0x43, 0xca, 0x42, 0xc3, 0x1e,
  0x40, 0xfa, 0xff, 0xf8, 0x29, 0x13, 0x1c, 0xc4, 0x27, 0xbb, 0x6f, 0xe1,
  0x13, 0x7f, 0x26, 0xed, 0xb1, 0x29, 0xa7, 0xcb, 0xe9, 0xf3, 0x33, 0x31,
  0xef, 0xfb, 0x44, 0x0f, 0xd0, 0xbe, 0x1d, 0xc3, 0xdb, 0x07, 0x15, 0x20,
  0x16, 0x00, 0xb2, 0x18, 0x04, 0x25, 0xfb, 0x15, 0xa7, 0xd1, 0x07, 0xfc,
  0x29, 0xf5, 0x42, 0xdc, 0x18, 0x25, 0x04, 0x23, 0x62, 0x2c, 0xa0, 0x27,
  0x48, 0x61, 0xe6, 0xd4, 0x12, 0xef, 0x3a, 0xa9, 0x30, 0x23, 0xf5, 0x20,
  0x47, 0x3c, 0x6d, 0x94, 0xf7, 0x4e, 0x57, 0xea, 0x18, 0x25, 0x0c, 0x20,
  0x0f, 0xf6, 0xef, 0xd5, 0x81, 0x0f, 0xe8, 0xe9, 0x08, 0xef, 0x0b, 0xf7,
  0x0f, 0xfb, 0xdf, 0xff, 0xe9, 0x25, 0xfa, 0x53, 0x24, 0x02, 0xd9, 0x4f,
  0x07, 0x02, 0xe0, 0x0a, 0xf5, 0xfc, 0x05, 0xfc, 0x81, 0xf7, 0xeb, 0xe8,
  0x08, 0x02, 0x12, 0x0c, 0xfd, 0xdc, 0x05, 0x04, 0xfb, 0x7f, 0x02, 0x44,
  0x07, 0x59, 0xe9, 0x0b, 0x28, 0xb8, 0x4b, 0xa6, 0xeb, 0x18, 0x9a, 0x2e,
  0xed, 0x0e, 0xe3, 0xeb, 0x35, 0xe4, 0xe4, 0xe7, 0xa7, 0xd6, 0x50, 0xbb,
  0x12, 0xe2, 0xee, 0x02, 0x48, 0x1e, 0x18, 0x10, 0xad, 0xda, 0x1e, 0x2e,
  0xff, 0x16, 0xe4, 0x36, 0xbb, 0x32, 0xc0, 0xb3, 0xe2, 0x2d, 0x00, 0x09,
  0x30, 0xd8, 0xfe, 0xf8, 0x19, 0x7e, 0x3f, 0x03, 0xe4, 0xee, 0x1e, 0xe7,
  0xf0, 0x29, 0x27, 0x81, 0x32, 0x4a, 0x49, 0x3d, 0x00, 0xe5, 0xb4, 0x36,
  0x2b, 0x27, 0xf5, 0x22, 0xf5, 0xf8, 0x32, 0x7f, 0xc3, 0xf0, 0x9b, 0x01,
  0x15, 0xfc, 0xe8, 0xdf, 0x2e, 0xea, 0x1f, 0xf9, 0x52, 0xd8, 0xe7, 0xa7,
  0x0e, 0x20, 0x11, 0xf7, 0xeb, 0x33, 0x0f, 0x0d, 0xf7, 0x31, 0xc0, 0xbf,
  0xc7, 0x3f, 0x30, 0x1b, 0x01, 0xcf, 0xac, 0x7f, 0xcf, 0x3c, 0x0d, 0xea,
  0x00, 0x1b, 0x09, 0x29, 0xcf, 0xec, 0xe6, 0xfc, 0x59, 0xf4, 0x4e, 0x2f,
  0xbf, 0xea, 0x39, 0x28, 0x2a, 0x2c, 0xce, 0xf2, 0x0a, 0xb7, 0xae, 0xf8,
  0x8f, 0xfb, 0x0a, 0x4d, 0xf1, 0x11, 0xde, 0xea, 0x13, 0xcc, 0x6f, 0xe6,
  0x47, 0x5d, 0x0a, 0xf5, 0xf8, 0xf7, 0x03, 0xef, 0x12, 0x20, 0xbc, 0x13,
  0xe2, 0x22, 0x7f, 0xde, 0xed, 0xd8, 0x21, 0xff, 0xf4, 0x27, 0xcb, 0x94,
  0x10, 0xc4, 0x31, 0x60, 0x39, 0xf6, 0xf2, 0xca, 0x11, 0xdc, 0x22, 0xe8,
  0x72, 0x23, 0x12, 0x48, 0x9a, 0xfd, 0x9c, 0xb9, 0x3e, 0x55, 0xd7, 0xf4,
  0x05, 0x96, 0x99, 0x50, 0xca, 0x4e, 0x00, 0xb2, 0x99, 0x07, 0xea, 0xce,
  0x08, 0x0d, 0x03, 0x81, 0x54, 0xcb, 0xa7, 0x24, 0xdb, 0xeb, 0xec, 0x2e,
  0xec, 0xb3, 0xd9, 0x04, 0x0c, 0x62, 0x01, 0x17, 0x2c, 0xe8, 0x12, 0x3a,
  0xe9, 0x7f, 0x17, 0xf9, 0xe9, 0x6a, 0x3f, 0x02, 0x22, 0xe0, 0xda, 0x15,
  0x42, 0x02, 0x2b, 0xf0, 0x23, 0xf8, 0x25, 0x22, 0xda, 0xc2, 0xe3, 0xd6,
  0x17, 0xc6, 0xfa, 0xc8, 0xdb, 0x1b, 0x38, 0xe2, 0x2c, 0x17, 0x7f, 0x36,
  0x3e, 0xde, 0x20, 0x22, 0xde, 0x10, 0x13, 0xde, 0x18, 0x2d, 0x3f, 0x34,
  0x1a, 0x3c, 0x02, 0x08, 0xda, 0xba, 0x01, 0x09, 0xdf, 0xfe, 0x3f, 0x25,
  0x23, 0xdc, 0x10, 0x09, 0x07, 0xfb, 0xf6, 0x12, 0x13, 0x3c, 0x3e, 0xf5,
  0x31, 0xdc, 0x46, 0xe1, 0xda, 0xe5, 0x3c, 0xd6, 0x49, 0x81, 0xc9, 0x29,
  0x2f, 0x50, 0xea, 0x0f, 0xdd, 0xf8, 0xb8, 0x41, 0xc9, 0x03, 0xf2, 0xec,
  0x51, 0x4c, 0x2d, 0xda, 0xed, 0xf8, 0x3c, 0xa7, 0x6e, 0xac, 0x38, 0xdc,
  0xee, 0xf4, 0xff, 0xff, 0x04, 0x00, 0x00, 0x00, 0x80, 0x00, 0x00, 0x00,
  0xf3, 0xfb, 0xff, 0xff, 0x76, 0xf3, 0xff, 0xff, 0x78, 0xf3, 0xff, 0xff,
  0x50, 0xe6, 0xff, 0xff, 0x9c, 0xfd, 0xff, 0xff, 0x19, 0xf9, 0xff, 0xff,
  0x6b, 0xf6, 0xff, 0xff, 0x18, 0xf8, 0xff, 0xff, 0xa7, 0xec, 0xff, 0xff,
  0x20, 0xf7, 0xff, 0xff, 0x06, 0xf5, 0xff, 0xff, 0x74, 0xf1, 0xff, 0xff,
  0x0c, 0xfb, 0xff, 0xff, 0xd9, 0xea, 0xff, 0xff, 0xc4, 0xe8, 0xff, 0xff,
  0xd8, 0xf1, 0xff, 0xff, 0xd4, 0x01, 0x00, 0x00, 0xed, 0xf5, 0xff, 0xff,
  0x29, 0xec, 0xff, 0xff, 0x36, 0xe8, 0xff, 0xff, 0xed, 0xf4, 0xff, 0xff,
  0x57, 0xf3, 0xff, 0xff, 0x38, 0xfa, 0xff, 0xff, 0x2d, 0xeb, 0xff, 0xff,
  0x15, 0xfb, 0xff, 0xff, 0xdc, 0xf2, 0xff, 0xff, 0x94, 0xf6, 0xff, 0xff,
  0x30, 0xf5, 0xff, 0xff, 0xe4, 0xed, 0xff, 0xff, 0x0b, 0xed, 0xff, 0xff,
  0x72, 0xee, 0xff, 0xff, 0xa7, 0xeb, 0xff, 0xff, 0x7a, 0xf5, 0xff, 0xff,
  0x04, 0x00, 0x00, 0x00, 0x00, 0x06, 0x00, 0x00, 0xce, 0x1d, 0x29, 0xf5,
  0xc2, 0xdc, 0xfd, 0x7e, 0xe0, 0x05, 0xec, 0xf3, 0x11, 0xd9, 0xf8, 0xe0,
  0xf7, 0xfe, 0xc2, 0xf2, 0x95, 0x0c, 0xe8, 0x25, 0x9e, 0xc9, 0x51, 0xb7,
  0x01, 0x3d, 0xe1, 0xc8, 0xdf, 0xf3, 0xe3, 0x1e, 0xa4, 0xec, 0x26, 0x00,
  0xfd, 0x33, 0x59, 0xef, 0x2e, 0x42, 0xfc, 0xf0, 0xdf, 0xc2, 0xe2, 0x03,
  0xd4, 0x2b, 0x7f, 0x40, 0xec, 0xe3, 0xd6, 0xc6, 0x8b, 0x1e, 0x17, 0xf6,
  0x0a, 0xd8, 0x26, 0xb9, 0x95, 0x1b, 0xf0, 0x51, 0xbe, 0x16, 0xf9, 0x17,
  0xe1, 0xd5, 0xff, 0xe2, 0x17, 0xf5, 0xb9, 0xed, 0xde, 0x04, 0x79, 0x3e,
  0xd5, 0xdb, 0xee, 0x0b, 0xef, 0xef, 0x30, 0xc3, 0x39, 0xf0, 0xf2, 0x10,
  0x08, 0x81, 0xc1, 0xd7, 0xd8, 0xd2, 0x1c, 0xe9, 0xe4, 0x07, 0x05, 0x02,
  0xf8, 0xfe, 0xd4, 0xc3, 0xab, 0xda, 0xf0, 0xd5, 0xe0, 0x64, 0xd9, 0xfc,
  0xc1, 0xd3, 0x04, 0xd6, 0x20, 0xd4, 0x08, 0x07, 0xf0, 0xbf, 0xd1, 0xb2,
  0x03, 0x0d, 0x3c, 0xa1, 0x01, 0x19, 0xdb, 0xf0, 0xf1, 0xf3, 0x0f, 0xdc,
  0xe1, 0xd6, 0xdf, 0xcf, 0xe5, 0xf3, 0xb7, 0xc8, 0xd9, 0xf1, 0xf7, 0xdb,
  0xf0, 0xb7, 0xff, 0x31, 0xe2, 0xf7, 0xf6, 0x11, 0xe1, 0x03, 0x33, 0xab,
  0x03, 0xc4, 0xdd, 0xe0, 0xf7, 0x05, 0xf4, 0xfe, 0xcf, 0x09, 0xec, 0xd2,
  0xfd, 0x2f, 0xfd, 0xc0, 0xe6, 0xf1, 0xd9, 0x20, 0xbd, 0xee, 0xfe, 0x02,
  0xd7, 0xbd, 0xda, 0xe8, 0xf0, 0xf7, 0x52, 0xd2, 0xf3, 0xed, 0xcc, 0xe7,
  0xb6, 0x32, 0xc5, 0xff, 0xc7, 0xea, 0xe7, 0x09, 0x0d, 0x50, 0x01, 0x3c,
  0x03, 0xc5, 0x47, 0x32, 0xd8, 0x0e, 0x11, 0xeb, 0xdd, 0xee, 0xaf, 0xc9,
  0xd5, 0xd7, 0x37, 0xeb, 0x42, 0x0a, 0xcd, 0xa6, 0xa7, 0x41, 0xbf, 0x52,
  0x0b, 0x07, 0xd3, 0xde, 0xfa, 0x29, 0x03, 0x23, 0xe0, 0xbc, 0x13, 0x22,
  0x81, 0x02, 0xe0, 0x44, 0x91, 0xda, 0x99, 0xa2, 0xfd, 0xc4, 0xf0, 0xdb,
  0x14, 0x00, 0xb5, 0xb1, 0x98, 0x40, 0xea, 0x01, 0xed, 0xd9, 0xfc, 0xf0,
  0xf6, 0x24, 0xfe, 0x05, 0xbf, 0xa4, 0x27, 0x31, 0xfe, 0x0e, 0x14, 0xc8,
  0x0d, 0xf7, 0xec, 0x01, 0xcf, 0xb5, 0xc4, 0xe1, 0xea, 0xcc, 0xf9, 0xd1,
  0x0b, 0xb4, 0xf4, 0x15, 0xd0, 0xdc, 0xbb, 0xdd, 0x00, 0xc1, 0xe1, 0x9a,
  0xf3, 0xbb, 0xae, 0xc9, 0xc8, 0xe5, 0x14, 0xe9, 0xf2, 0xb6, 0xe4, 0xde,
  0xa2, 0xc5, 0x07, 0xc1, 0x1a, 0xb4, 0xbf, 0x28, 0xe7, 0xb8, 0xe8, 0x02,
  0xf3, 0x32, 0xe8, 0x0c, 0xf0, 0xd5, 0xf8, 0xcd, 0xe2, 0x00, 0x0a, 0x07,
  0xa0, 0x06, 0x12, 0x10, 0xad, 0xa0, 0x20, 0x3c, 0x10, 0x2c, 0xd3, 0xd5,
  0x19, 0x17, 0xc2, 0x1b, 0xe6, 0xce, 0xf7, 0x26, 0xbe, 0x2c, 0xd8, 0x15,
  0x81, 0xd7, 0x44, 0x8b, 0x0b, 0x3e, 0xca, 0x23, 0xd9, 0x3e, 0x0c, 0xbe,
  0xef, 0xda, 0xf9, 0x15, 0x97, 0xf6, 0x0b, 0x15, 0x35, 0x12, 0x44, 0x26,
  0x14, 0x33, 0xfd, 0xb2, 0xdf, 0xc2, 0x27, 0xea, 0xf4, 0xca, 0x1c, 0x06,
  0x56, 0xf3, 0x0d, 0xaa, 0xed, 0x28, 0xe4, 0xf5, 0xfa, 0x10, 0xd0, 0x03,
  0xeb, 0x14, 0x40, 0xfe, 0x7f, 0x30, 0x24, 0x38, 0xf3, 0xdf, 0xe9, 0xcc,
  0xfe, 0xdc, 0x21, 0xda, 0xf3, 0xe2, 0xe2, 0xf0, 0x0d, 0x02, 0xdc, 0xac,
  0xf3, 0x26, 0xe7, 0xe4, 0x02, 0x07, 0xef, 0x21, 0xcd, 0x15, 0x0c, 0xf5,
  0x42, 0x32, 0xf9, 0x18, 0xf5, 0x1d, 0x06, 0xbf, 0xfd, 0xdf, 0x3c, 0xf7,
  0x0b, 0x00, 0x2d, 0x15, 0x09, 0xdd, 0xf6, 0xba, 0xa7, 0x98, 0x27, 0x11,
  0x96, 0xa0, 0xaa, 0x01, 0xe6, 0xf2, 0xf2, 0xa2, 0x15, 0x00, 0x81, 0x4f,
  0x89, 0xb8, 0xca, 0x20, 0xac, 0x1d, 0xb0, 0x0b, 0xd0, 0x4e, 0x38, 0xf5,
  0xe9, 0x1a, 0xe8, 0x1b, 0xcf, 0xc4, 0x1e, 0x0d, 0xaa, 0xa8, 0x38, 0x42,
  0x24, 0xff, 0x04, 0xc0, 0x33, 0x3c, 0xeb, 0x02, 0xb6, 0xdb, 0xc1, 0xf7,
  0xdd, 0x26, 0x28, 0x0e, 0xbb, 0x05, 0xf4, 0xb7, 0xd3, 0x13, 0xee, 0x1c,
  0x02, 0xb7, 0xbf, 0xd4, 0xaa, 0xd2, 0x3b, 0xf4, 0x2a, 0x1e, 0x3c, 0xb5,
  0x08, 0x4c, 0xef, 0xe2, 0xb4, 0xeb, 0xec, 0x4c, 0x00, 0xc6, 0x08, 0x45,
  0xa5, 0xf0, 0xfb, 0x83, 0xa4, 0xb4, 0xf5, 0x22, 0x25, 0x03, 0x06, 0xdd,
  0x06, 0x0b, 0x01, 0xf8, 0xb2, 0xbf, 0xeb, 0xd7, 0xae, 0xc3, 0xef, 0xfb,
  0x0f, 0xbb, 0xca, 0x52, 0xaf, 0x0c, 0xd0, 0xd7, 0x05, 0xae, 0xbd, 0xcc,
  0xf1, 0xc3, 0xb2, 0x22, 0x10, 0xcf, 0xe4, 0xc4, 0xfe, 0xfb, 0x2a, 0xf3,
  0x9b, 0xfd, 0xca, 0xcb, 0xec, 0xc9, 0xf4, 0x0b, 0x3a, 0xec, 0x06, 0x0c,
  0xf3, 0xe3, 0xb4, 0xe1, 0x09, 0xea, 0xfc, 0x96, 0xf3, 0xe6, 0x14, 0x26,
  0x05, 0xfb, 0x31, 0x1a, 0xf8, 0xdb, 0x0f, 0xff, 0xb2, 0x15, 0xde, 0x0d,
  0x01, 0xa3, 0xcc, 0x15, 0xf0, 0x81, 0xbc, 0x27, 0xd2, 0x2e, 0xd3, 0xf5,
  0xef, 0xa8, 0x11, 0xe0, 0xeb, 0x26, 0xcc, 0x01, 0xf8, 0x1e, 0x27, 0xb6,
  0x02, 0x0e, 0x09, 0x27, 0xc9, 0xfe, 0x54, 0x22, 0x5a, 0x5f, 0x14, 0x43,
  0x16, 0x16, 0xd4, 0xc2, 0xcd, 0x34, 0x54, 0xec, 0x06, 0x0e, 0x3f, 0x00,
  0x2a, 0x16, 0xfe, 0xc7, 0xf7, 0x0e, 0x11, 0xce, 0xe0, 0xe8, 0x03, 0x0a,
  0xcc, 0x0d, 0x0a, 0x0c, 0x3c, 0xe3, 0x29, 0x04, 0xf4, 0xe7, 0x02, 0x81,
  0xca, 0xf8, 0xd5, 0x1a, 0xcf, 0xf2, 0x03, 0xed, 0x27, 0xfc, 0x25, 0xac,
  0xdf, 0x1c, 0x0c, 0xc0, 0xc7, 0xe8, 0xf7, 0xf1, 0xe5, 0xce, 0x3a, 0x1a,
  0x3e, 0x2c, 0xfd, 0x11, 0xeb, 0xe4, 0xfe, 0xb3, 0xfe, 0xeb, 0x39, 0xfe,
  0x32, 0x0b, 0x33, 0xeb, 0x03, 0xf8, 0x0e, 0xb7, 0x20, 0x05, 0x9d, 0xef,
  0xee, 0xd0, 0x07, 0xe9, 0xd3, 0x06, 0xe6, 0x1b, 0xfc, 0xe1, 0xf8, 0xdc,
  0xd2, 0xcd, 0x1c, 0xfa, 0x11, 0xfe, 0x0c, 0xba, 0xf6, 0xb2, 0xba, 0x15,
  0x95, 0x81, 0x01, 0xc7, 0x02, 0xd9, 0xe9, 0xde, 0xdb, 0xe5, 0xb6, 0xba,
  0xb3, 0xfa, 0xf9, 0xe5, 0x14, 0xfa, 0x00, 0xe8, 0xf2, 0xe6, 0xee, 0x0f,
  0xed, 0xf1, 0xf8, 0xbd, 0x18, 0xd3, 0x0b, 0xf6, 0xfe, 0x9f, 0xe6, 0x1a,
  0x19, 0x20, 0x2c, 0x09, 0xf3, 0xd6, 0xd1, 0xc7, 0xc3, 0xd7, 0xf3, 0xd7,
  0x06, 0x0f, 0xda, 0xee, 0xd6, 0x0e, 0xe0, 0x21, 0x9f, 0x2a, 0x0a, 0xc1,
  0x0b, 0x3b, 0x1c, 0x1c, 0xf0, 0xc4, 0xe5, 0x0d, 0xdd, 0x68, 0xdf, 0x16,
  0xf7, 0xab, 0x17, 0xe2, 0x29, 0xbf, 0xdf, 0x15, 0xfd, 0xfd, 0x2d, 0xf7,
  0xa1, 0x02, 0x26, 0x34, 0xe9, 0xd0, 0xfd, 0x1b, 0xb9, 0xe3, 0xe5, 0xca,
  0xad, 0x21, 0xa1, 0x11, 0xad, 0xbc, 0xc4, 0x00, 0xe0, 0xd9, 0xf7, 0x20,
  0x03, 0x02, 0x07, 0x07, 0xc2, 0x02, 0x00, 0xfc, 0xa0, 0xf8, 0x11, 0xf7,
  0xfa, 0xb0, 0xf7, 0x14, 0x87, 0x81, 0xcf, 0xa1, 0xca, 0x1e, 0xb3, 0xff,
  0xe9, 0x9f, 0xb4, 0xcf, 0x03, 0xe9, 0xec, 0x01, 0x0e, 0x1c, 0xd4, 0xcc,
  0x02, 0xd3, 0xb8, 0x22, 0xdf, 0xe9, 0x11, 0x12, 0x1f, 0x93, 0xe0, 0x14,
  0xce, 0xc2, 0xf4, 0x83, 0xf2, 0x3c, 0xc2, 0xf1, 0xb8, 0xf0, 0xff, 0xd0,
  0x0d, 0xce, 0xe2, 0xe4, 0xe4, 0xd5, 0xfb, 0xbd, 0x10, 0xf5, 0xbd, 0x15,
  0xe6, 0xb9, 0xb7, 0x03, 0xbb, 0x3c, 0xc4, 0x0c, 0xde, 0xb5, 0xed, 0xd1,
  0xec, 0x0d, 0xff, 0x19, 0x95, 0xce, 0x20, 0x07, 0xb6, 0xaa, 0x18, 0x34,
  0xf5, 0x16, 0xfe, 0x8c, 0x2c, 0xfd, 0xd0, 0x2f, 0xeb, 0xa3, 0xd7, 0x03,
  0xda, 0x27, 0x17, 0x0a, 0x81, 0xdf, 0x0d, 0xc6, 0xbc, 0x24, 0x16, 0x13,
  0xea, 0xdb, 0xcf, 0xfd, 0xae, 0x00, 0x1d, 0x23, 0x14, 0x36, 0xe0, 0xdc,
  0xe3, 0x3e, 0x0f, 0x1b, 0xea, 0xde, 0xdd, 0x2a, 0xee, 0xec, 0x25, 0x19,
  0xc0, 0xc8, 0x01, 0x9d, 0xd4, 0xff, 0x13, 0x2e, 0x13, 0x26, 0xdd, 0x07,
  0x2f, 0x13, 0x09, 0xcc, 0xed, 0xe6, 0xec, 0x20, 0xbe, 0xe5, 0x14, 0x12,
  0xd8, 0xf8, 0xfd, 0x25, 0xe5, 0x16, 0xec, 0xd2, 0xf5, 0x40, 0xdd, 0x23,
  0xde, 0xf6, 0x29, 0x0a, 0x11, 0x10, 0xc7, 0x0d, 0x0b, 0xed, 0xdb, 0xe3,
  0x04, 0xe0, 0xf6, 0xf0, 0xcc, 0x05, 0x1f, 0xdb, 0x81, 0xff, 0x2b, 0x21,
  0x07, 0x04, 0xea, 0xf3, 0xe2, 0x00, 0xe8, 0x09, 0xea, 0x04, 0x14, 0x03,
  0xee, 0xe6, 0x99, 0x35, 0xc0, 0x28, 0xc1, 0xeb, 0x0a, 0x00, 0xfb, 0xf5,
  0x04, 0xff, 0xe9, 0xb7, 0xc7, 0xee, 0x0b, 0x0d, 0x04, 0xf7, 0xf1, 0xfe,
  0x1b, 0x01, 0xf6, 0x24, 0xe6, 0x27, 0x19, 0xf8, 0x02, 0x69, 0xb6, 0xcd,
  0x31, 0xf3, 0x30, 0xe3, 0xf8, 0xcb, 0x9b, 0x2b, 0x96, 0x06, 0x11, 0xde,
  0xf5, 0xf0, 0x20, 0x2d, 0xf3, 0x81, 0xb3, 0x16, 0xf8, 0x89, 0xb9, 0xb9,
  0xbf, 0xff, 0xbf, 0xd5, 0x18, 0x28, 0xb1, 0xfe, 0x05, 0xad, 0xfc, 0xdf,
  0x20, 0xbd, 0xe6, 0x07, 0x9a, 0x0e, 0x2a, 0x2c, 0xda, 0x11, 0x11, 0x05,
  0xf8, 0xe2, 0x8a, 0xed, 0xca, 0xdf, 0x94, 0xc7, 0x03, 0x1b, 0xba, 0xff,
  0xfa, 0x22, 0x9f, 0xf7, 0xd1, 0xb2, 0xf2, 0xe7, 0x25, 0xef, 0xc4, 0x4e,
  0xcf, 0xea, 0x26, 0x0b, 0x84, 0x00, 0x2f, 0x2b, 0x2c, 0x1b, 0xb3, 0xe9,
  0xc6, 0x28, 0xb6, 0xa3, 0xae, 0x0b, 0xb5, 0x19, 0x0a, 0x5e, 0xee, 0xe2,
  0xdd, 0x3a, 0xe1, 0x0e, 0xee, 0xe8, 0x1e, 0x0d, 0x2e, 0x02, 0x22, 0xea,
  0x05, 0x22, 0xe5, 0xac, 0x0a, 0xbd, 0xcb, 0xf7, 0xe6, 0xf7, 0x4b, 0xe4,
  0x44, 0xe0, 0xdd, 0xa6, 0xf4, 0x0a, 0xf2, 0xab, 0xdc, 0x08, 0x1d, 0x35,
  0x02, 0xc6, 0x20, 0xc8, 0x38, 0x26, 0x23, 0x4f, 0xf7, 0x09, 0xca, 0xbc,
  0xe0, 0xc9, 0x51, 0xf1, 0x06, 0x06, 0x67, 0x03, 0x38, 0xfd, 0xed, 0x96,
  0xef, 0x5f, 0xf3, 0xc8, 0xee, 0xfc, 0x03, 0xcd, 0xfb, 0x14, 0xef, 0x23,
  0xf8, 0x1a, 0x3f, 0x33, 0xe2, 0x1e, 0x16, 0xac, 0x17, 0xd6, 0x36, 0xd6,
  0xfb, 0xf0, 0x15, 0x07, 0x7f, 0x06, 0xd8, 0xb3, 0x06, 0xe3, 0x0f, 0xae,
  0x0a, 0x1d, 0xde, 0xfb, 0xb5, 0x16, 0x14, 0x0e, 0x8d, 0xe4, 0xff, 0x02,
  0x12, 0xfe, 0xe3, 0xf4, 0xfb, 0x10, 0xc8, 0xd6, 0x17, 0xe0, 0xfa, 0xe4,
  0xfb, 0xde, 0xf2, 0xbc, 0x0b, 0xeb, 0x04, 0xc6, 0x15, 0x07, 0x1e, 0xed,
  0x91, 0x12, 0xd1, 0xe6, 0xa2, 0xd7, 0xe9, 0xcb, 0x07, 0x06, 0xce, 0xd5,
  0xbf, 0x0f, 0xd5, 0xf1, 0x02, 0xe3, 0x00, 0xde, 0xfc, 0xd1, 0xdf, 0xc5,
  0x13, 0x03, 0x07, 0xe8, 0x00, 0x07, 0x2d, 0x17, 0xd4, 0x14, 0xb5, 0x13,
  0x81, 0xcc, 0x16, 0xd9, 0x14, 0x00, 0xd8, 0x2d, 0xd8, 0x06, 0xd9, 0xfe,
  0xe1, 0xf0, 0xfb, 0xe8, 0xe6, 0xd9, 0xf1, 0x29, 0xaf, 0x06, 0x26, 0xde,
  0xae, 0xdc, 0x0e, 0x28, 0x05, 0xfe, 0x2d, 0x13, 0x9b, 0xf7, 0x09, 0xe2,
  0xca, 0xde, 0x0e, 0x24, 0x86, 0x02, 0xf5, 0x35, 0xfd, 0x06, 0xf0, 0xeb,
  0xe2, 0x0d, 0x35, 0x11, 0xa5, 0xe3, 0xfc, 0xc8, 0x94, 0xf4, 0xb1, 0x1a,
  0xda, 0xfa, 0x2e, 0xce, 0xbb, 0xfa, 0xef, 0xc3, 0x02, 0xcd, 0x01, 0xe5,
  0xac, 0x0b, 0xe6, 0x4c, 0x02, 0x08, 0xe4, 0xf2, 0xc8, 0xdc, 0x08, 0xb4,
  0xdd, 0xcf, 0x32, 0xac, 0xc2, 0x08, 0x95, 0x0a, 0x81, 0xdb, 0x3d, 0xab,
  0xc9, 0xb8, 0xeb, 0xc9, 0x3e, 0xf3, 0xff, 0xcf, 0xb9, 0xce, 0xd5, 0x0e,
  0x02, 0xfc, 0x05, 0x28, 0xfd, 0xe4, 0x39, 0xa8, 0x86, 0xfb, 0xff, 0xff,
  0x04, 0x00, 0x00, 0x00, 0x40, 0x00, 0x00, 0x00, 0x75, 0xfe, 0xff, 0xff,
  0x6d, 0xfd, 0xff, 0xff, 0x7a, 0xf8, 0xff, 0xff, 0x3a, 0xff, 0xff, 0xff,
  0x92, 0xfb, 0xff, 0xff, 0x41, 0xfb, 0xff, 0xff, 0x94, 0x00, 0x00, 0x00,
  0xa2, 0xfa, 0xff, 0xff, 0xe5, 0xfd, 0xff, 0xff, 0x4c, 0xfc, 0xff, 0xff,
  0x82, 0xfe, 0xff, 0xff, 0x50, 0xfc, 0xff, 0xff, 0x4f, 0xfd, 0xff, 0xff,
  0xe0, 0xfa, 0xff, 0xff, 0x6f, 0x04, 0x00, 0x00, 0x1c, 0xfb, 0xff, 0xff,
  0xd2, 0xfb, 0xff, 0xff, 0x04, 0x00, 0x00, 0x00, 0x80, 0x01, 0x00, 0x00,
  0x0c, 0xdc, 0xf0, 0x05, 0x37, 0xe8, 0x8a, 0x0d, 0xf0, 0x81, 0x14, 0xc3,
  0xe8, 0x03, 0xa2, 0x33, 0x03, 0xb4, 0xea, 0xdb, 0xef, 0xea, 0xc0, 0x3a,
  0xc1, 0xa9, 0xf3, 0xc1, 0xcf, 0x07, 0xc1, 0x44, 0x2c, 0xa1, 0xcf, 0xdb,
  0x17, 0xee, 0xac, 0x16, 0xa9, 0xd8, 0xd7, 0xdf, 0xf3, 0x1c, 0xc9, 0x37,
  0xe4, 0xc3, 0x8d, 0x85, 0xa1, 0xab, 0x16, 0xc8, 0xa7, 0x04, 0x81, 0xfc,
  0x53, 0x0c, 0x14, 0xf3, 0xba, 0xca, 0xcf, 0xba, 0xe5, 0x9a, 0xbb, 0xe4,
  0xe2, 0x2d, 0xb7, 0x09, 0x31, 0x0b, 0xd9, 0xd2, 0xd5, 0xc6, 0xee, 0xad,
  0xea, 0xad, 0xb8, 0xec, 0xf5, 0x25, 0x86, 0x2b, 0x51, 0xf6, 0xcc, 0xde,
  0x51, 0xbd, 0xd0, 0x3c, 0xe4, 0xed, 0x22, 0xf0, 0x2b, 0xd8, 0x54, 0xab,
  0xb0, 0xcd, 0x0f, 0x13, 0x2e, 0x1b, 0xc5, 0x30, 0xed, 0x31, 0xd3, 0x0b,
  0x1b, 0x04, 0x38, 0xc0, 0xc1, 0xf0, 0xa5, 0x1e, 0x0c, 0x52, 0xfc, 0x7f,
  0xc6, 0x04, 0xf6, 0x1b, 0x4b, 0x03, 0x00, 0xb0, 0xcf, 0xc9, 0xaa, 0x4e,
  0xcc, 0xfb, 0xf2, 0x28, 0xe0, 0xf2, 0x15, 0xf7, 0xc7, 0x81, 0x26, 0xe5,
  0xe7, 0xfb, 0x02, 0xd2, 0x1f, 0xc9, 0xd8, 0x1c, 0xf0, 0x27, 0x15, 0xdf,
  0xec, 0xf8, 0x18, 0xee, 0xdd, 0xed, 0xdc, 0xf8, 0x1e, 0xc2, 0xbb, 0x0e,
  0xf4, 0x2c, 0xe6, 0xdb, 0xf5, 0x10, 0x35, 0xe2, 0xe3, 0xde, 0xa1, 0x2b,
  0xeb, 0x25, 0xaf, 0xb5, 0xcd, 0x81, 0x32, 0xc5, 0xba, 0x3d, 0xc0, 0xa7,
  0xa6, 0xd0, 0x2f, 0x02, 0xf3, 0x08, 0x98, 0xab, 0xae, 0xaa, 0xf7, 0xdf,
  0x1c, 0x9b, 0xdf, 0xf3, 0xd5, 0xe1, 0x2c, 0xe1, 0xf9, 0xd5, 0x12, 0xff,
  0xec, 0xe0, 0x1c, 0x05, 0x2d, 0x41, 0xeb, 0x22, 0x42, 0x1b, 0x03, 0xeb,
  0x05, 0x9f, 0xa0, 0xac, 0x1a, 0xb7, 0xe6, 0x0c, 0xdc, 0x36, 0xae, 0xc9,
  0xfb, 0x49, 0x1b, 0xb0, 0xe2, 0xad, 0x81, 0xc6, 0x00, 0xcd, 0x9f, 0x0d,
  0xc4, 0x2a, 0x9e, 0x1c, 0xfb, 0x0d, 0xd9, 0xbd, 0xfc, 0xbf, 0xb7, 0xda,
  0x33, 0xa1, 0x9b, 0x01, 0x96, 0x41, 0xc5, 0xf3, 0x01, 0x0d, 0xeb, 0xcb,
  0x09, 0xd3, 0x81, 0x30, 0x03, 0x17, 0xfb, 0x16, 0xb3, 0xd7, 0x4e, 0xba,
  0xcc, 0x22, 0x00, 0xde, 0x2e, 0xf7, 0xa6, 0x1b, 0x0b, 0x4a, 0xfe, 0x03,
  0x92, 0xe7, 0xfd, 0xa8, 0xbe, 0x08, 0xf0, 0xce, 0x38, 0xf6, 0xdb, 0x26,
  0x44, 0x2f, 0xea, 0x0e, 0x1c, 0xe3, 0x21, 0xde, 0xbf, 0x08, 0xc2, 0xdb,
  0xde, 0x61, 0x31, 0x31, 0xfa, 0x3b, 0x43, 0xde, 0x60, 0x3f, 0xe0, 0xff,
  0x81, 0xc6, 0x41, 0xce, 0xb5, 0xf9, 0xf4, 0x18, 0xe7, 0x07, 0x54, 0xed,
  0x28, 0x35, 0x3d, 0x0c, 0xca, 0xc9, 0xdb, 0xb9, 0x9c, 0x61, 0x31, 0x4c,
  0x1d, 0x40, 0x38, 0xe1, 0x4f, 0x47, 0xeb, 0x15, 0x01, 0xc0, 0x03, 0xc9,
  0x5e, 0xfd, 0xff, 0xff, 0x04, 0x00, 0x00, 0x00, 0x20, 0x00, 0x00, 0x00,
  0x6a, 0x01, 0x00, 0x00, 0x74, 0xff, 0xff, 0xff, 0xc1, 0xfe, 0xff, 0xff,
  0x54, 0xfe, 0xff, 0xff, 0x8e, 0x00, 0x00, 0x00, 0x16, 0x04, 0x00, 0x00,
  0x7b, 0xff, 0xff, 0xff, 0x9f, 0xfb, 0xff, 0xff, 0x8a, 0xfd, 0xff, 0xff,
  0x04, 0x00, 0x00, 0x00, 0xe0, 0x00, 0x00, 0x00, 0x81, 0x15, 0x91, 0xc9,
  0x00, 0x05, 0x9f, 0xd7, 0xaf, 0x29, 0x0e, 0xd1, 0x10, 0xfc, 0x87, 0xed,
  0x07, 0x27, 0x00, 0x15, 0x94, 0xdb, 0xee, 0xf9, 0x1a, 0x13, 0x1d, 0x0a,
  0x99, 0xd3, 0x14, 0xbc, 0x26, 0x9f, 0x22, 0xff, 0x94, 0x8d, 0xf9, 0xb3,
  0x1b, 0xb4, 0x0f, 0xf8, 0xd0, 0xd3, 0xed, 0xa2, 0x16, 0xed, 0xf6, 0xe2,
  0x28, 0x04, 0xfb, 0xbc, 0xde, 0xa4, 0x2d, 0x14, 0xf8, 0xe9, 0x16, 0x0c,
  0x08, 0xbe, 0x27, 0x36, 0x13, 0xe0, 0x13, 0x1b, 0xf1, 0xea, 0x12, 0x21,
  0x0a, 0xe0, 0x04, 0x1c, 0xdf, 0x09, 0x1f, 0x0a, 0x0b, 0xdd, 0x17, 0x09,
  0xde, 0x01, 0x00, 0x22, 0x25, 0xee, 0x16, 0x1c, 0xd2, 0xee, 0x27, 0x0f,
  0x07, 0xfc, 0x19, 0x09, 0xdf, 0xe8, 0x0d, 0x13, 0x0d, 0x04, 0xec, 0xef,
  0x29, 0xda, 0x15, 0xdf, 0xba, 0x17, 0x19, 0xd5, 0x2d, 0xf3, 0x01, 0xfa,
  0xe7, 0x1d, 0xf9, 0xdc, 0x1f, 0xf1, 0xeb, 0xf7, 0xe0, 0x1e, 0x01, 0xde,
  0x19, 0xff, 0x05, 0xf0, 0xed, 0x16, 0x16, 0xc1, 0x27, 0x11, 0xed, 0xf0,
  0x01, 0x17, 0x0b, 0xdd, 0x12, 0x0b, 0x02, 0x01, 0xf4, 0x14, 0x17, 0xd3,
  0x08, 0xfa, 0x3a, 0xe9, 0xe0, 0x0a, 0x1f, 0xde, 0xcb, 0xff, 0xe8, 0xe4,
  0x14, 0x0b, 0xe4, 0x04, 0xe2, 0x30, 0xe7, 0xf0, 0x1e, 0x20, 0xdd, 0x0c,
  0xdb, 0x1e, 0xea, 0xd8, 0x1d, 0x11, 0xd8, 0x19, 0xd7, 0x1e, 0xef, 0xb3,
  0x16, 0x0b, 0xcd, 0x03, 0xf2, 0x24, 0xda, 0xc5, 0x22, 0x05, 0xc6, 0x0d,
  0xe9, 0x10, 0xcd, 0xc5, 0x26, 0xe4, 0xfc, 0x0a, 0xd9, 0x08, 0xed, 0xe7,
  0x2c, 0x01, 0xf9, 0xf2, 0x76, 0xfe, 0xff, 0xff, 0x04, 0x00, 0x00, 0x00,
  0x10, 0x00, 0x00, 0x00, 0x75, 0xfc, 0xff, 0xff, 0xe9, 0xfd, 0xff, 0xff,
  0x8b, 0x02, 0x00, 0x00, 0xa5, 0x01, 0x00, 0x00, 0x92, 0xfe, 0xff, 0xff,
  0x04, 0x00, 0x00, 0x00, 0x08, 0x00, 0x00, 0x00, 0xff, 0xff, 0xff, 0xff,
  0x38, 0x00, 0x00, 0x00, 0xa6, 0xfe, 0xff, 0xff, 0x04, 0x00, 0x00, 0x00,
  0x10, 0x00, 0x00, 0x00, 0x01, 0x00, 0x00, 0x00, 0x0d, 0x00, 0x00, 0x00,
  0x01, 0x00, 0x00, 0x00, 0x08, 0x00, 0x00, 0x00, 0xc2, 0xfe, 0xff, 0xff,
  0x04, 0x00, 0x00, 0x00, 0x10, 0x00, 0x00, 0x00, 0x01, 0x00, 0x00, 0x00,
  0x01, 0x00, 0x00, 0x00, 0x0d, 0x00, 0x00, 0x00, 0x10, 0x00, 0x00, 0x00,
  0xde, 0xfe, 0xff, 0xff, 0x04, 0x00, 0x00, 0x00, 0x10, 0x00, 0x00, 0x00,
  0x01, 0x00, 0x00, 0x00, 0x19, 0x00, 0x00, 0x00, 0x01, 0x00, 0x00, 0x00,
  0x10, 0x00, 0x00, 0x00, 0xfa, 0xfe, 0xff, 0xff, 0x04, 0x00, 0x00, 0x00,
  0x10, 0x00, 0x00, 0x00, 0x01, 0x00, 0x00, 0x00, 0x01, 0x00, 0x00, 0x00,
  0x19, 0x00, 0x00, 0x00, 0x20, 0x00, 0x00, 0x00, 0x16, 0xff, 0xff, 0xff,
  0x04, 0x00, 0x00, 0x00, 0x10, 0x00, 0x00, 0x00, 0x01, 0x00, 0x00, 0x00,
  0x32, 0x00, 0x00, 0x00, 0x01, 0x00, 0x00, 0x00, 0x20, 0x00, 0x00, 0x00,
  0x32, 0xff, 0xff, 0xff, 0x04, 0x00, 0x00, 0x00, 0x10, 0x00, 0x00, 0x00,
  0x01, 0x00, 0x00, 0x00, 0x01, 0x00, 0x00, 0x00, 0x32, 0x00, 0x00, 0x00,
  0x0d, 0x00, 0x00, 0x00, 0xbc, 0xe8, 0xff, 0xff, 0xc0, 0xe8, 0xff, 0xff,
  0x0f, 0x00, 0x00, 0x00, 0x4d, 0x4c, 0x49, 0x52, 0x20, 0x43, 0x6f, 0x6e,
  0x76, 0x65, 0x72, 0x74, 0x65, 0x64, 0x2e, 0x00, 0x01, 0x00, 0x00, 0x00,
  0x14, 0x00, 0x00, 0x00, 0x00, 0x00, 0x0e, 0x00, 0x18, 0x00, 0x14, 0x00,
  0x10, 0x00, 0x0c, 0x00, 0x08, 0x00, 0x04, 0x00, 0x0e, 0x00, 0x00, 0x00,
  0x14, 0x00, 0x00, 0x00, 0x1c, 0x00, 0x00, 0x00, 0x50, 0x03, 0x00, 0x00,
  0x54, 0x03, 0x00, 0x00, 0x58, 0x03, 0x00, 0x00, 0x04, 0x00, 0x00, 0x00,
  0x6d, 0x61, 0x69, 0x6e, 0x00, 0x00, 0x00, 0x00, 0x0f, 0x00, 0x00, 0x00,
  0x14, 0x03, 0x00, 0x00, 0xb8, 0x02, 0x00, 0x00, 0x84, 0x02, 0x00, 0x00,
  0x34, 0x02, 0x00, 0x00, 0x10, 0x02, 0x00, 0x00, 0xcc, 0x01, 0x00, 0x00,
  0xa8, 0x01, 0x00, 0x00, 0x68, 0x01, 0x00, 0x00, 0x44, 0x01, 0x00, 0x00,
  0x00, 0x01, 0x00, 0x00, 0xdc, 0x00, 0x00, 0x00, 0x9c, 0x00, 0x00, 0x00,
  0x78, 0x00, 0x00, 0x00, 0x40, 0x00, 0x00, 0x00, 0x04, 0x00, 0x00, 0x00,
  0x8e, 0xfd, 0xff, 0xff, 0x1c, 0x00, 0x00, 0x00, 0x00, 0x00, 0x00, 0x09,
  0x1c, 0x00, 0x00, 0x00, 0x20, 0x00, 0x00, 0x00, 0x04, 0x00, 0x00, 0x00,
  0x00, 0x00, 0x06, 0x00, 0x08, 0x00, 0x04, 0x00, 0x06, 0x00, 0x00, 0x00,
  0x00, 0x00, 0x80, 0x3f, 0x01, 0x00, 0x00, 0x00, 0x1e, 0x00, 0x00, 0x00,
  0x01, 0x00, 0x00, 0x00, 0x1d, 0x00, 0x00, 0x00, 0xc6, 0xfd, 0xff, 0xff,
  0x14, 0x00, 0x00, 0x00, 0x00, 0x00, 0x00, 0x08, 0x10, 0x00, 0x00, 0x00,
  0x14, 0x00, 0x00, 0x00, 0x03, 0x00, 0x00, 0x00, 0xa4, 0xe9, 0xff, 0xff,
  0x01, 0x00, 0x00, 0x00, 0x1d, 0x00, 0x00, 0x00, 0x03, 0x00, 0x00, 0x00,
  0x1c, 0x00, 0x00, 0x00, 0x09, 0x00, 0x00, 0x00, 0x08, 0x00, 0x00, 0x00,
  0x9e, 0xfd, 0xff, 0xff, 0x08, 0x00, 0x00, 0x00, 0x0c, 0x00, 0x00, 0x00,
  0x01, 0x00, 0x00, 0x00, 0x1c, 0x00, 0x00, 0x00, 0x02, 0x00, 0x00, 0x00,
  0x1b, 0x00, 0x00, 0x00, 0x07, 0x00, 0x00, 0x00, 0x1a, 0xfe, 0xff, 0xff,
  0x14, 0x00, 0x00, 0x00, 0x00, 0x00, 0x00, 0x05, 0x20, 0x00, 0x00, 0x00,
  0x24, 0x00, 0x00, 0x00, 0x02, 0x00, 0x00, 0x00, 0x86, 0xfe, 0xff, 0xff,
  0x02, 0x00, 0x00, 0x00, 0x01, 0x00, 0x00, 0x00, 0x02, 0x00, 0x00, 0x00,
  0x01, 0x00, 0x00, 0x00, 0x01, 0x00, 0x00, 0x00, 0x1b, 0x00, 0x00, 0x00,
  0x01, 0x00, 0x00, 0x00, 0x1a, 0x00, 0x00, 0x00, 0xfa, 0xfd, 0xff, 0xff,
  0x08, 0x00, 0x00, 0x00, 0x0c, 0x00, 0x00, 0x00, 0x01, 0x00, 0x00, 0x00,
  0x1a, 0x00, 0x00, 0x00, 0x02, 0x00, 0x00, 0x00, 0x19, 0x00, 0x00, 0x00,
  0x06, 0x00, 0x00, 0x00, 0x76, 0xfe, 0xff, 0xff, 0x14, 0x00, 0x00, 0x00,
  0x00, 0x00, 0x00, 0x01, 0x1c, 0x00, 0x00, 0x00, 0x20, 0x00, 0x00, 0x00,
  0x01, 0x00, 0x00, 0x00, 0x68, 0xfe, 0xff, 0xff, 0x00, 0x00, 0x00, 0x01,
  0x01, 0x00, 0x00, 0x00, 0x01, 0x00, 0x00, 0x00, 0x01, 0x00, 0x00, 0x00,
  0x19, 0x00, 0x00, 0x00, 0x03, 0x00, 0x00, 0x00, 0x18, 0x00, 0x00, 0x00,
  0x0b, 0x00, 0x00, 0x00, 0x0a, 0x00, 0x00, 0x00, 0x5a, 0xfe, 0xff, 0xff,
  0x08, 0x00, 0x00, 0x00, 0x0c, 0x00, 0x00, 0x00, 0x01, 0x00, 0x00, 0x00,
  0x18, 0x00, 0x00, 0x00, 0x02, 0x00, 0x00, 0x00, 0x17, 0x00, 0x00, 0x00,
  0x05, 0x00, 0x00, 0x00, 0xd6, 0xfe, 0xff, 0xff, 0x14, 0x00, 0x00, 0x00,
  0x00, 0x00, 0x00, 0x05, 0x20, 0x00, 0x00, 0x00, 0x24, 0x00, 0x00, 0x00,
  0x02, 0x00, 0x00, 0x00, 0x42, 0xff, 0xff, 0xff, 0x02, 0x00, 0x00, 0x00,
  0x01, 0x00, 0x00, 0x00, 0x02, 0x00, 0x00, 0x00, 0x01, 0x00, 0x00, 0x00,
  0x01, 0x00, 0x00, 0x00, 0x17, 0x00, 0x00, 0x00, 0x01, 0x00, 0x00, 0x00,
  0x16, 0x00, 0x00, 0x00, 0xb6, 0xfe, 0xff, 0xff, 0x08, 0x00, 0x00, 0x00,
  0x0c, 0x00, 0x00, 0x00, 0x01, 0x00, 0x00, 0x00, 0x16, 0x00, 0x00, 0x00,
  0x02, 0x00, 0x00, 0x00, 0x15, 0x00, 0x00, 0x00, 0x04, 0x00, 0x00, 0x00,
  0x32, 0xff, 0xff, 0xff, 0x14, 0x00, 0x00, 0x00, 0x00, 0x00, 0x00, 0x01,
  0x1c, 0x00, 0x00, 0x00, 0x20, 0x00, 0x00, 0x00, 0x01, 0x00, 0x00, 0x00,
  0x24, 0xff, 0xff, 0xff, 0x00, 0x00, 0x00, 0x01, 0x01, 0x00, 0x00, 0x00,
  0x01, 0x00, 0x00, 0x00, 0x01, 0x00, 0x00, 0x00, 0x15, 0x00, 0x00, 0x00,
  0x03, 0x00, 0x00, 0x00, 0x14, 0x00, 0x00, 0x00, 0x0d, 0x00, 0x00, 0x00,
  0x0c, 0x00, 0x00, 0x00, 0x16, 0xff, 0xff, 0xff, 0x08, 0x00, 0x00, 0x00,
  0x0c, 0x00, 0x00, 0x00, 0x01, 0x00, 0x00, 0x00, 0x14, 0x00, 0x00, 0x00,
  0x02, 0x00, 0x00, 0x00, 0x13, 0x00, 0x00, 0x00, 0x03, 0x00, 0x00, 0x00,
  0x92, 0xff, 0xff, 0xff, 0x24, 0x00, 0x00, 0x00, 0x00, 0x00, 0x00, 0x05,
  0x30, 0x00, 0x00, 0x00, 0x34, 0x00, 0x00, 0x00, 0x02, 0x00, 0x00, 0x00,
  0x00, 0x00, 0x0e, 0x00, 0x14, 0x00, 0x00, 0x00, 0x10, 0x00, 0x0c, 0x00,
  0x08, 0x00, 0x04, 0x00, 0x0e, 0x00, 0x00, 0x00, 0x02, 0x00, 0x00, 0x00,
  0x01, 0x00, 0x00, 0x00, 0x02, 0x00, 0x00, 0x00, 0x01, 0x00, 0x00, 0x00,
  0x01, 0x00, 0x00, 0x00, 0x13, 0x00, 0x00, 0x00, 0x01, 0x00, 0x00, 0x00,
  0x12, 0x00, 0x00, 0x00, 0x82, 0xff, 0xff, 0xff, 0x08, 0x00, 0x00, 0x00,
  0x0c, 0x00, 0x00, 0x00, 0x01, 0x00, 0x00, 0x00, 0x12, 0x00, 0x00, 0x00,
  0x02, 0x00, 0x00, 0x00, 0x11, 0x00, 0x00, 0x00, 0x02, 0x00, 0x00, 0x00,
  0x00, 0x00, 0x0e, 0x00, 0x18, 0x00, 0x14, 0x00, 0x10, 0x00, 0x0c, 0x00,
  0x0b, 0x00, 0x04, 0x00, 0x0e, 0x00, 0x00, 0x00, 0x20, 0x00, 0x00, 0x00,
  0x00, 0x00, 0x00, 0x01, 0x28, 0x00, 0x00, 0x00, 0x2c, 0x00, 0x00, 0x00,
  0x01, 0x00, 0x00, 0x00, 0x0c, 0x00, 0x10, 0x00, 0x00, 0x00, 0x0c, 0x00,
  0x08, 0x00, 0x07, 0x00, 0x0c, 0x00, 0x00, 0x00, 0x00, 0x00, 0x00, 0x01,
  0x01, 0x00, 0x00, 0x00, 0x01, 0x00, 0x00, 0x00, 0x01, 0x00, 0x00, 0x00,
  0x11, 0x00, 0x00, 0x00, 0x03, 0x00, 0x00, 0x00, 0x10, 0x00, 0x00, 0x00,
  0x0f, 0x00, 0x00, 0x00, 0x0e, 0x00, 0x00, 0x00, 0x00, 0x00, 0x0a, 0x00,
  0x0c, 0x00, 0x00, 0x00, 0x08, 0x00, 0x04, 0x00, 0x0a, 0x00, 0x00, 0x00,
  0x08, 0x00, 0x00, 0x00, 0x0c, 0x00, 0x00, 0x00, 0x01, 0x00, 0x00, 0x00,
  0x10, 0x00, 0x00, 0x00, 0x02, 0x00, 0x00, 0x00, 0x00, 0x00, 0x00, 0x00,
  0x01, 0x00, 0x00, 0x00, 0x01, 0x00, 0x00, 0x00, 0x1e, 0x00, 0x00, 0x00,
  0x01, 0x00, 0x00, 0x00, 0x00, 0x00, 0x00, 0x00, 0x1f, 0x00, 0x00, 0x00,
  0xf0, 0x13, 0x00, 0x00, 0x80, 0x13, 0x00, 0x00, 0x2c, 0x13, 0x00, 0x00,
  0xd4, 0x12, 0x00, 0x00, 0x7c, 0x12, 0x00, 0x00, 0x24, 0x12, 0x00, 0x00,
  0xcc, 0x11, 0x00, 0x00, 0x80, 0x11, 0x00, 0x00, 0x04, 0x11, 0x00, 0x00,
  0x98, 0x10, 0x00, 0x00, 0xcc, 0x0f, 0x00, 0x00, 0x00, 0x0f, 0x00, 0x00,
  0xd4, 0x0d, 0x00, 0x00, 0xa8, 0x0c, 0x00, 0x00, 0xbc, 0x0a, 0x00, 0x00,
  0xd0, 0x08, 0x00, 0x00, 0x4c, 0x08, 0x00, 0x00, 0x60, 0x07, 0x00, 0x00,
  0xdc, 0x06, 0x00, 0x00, 0x60, 0x06, 0x00, 0x00, 0xdc, 0x05, 0x00, 0x00,
  0xe0, 0x04, 0x00, 0x00, 0x5c, 0x04, 0x00, 0x00, 0xe0, 0x03, 0x00, 0x00,
  0x5c, 0x03, 0x00, 0x00, 0x60, 0x02, 0x00, 0x00, 0xdc, 0x01, 0x00, 0x00,
  0x60, 0x01, 0x00, 0x00, 0xf4, 0x00, 0x00, 0x00, 0x70, 0x00, 0x00, 0x00,
  0x04, 0x00, 0x00, 0x00, 0xa2, 0xec, 0xff, 0xff, 0x00, 0x00, 0x00, 0x01,
  0x14, 0x00, 0x00, 0x00, 0x30, 0x00, 0x00, 0x00, 0x1f, 0x00, 0x00, 0x00,
  0x00, 0x00, 0x00, 0x09, 0x44, 0x00, 0x00, 0x00, 0x8c, 0xec, 0xff, 0xff,
  0x08, 0x00, 0x00, 0x00, 0x10, 0x00, 0x00, 0x00, 0x01, 0x00, 0x00, 0x00,
  0x80, 0xff, 0xff, 0xff, 0xff, 0xff, 0xff, 0xff, 0x01, 0x00, 0x00, 0x00,
  0x00, 0x00, 0x80, 0x3b, 0x19, 0x00, 0x00, 0x00, 0x53, 0x74, 0x61, 0x74,
  0x65, 0x66, 0x75, 0x6c, 0x50, 0x61, 0x72, 0x74, 0x69, 0x74, 0x69, 0x6f,
  0x6e, 0x65, 0x64, 0x43, 0x61, 0x6c, 0x6c, 0x3a, 0x30, 0x00, 0x00, 0x00,
  0x02, 0x00, 0x00, 0x00, 0x01, 0x00, 0x00, 0x00, 0x04, 0x00, 0x00, 0x00,
  0x0a, 0xed, 0xff, 0xff, 0x00, 0x00, 0x00, 0x01, 0x14, 0x00, 0x00, 0x00,
  0x30, 0x00, 0x00, 0x00, 0x1e, 0x00, 0x00, 0x00, 0x00, 0x00, 0x00, 0x09,
  0x5c, 0x00, 0x00, 0x00, 0xf4, 0xec, 0xff, 0xff, 0x08, 0x00, 0x00, 0x00,
  0x10, 0x00, 0x00, 0x00, 0x01, 0x00, 0x00, 0x00, 0x2e, 0x00, 0x00, 0x00,
  0x00, 0x00, 0x00, 0x00, 0x01, 0x00, 0x00, 0x00, 0xd2, 0xfd, 0xbd, 0x3e,
  0x32, 0x00, 0x00, 0x00, 0x73, 0x65, 0x71, 0x75, 0x65, 0x6e, 0x74, 0x69,
  0x61, 0x6c, 0x2f, 0x79, 0x5f, 0x70, 0x72, 0x65, 0x64, 0x2f, 0x4d, 0x61,
  0x74, 0x4d, 0x75, 0x6c, 0x3b, 0x73, 0x65, 0x71, 0x75, 0x65, 0x6e, 0x74,
  0x69, 0x61, 0x6c, 0x2f, 0x79, 0x5f, 0x70, 0x72, 0x65, 0x64, 0x2f, 0x42,
  0x69, 0x61, 0x73, 0x41, 0x64, 0x64, 0x00, 0x00, 0x02, 0x00, 0x00, 0x00,
  0x01, 0x00, 0x00, 0x00, 0x04, 0x00, 0x00, 0x00, 0x8a, 0xed, 0xff, 0xff,
  0x00, 0x00, 0x00, 0x01, 0x14, 0x00, 0x00, 0x00, 0x30, 0x00, 0x00, 0x00,
  0x1d, 0x00, 0x00, 0x00, 0x00, 0x00, 0x00, 0x09, 0x44, 0x00, 0x00, 0x00,
  0x74, 0xed, 0xff, 0xff, 0x08, 0x00, 0x00, 0x00, 0x10, 0x00, 0x00, 0x00,
  0x01, 0x00, 0x00, 0x00, 0x80, 0xff, 0xff, 0xff, 0xff, 0xff, 0xff, 0xff,
  0x01, 0x00, 0x00, 0x00, 0x1a, 0x8a, 0xba, 0x3d, 0x1a, 0x00, 0x00, 0x00,
  0x73, 0x65, 0x71, 0x75, 0x65, 0x6e, 0x74, 0x69, 0x61, 0x6c, 0x2f, 0x66,
  0x6c, 0x61, 0x74, 0x74, 0x65, 0x6e, 0x2f, 0x52, 0x65, 0x73, 0x68, 0x61,
  0x70, 0x65, 0x00, 0x00, 0x02, 0x00, 0x00, 0x00, 0x01, 0x00, 0x00, 0x00,
  0x38, 0x00, 0x00, 0x00, 0xf2, 0xed, 0xff, 0xff, 0x00, 0x00, 0x00, 0x01,
  0x14, 0x00, 0x00, 0x00, 0x30, 0x00, 0x00, 0x00, 0x1c, 0x00, 0x00, 0x00,
  0x00, 0x00, 0x00, 0x09, 0x4c, 0x00, 0x00, 0x00, 0xdc, 0xed, 0xff, 0xff,
  0x08, 0x00, 0x00, 0x00, 0x10, 0x00, 0x00, 0x00, 0x01, 0x00, 0x00, 0x00,
  0x80, 0xff, 0xff, 0xff, 0xff, 0xff, 0xff, 0xff, 0x01, 0x00, 0x00, 0x00,
  0x1a, 0x8a, 0xba, 0x3d, 0x22, 0x00, 0x00, 0x00, 0x73, 0x65, 0x71, 0x75,
  0x65, 0x6e, 0x74, 0x69, 0x61, 0x6c, 0x2f, 0x6d, 0x61, 0x78, 0x5f, 0x70,
  0x6f, 0x6f, 0x6c, 0x69, 0x6e, 0x67, 0x31, 0x64, 0x5f, 0x32, 0x2f, 0x4d,
  0x61, 0x78, 0x50, 0x6f, 0x6f, 0x6c, 0x00, 0x00, 0x04, 0x00, 0x00, 0x00,
  0x01, 0x00, 0x00, 0x00, 0x07, 0x00, 0x00, 0x00, 0x01, 0x00, 0x00, 0x00,
  0x08, 0x00, 0x00, 0x00, 0x6a, 0xee, 0xff, 0xff, 0x00, 0x00, 0x00, 0x01,
  0x14, 0x00, 0x00, 0x00, 0x34, 0x00, 0x00, 0x00, 0x1b, 0x00, 0x00, 0x00,
  0x00, 0x00, 0x00, 0x09, 0x54, 0x00, 0x00, 0x00, 0x54, 0xee, 0xff, 0xff,
  0x08, 0x00, 0x00, 0x00, 0x14, 0x00, 0x00, 0x00, 0x01, 0x00, 0x00, 0x00,
  0x80, 0xff, 0xff, 0xff, 0xff, 0xff, 0xff, 0xff, 0x00, 0x00, 0x00, 0x00,
  0x01, 0x00, 0x00, 0x00, 0x1a, 0x8a, 0xba, 0x3d, 0x26, 0x00, 0x00, 0x00,
  0x73, 0x65, 0x71, 0x75, 0x65, 0x6e, 0x74, 0x69, 0x61, 0x6c, 0x2f, 0x6d,
  0x61, 0x78, 0x5f, 0x70, 0x6f, 0x6f, 0x6c, 0x69, 0x6e, 0x67, 0x31, 0x64,
  0x5f, 0x32, 0x2f, 0x45, 0x78, 0x70, 0x61, 0x6e, 0x64, 0x44, 0x69, 0x6d,
  0x73, 0x31, 0x00, 0x00, 0x04, 0x00, 0x00, 0x00, 0x01, 0x00, 0x00, 0x00,
  0x0d, 0x00, 0x00, 0x00, 0x01, 0x00, 0x00, 0x00, 0x08, 0x00, 0x00, 0x00,
  0xea, 0xee, 0xff, 0xff, 0x00, 0x00, 0x00, 0x01, 0x14, 0x00, 0x00, 0x00,
  0x34, 0x00, 0x00, 0x00, 0x1a, 0x00, 0x00, 0x00, 0x00, 0x00, 0x00, 0x09,
  0xcc, 0x00, 0x00, 0x00, 0xd4, 0xee, 0xff, 0xff, 0x08, 0x00, 0x00, 0x00,
  0x14, 0x00, 0x00, 0x00, 0x01, 0x00, 0x00, 0x00, 0x80, 0xff, 0xff, 0xff,
  0xff, 0xff, 0xff, 0xff, 0x00, 0x00, 0x00, 0x00, 0x01, 0x00, 0x00, 0x00,
  0x1a, 0x8a, 0xba, 0x3d, 0x9d, 0x00, 0x00, 0x00, 0x73, 0x65, 0x71, 0x75,
  0x65, 0x6e, 0x74, 0x69, 0x61, 0x6c, 0x2f, 0x63, 0x6f, 0x6e, 0x76, 0x31,
  0x64, 0x5f, 0x32, 0x2f, 0x52, 0x65, 0x6c, 0x75, 0x3b, 0x73, 0x65, 0x71,
  0x75, 0x65, 0x6e, 0x74, 0x69, 0x61, 0x6c, 0x2f, 0x63, 0x6f, 0x6e, 0x76,
  0x31, 0x64, 0x5f, 0x32, 0x2f, 0x42, 0x69, 0x61, 0x73, 0x41, 0x64, 0x64,
  0x3b, 0x73, 0x65, 0x71, 0x75, 0x65, 0x6e, 0x74, 0x69, 0x61, 0x6c, 0x2f,
  0x63, 0x6f, 0x6e, 0x76, 0x31, 0x64, 0x5f, 0x32, 0x2f, 0x43, 0x6f, 0x6e,
  0x76, 0x31, 0x44, 0x2f, 0x53, 0x71, 0x75, 0x65, 0x65, 0x7a, 0x65, 0x3b,
  0x73, 0x65, 0x71, 0x75, 0x65, 0x6e, 0x74, 0x69, 0x61, 0x6c, 0x2f, 0x63,
  0x6f, 0x6e, 0x76, 0x31, 0x64, 0x5f, 0x32, 0x2f, 0x42, 0x69, 0x61, 0x73,
  0x41, 0x64, 0x64, 0x2f, 0x52, 0x65, 0x61, 0x64, 0x56, 0x61, 0x72, 0x69,
  0x61, 0x62, 0x6c, 0x65, 0x4f, 0x70, 0x3b, 0x73, 0x65, 0x71, 0x75, 0x65,
  0x6e, 0x74, 0x69, 0x61, 0x6c, 0x2f, 0x63, 0x6f, 0x6e, 0x76, 0x31, 0x64,
  0x5f, 0x32, 0x2f, 0x43, 0x6f, 0x6e, 0x76, 0x31, 0x44, 0x00, 0x00, 0x00,
  0x04, 0x00, 0x00, 0x00, 0x01, 0x00, 0x00, 0x00, 0x01, 0x00, 0x00, 0x00,
  0x0d, 0x00, 0x00, 0x00, 0x08, 0x00, 0x00, 0x00, 0xe2, 0xef, 0xff, 0xff,
  0x00, 0x00, 0x00, 0x01, 0x14, 0x00, 0x00, 0x00, 0x34, 0x00, 0x00, 0x00,
  0x19, 0x00, 0x00, 0x00, 0x00, 0x00, 0x00, 0x09, 0x54, 0x00, 0x00, 0x00,
  0xcc, 0xef, 0xff, 0xff, 0x08, 0x00, 0x00, 0x00, 0x14, 0x00, 0x00, 0x00,
  0x01, 0x00, 0x00, 0x00, 0x80, 0xff, 0xff, 0xff, 0xff, 0xff, 0xff, 0xff,
  0x00, 0x00, 0x00, 0x00, 0x01, 0x00, 0x00, 0x00, 0xde, 0xd2, 0xab, 0x3d,
  0x26, 0x00, 0x00, 0x00, 0x73, 0x65, 0x71, 0x75, 0x65, 0x6e, 0x74, 0x69,
  0x61, 0x6c, 0x2f, 0x63, 0x6f, 0x6e, 0x76, 0x31, 0x64, 0x5f, 0x32, 0x2f,
  0x43, 0x6f, 0x6e, 0x76, 0x31, 0x44, 0x2f, 0x45, 0x78, 0x70, 0x61, 0x6e,
  0x64, 0x44, 0x69, 0x6d, 0x73, 0x31, 0x00, 0x00, 0x04, 0x00, 0x00, 0x00,
  0x01, 0x00, 0x00, 0x00, 0x01, 0x00, 0x00, 0x00, 0x0d, 0x00, 0x00, 0x00,
  0x10, 0x00, 0x00, 0x00, 0x62, 0xf0, 0xff, 0xff, 0x00, 0x00, 0x00, 0x01,
  0x14, 0x00, 0x00, 0x00, 0x30, 0x00, 0x00, 0x00, 0x18, 0x00, 0x00, 0x00,
  0x00, 0x00, 0x00, 0x09, 0x4c, 0x00, 0x00, 0x00, 0x4c, 0xf0, 0xff, 0xff,
  0x08, 0x00, 0x00, 0x00, 0x10, 0x00, 0x00, 0x00, 0x01, 0x00, 0x00, 0x00,
  0x80, 0xff, 0xff, 0xff, 0xff, 0xff, 0xff, 0xff, 0x01, 0x00, 0x00, 0x00,
  0xde, 0xd2, 0xab, 0x3d, 0x22, 0x00, 0x00, 0x00, 0x73, 0x65, 0x71, 0x75,
  0x65, 0x6e, 0x74, 0x69, 0x61, 0x6c, 0x2f, 0x6d, 0x61, 0x78, 0x5f, 0x70,
  0x6f, 0x6f, 0x6c, 0x69, 0x6e, 0x67, 0x31, 0x64, 0x5f, 0x31, 0x2f, 0x4d,
  0x61, 0x78, 0x50, 0x6f, 0x6f, 0x6c, 0x00, 0x00, 0x04, 0x00, 0x00, 0x00,
  0x01, 0x00, 0x00, 0x00, 0x0d, 0x00, 0x00, 0x00, 0x01, 0x00, 0x00, 0x00,
  0x10, 0x00, 0x00, 0x00, 0xda, 0xf0, 0xff, 0xff, 0x00, 0x00, 0x00, 0x01,
  0x14, 0x00, 0x00, 0x00, 0x34, 0x00, 0x00, 0x00, 0x17, 0x00, 0x00, 0x00,
  0x00, 0x00, 0x00, 0x09, 0x54, 0x00, 0x00, 0x00, 0xc4, 0xf0, 0xff, 0xff,
  0x08, 0x00, 0x00, 0x00, 0x14, 0x00, 0x00, 0x00, 0x01, 0x00, 0x00, 0x00,
  0x80, 0xff, 0xff, 0xff, 0xff, 0xff, 0xff, 0xff, 0x00, 0x00, 0x00, 0x00,
  0x01, 0x00, 0x00, 0x00, 0xde, 0xd2, 0xab, 0x3d, 0x26, 0x00, 0x00, 0x00,
  0x73, 0x65, 0x71, 0x75, 0x65, 0x6e, 0x74, 0x69, 0x61, 0x6c, 0x2f, 0x6d,
  0x61, 0x78, 0x5f, 0x70, 0x6f, 0x6f, 0x6c, 0x69, 0x6e, 0x67, 0x31, 0x64,
  0x5f, 0x31, 0x2f, 0x45, 0x78, 0x70, 0x61, 0x6e, 0x64, 0x44, 0x69, 0x6d,
  0x73, 0x31, 0x00, 0x00, 0x04, 0x00, 0x00, 0x00, 0x01, 0x00, 0x00, 0x00,
  0x19, 0x00, 0x00, 0x00, 0x01, 0x00, 0x00, 0x00, 0x10, 0x00, 0x00, 0x00,
  0x5a, 0xf1, 0xff, 0xff, 0x00, 0x00, 0x00, 0x01, 0x14, 0x00, 0x00, 0x00,
  0x34, 0x00, 0x00, 0x00, 0x16, 0x00, 0x00, 0x00, 0x00, 0x00, 0x00, 0x09,
  0xcc, 0x00, 0x00, 0x00, 0x44, 0xf1, 0xff, 0xff, 0x08, 0x00, 0x00, 0x00,
  0x14, 0x00, 0x00, 0x00, 0x01, 0x00, 0x00, 0x00, 0x80, 0xff, 0xff, 0xff,
  0xff, 0xff, 0xff, 0xff, 0x00, 0x00, 0x00, 0x00, 0x01, 0x00, 0x00, 0x00,
  0xde, 0xd2, 0xab, 0x3d, 0x9d, 0x00, 0x00, 0x00, 0x73, 0x65, 0x71, 0x75,
  0x65, 0x6e, 0x74, 0x69, 0x61, 0x6c, 0x2f, 0x63, 0x6f, 0x6e, 0x76, 0x31,
  0x64, 0x5f, 0x31, 0x2f, 0x52, 0x65, 0x6c, 0x75, 0x3b, 0x73, 0x65, 0x71,
  0x75, 0x65, 0x6e, 0x74, 0x69, 0x61, 0x6c, 0x2f, 0x63, 0x6f, 0x6e, 0x76,
  0x31, 0x64, 0x5f, 0x31, 0x2f, 0x42, 0x69, 0x61, 0x73, 0x41, 0x64, 0x64,
  0x3b, 0x73, 0x65, 0x71, 0x75, 0x65, 0x6e, 0x74, 0x69, 0x61, 0x6c, 0x2f,
  0x63, 0x6f, 0x6e, 0x76, 0x31, 0x64, 0x5f, 0x31, 0x2f, 0x43, 0x6f, 0x6e,
  0x76, 0x31, 0x44, 0x2f, 0x53, 0x71, 0x75, 0x65, 0x65, 0x7a, 0x65, 0x3b,
  0x73, 0x65, 0x71, 0x75, 0x65, 0x6e, 0x74, 0x69, 0x61, 0x6c, 0x2f, 0x63,
  0x6f, 0x6e, 0x76, 0x31, 0x64, 0x5f, 0x31, 0x2f, 0x42, 0x69, 0x61, 0x73,
  0x41, 0x64, 0x64, 0x2f, 0x52, 0x65, 0x61, 0x64, 0x56, 0x61, 0x72, 0x69,
  0x61, 0x62, 0x6c, 0x65, 0x4f, 0x70, 0x3b, 0x73, 0x65, 0x71, 0x75, 0x65,
  0x6e, 0x74, 0x69, 0x61, 0x6c, 0x2f, 0x63, 0x6f, 0x6e, 0x76, 0x31, 0x64,
  0x5f, 0x31, 0x2f, 0x43, 0x6f, 0x6e, 0x76, 0x31, 0x44, 0x00, 0x00, 0x00,
  0x04, 0x00, 0x00, 0x00, 0x01, 0x00, 0x00, 0x00, 0x01, 0x00, 0x00, 0x00,
  0x19, 0x00, 0x00, 0x00, 0x10, 0x00, 0x00, 0x00, 0x52, 0xf2, 0xff, 0xff,
  0x00, 0x00, 0x00, 0x01, 0x14, 0x00, 0x00, 0x00, 0x34, 0x00, 0x00, 0x00,
  0x15, 0x00, 0x00, 0x00, 0x00, 0x00, 0x00, 0x09, 0x54, 0x00, 0x00, 0x00,
  0x3c, 0xf2, 0xff, 0xff, 0x08, 0x00, 0x00, 0x00, 0x14, 0x00, 0x00, 0x00,
  0x01, 0x00, 0x00, 0x00, 0x80, 0xff, 0xff, 0xff, 0xff, 0xff, 0xff, 0xff,
  0x00, 0x00, 0x00, 0x00, 0x01, 0x00, 0x00, 0x00, 0x74, 0xc1, 0x41, 0x3d,
  0x26, 0x00, 0x00, 0x00, 0x73, 0x65, 0x71, 0x75, 0x65, 0x6e, 0x74, 0x69,
  0x61, 0x6c, 0x2f, 0x63, 0x6f, 0x6e, 0x76, 0x31, 0x64, 0x5f, 0x31, 0x2f,
  0x43, 0x6f, 0x6e, 0x76, 0x31, 0x44, 0x2f, 0x45, 0x78, 0x70, 0x61, 0x6e,
  0x64, 0x44, 0x69, 0x6d, 0x73, 0x31, 0x00, 0x00, 0x04, 0x00, 0x00, 0x00,
  0x01, 0x00, 0x00, 0x00, 0x01, 0x00, 0x00, 0x00, 0x19, 0x00, 0x00, 0x00,
  0x20, 0x00, 0x00, 0x00, 0xd2, 0xf2, 0xff, 0xff, 0x00, 0x00, 0x00, 0x01,
  0x14, 0x00, 0x00, 0x00, 0x30, 0x00, 0x00, 0x00, 0x14, 0x00, 0x00, 0x00,
  0x00, 0x00, 0x00, 0x09, 0x4c, 0x00, 0x00, 0x00, 0xbc, 0xf2, 0xff, 0xff,
  0x08, 0x00, 0x00, 0x00, 0x10, 0x00, 0x00, 0x00, 0x01, 0x00, 0x00, 0x00,
  0x80, 0xff, 0xff, 0xff, 0xff, 0xff, 0xff, 0xff, 0x01, 0x00, 0x00, 0x00,
  0x74, 0xc1, 0x41, 0x3d, 0x20, 0x00, 0x00, 0x00, 0x73, 0x65, 0x71, 0x75,
  0x65, 0x6e, 0x74, 0x69, 0x61, 0x6c, 0x2f, 0x6d, 0x61, 0x78, 0x5f, 0x70,
  0x6f, 0x6f, 0x6c, 0x69, 0x6e, 0x67, 0x31, 0x64, 0x2f, 0x4d, 0x61, 0x78,
  0x50, 0x6f, 0x6f, 0x6c, 0x00, 0x00, 0x00, 0x00, 0x04, 0x00, 0x00, 0x00,
  0x01, 0x00, 0x00, 0x00, 0x19, 0x00, 0x00, 0x00, 0x01, 0x00, 0x00, 0x00,
  0x20, 0x00, 0x00, 0x00, 0x4a, 0xf3, 0xff, 0xff, 0x00, 0x00, 0x00, 0x01,
  0x14, 0x00, 0x00, 0x00, 0x34, 0x00, 0x00, 0x00, 0x13, 0x00, 0x00, 0x00,
  0x00, 0x00, 0x00, 0x09, 0x54, 0x00, 0x00, 0x00, 0x34, 0xf3, 0xff, 0xff,
  0x08, 0x00, 0x00, 0x00, 0x14, 0x00, 0x00, 0x00, 0x01, 0x00, 0x00, 0x00,
  0x80, 0xff, 0xff, 0xff, 0xff, 0xff, 0xff, 0xff, 0x00, 0x00, 0x00, 0x00,
  0x01, 0x00, 0x00, 0x00, 0x74, 0xc1, 0x41, 0x3d, 0x24, 0x00, 0x00, 0x00,
  0x73, 0x65, 0x71, 0x75, 0x65, 0x6e, 0x74, 0x69, 0x61, 0x6c, 0x2f, 0x6d,
  0x61, 0x78, 0x5f, 0x70, 0x6f, 0x6f, 0x6c, 0x69, 0x6e, 0x67, 0x31, 0x64,
  0x2f, 0x45, 0x78, 0x70, 0x61, 0x6e, 0x64, 0x44, 0x69, 0x6d, 0x73, 0x31,
  0x00, 0x00, 0x00, 0x00, 0x04, 0x00, 0x00, 0x00, 0x01, 0x00, 0x00, 0x00,
  0x32, 0x00, 0x00, 0x00, 0x01, 0x00, 0x00, 0x00, 0x20, 0x00, 0x00, 0x00,
  0xca, 0xf3, 0xff, 0xff, 0x00, 0x00, 0x00, 0x01, 0x14, 0x00, 0x00, 0x00,
  0x30, 0x00, 0x00, 0x00, 0x12, 0x00, 0x00, 0x00, 0x00, 0x00, 0x00, 0x09,
  0xbc, 0x00, 0x00, 0x00, 0xb4, 0xf3, 0xff, 0xff, 0x08, 0x00, 0x00, 0x00,
  0x10, 0x00, 0x00, 0x00, 0x01, 0x00, 0x00, 0x00, 0x80, 0xff, 0xff, 0xff,
  0xff, 0xff, 0xff, 0xff, 0x01, 0x00, 0x00, 0x00, 0x74, 0xc1, 0x41, 0x3d,
  0x93, 0x00, 0x00, 0x00, 0x73, 0x65, 0x71, 0x75, 0x65, 0x6e, 0x74, 0x69,
  0x61, 0x6c, 0x2f, 0x63, 0x6f, 0x6e, 0x76, 0x31, 0x64, 0x2f, 0x52, 0x65,
  0x6c, 0x75, 0x3b, 0x73, 0x65, 0x71, 0x75, 0x65, 0x6e, 0x74, 0x69, 0x61,
  0x6c, 0x2f, 0x63, 0x6f, 0x6e, 0x76, 0x31, 0x64, 0x2f, 0x42, 0x69, 0x61,
  0x73, 0x41, 0x64, 0x64, 0x3b, 0x73, 0x65, 0x71, 0x75, 0x65, 0x6e, 0x74,
  0x69, 0x61, 0x6c, 0x2f, 0x63, 0x6f, 0x6e, 0x76, 0x31, 0x64, 0x2f, 0x43,
  0x6f, 0x6e, 0x76, 0x31, 0x44, 0x2f, 0x53, 0x71, 0x75, 0x65, 0x65, 0x7a,
  0x65, 0x3b, 0x73, 0x65, 0x71, 0x75, 0x65, 0x6e, 0x74, 0x69, 0x61, 0x6c,
  0x2f, 0x63, 0x6f, 0x6e, 0x76, 0x31, 0x64, 0x2f, 0x42, 0x69, 0x61, 0x73,
  0x41, 0x64, 0x64, 0x2f, 0x52, 0x65, 0x61, 0x64, 0x56, 0x61, 0x72, 0x69,
  0x61, 0x62, 0x6c, 0x65, 0x4f, 0x70, 0x3b, 0x73, 0x65, 0x71, 0x75, 0x65,
  0x6e, 0x74, 0x69, 0x61, 0x6c, 0x2f, 0x63, 0x6f, 0x6e, 0x76, 0x31, 0x64,
  0x2f, 0x43, 0x6f, 0x6e, 0x76, 0x31, 0x44, 0x00, 0x04, 0x00, 0x00, 0x00,
  0x01, 0x00, 0x00, 0x00, 0x01, 0x00, 0x00, 0x00, 0x32, 0x00, 0x00, 0x00,
  0x20, 0x00, 0x00, 0x00, 0xb2, 0xf4, 0xff, 0xff, 0x00, 0x00, 0x00, 0x01,
  0x14, 0x00, 0x00, 0x00, 0x34, 0x00, 0x00, 0x00, 0x11, 0x00, 0x00, 0x00,
  0x00, 0x00, 0x00, 0x09, 0x54, 0x00, 0x00, 0x00, 0x9c, 0xf4, 0xff, 0xff,
  0x08, 0x00, 0x00, 0x00, 0x14, 0x00, 0x00, 0x00, 0x01, 0x00, 0x00, 0x00,
  0xf0, 0xff, 0xff, 0xff, 0xff, 0xff, 0xff, 0xff, 0x00, 0x00, 0x00, 0x00,
  0x01, 0x00, 0x00, 0x00, 0x46, 0x7a, 0x45, 0x3d, 0x24, 0x00, 0x00, 0x00,
  0x73, 0x65, 0x71, 0x75, 0x65, 0x6e, 0x74, 0x69, 0x61, 0x6c, 0x2f, 0x63,
  0x6f, 0x6e, 0x76, 0x31, 0x64, 0x2f, 0x43, 0x6f, 0x6e, 0x76, 0x31, 0x44,
  0x2f, 0x45, 0x78, 0x70, 0x61, 0x6e, 0x64, 0x44, 0x69, 0x6d, 0x73, 0x31,
  0x00, 0x00, 0x00, 0x00, 0x04, 0x00, 0x00, 0x00, 0x01, 0x00, 0x00, 0x00,
  0x01, 0x00, 0x00, 0x00, 0x32, 0x00, 0x00, 0x00, 0x0d, 0x00, 0x00, 0x00,
  0x32, 0xf5, 0xff, 0xff, 0x00, 0x00, 0x00, 0x01, 0x14, 0x00, 0x00, 0x00,
  0xa8, 0x01, 0x00, 0x00, 0x10, 0x00, 0x00, 0x00, 0x00, 0x00, 0x00, 0x09,
  0xbc, 0x01, 0x00, 0x00, 0x1c, 0xf5, 0xff, 0xff, 0x08, 0x00, 0x00, 0x00,
  0x0c, 0x01, 0x00, 0x00, 0x20, 0x00, 0x00, 0x00, 0x00, 0x00, 0x00, 0x00,
  0x00, 0x00, 0x00, 0x00, 0x00, 0x00, 0x00, 0x00, 0x00, 0x00, 0x00, 0x00,
  0x00, 0x00, 0x00, 0x00, 0x00, 0x00, 0x00, 0x00, 0x00, 0x00, 0x00, 0x00,
  0x00, 0x00, 0x00, 0x00, 0x00, 0x00, 0x00, 0x00, 0x00, 0x00, 0x00, 0x00,
  0x00, 0x00, 0x00, 0x00, 0x00, 0x00, 0x00, 0x00, 0x00, 0x00, 0x00, 0x00,
  0x00, 0x00, 0x00, 0x00, 0x00, 0x00, 0x00, 0x00, 0x00, 0x00, 0x00, 0x00,
  0x00, 0x00, 0x00, 0x00, 0x00, 0x00, 0x00, 0x00, 0x00, 0x00, 0x00, 0x00,
  0x00, 0x00, 0x00, 0x00, 0x00, 0x00, 0x00, 0x00, 0x00, 0x00, 0x00, 0x00,
  0x00, 0x00, 0x00, 0x00, 0x00, 0x00, 0x00, 0x00, 0x00, 0x00, 0x00, 0x00,
  0x00, 0x00, 0x00, 0x00, 0x00, 0x00, 0x00, 0x00, 0x00, 0x00, 0x00, 0x00,
  0x00, 0x00, 0x00, 0x00, 0x00, 0x00, 0x00, 0x00, 0x00, 0x00, 0x00, 0x00,
  0x00, 0x00, 0x00, 0x00, 0x00, 0x00, 0x00, 0x00, 0x00, 0x00, 0x00, 0x00,
  0x00, 0x00, 0x00, 0x00, 0x00, 0x00, 0x00, 0x00, 0x00, 0x00, 0x00, 0x00,
  0x00, 0x00, 0x00, 0x00, 0x00, 0x00, 0x00, 0x00, 0x00, 0x00, 0x00, 0x00,
  0x00, 0x00, 0x00, 0x00, 0x00, 0x00, 0x00, 0x00, 0x00, 0x00, 0x00, 0x00,
  0x00, 0x00, 0x00, 0x00, 0x00, 0x00, 0x00, 0x00, 0x00, 0x00, 0x00, 0x00,
  0x00, 0x00, 0x00, 0x00, 0x00, 0x00, 0x00, 0x00, 0x00, 0x00, 0x00, 0x00,
  0x00, 0x00, 0x00, 0x00, 0x00, 0x00, 0x00, 0x00, 0x00, 0x00, 0x00, 0x00,
  0x00, 0x00, 0x00, 0x00, 0x00, 0x00, 0x00, 0x00, 0x00, 0x00, 0x00, 0x00,
  0x00, 0x00, 0x00, 0x00, 0x00, 0x00, 0x00, 0x00, 0x00, 0x00, 0x00, 0x00,
  0x00, 0x00, 0x00, 0x00, 0x00, 0x00, 0x00, 0x00, 0x00, 0x00, 0x00, 0x00,
  0x00, 0x00, 0x00, 0x00, 0x00, 0x00, 0x00, 0x00, 0x00, 0x00, 0x00, 0x00,
  0x00, 0x00, 0x00, 0x00, 0x20, 0x00, 0x00, 0x00, 0x68, 0x28, 0x89, 0x3b,
  0x53, 0x23, 0xfe, 0x3b, 0xbf, 0x22, 0x9d, 0x3b, 0xcd, 0x9b, 0x76, 0x3b,
  0xa6, 0xb3, 0xa3, 0x3b, 0x7a, 0x12, 0x96, 0x3b, 0x5b, 0x83, 0xaf, 0x3b,
  0x39, 0x73, 0xe1, 0x3b, 0x81, 0xea, 0x82, 0x3b, 0x4f, 0x12, 0xa7, 0x3b,
  0x46, 0x39, 0xf7, 0x3b, 0xe4, 0xf7, 0xab, 0x3b, 0xe2, 0xdc, 0x3f, 0x3c,
  0xbd, 0x4b, 0x98, 0x3b, 0xaa, 0xf1, 0x91, 0x3b, 0x48, 0x0e, 0xa7, 0x3b,
  0xe2, 0x07, 0x9d, 0x3b, 0xd7, 0x05, 0x9a, 0x3b, 0xda, 0x24, 0x99, 0x3b,
  0x8d, 0xdd, 0x91, 0x3b, 0x1e, 0x5b, 0xb6, 0x3b, 0xa0, 0xa2, 0x92, 0x3b,
  0xb8, 0x65, 0x1d, 0x3c, 0xae, 0x01, 0x7f, 0x3b, 0x9c, 0xbf, 0xae, 0x3b,
  0x90, 0x8b, 0xda, 0x3b, 0x97, 0x0c, 0xb2, 0x3b, 0x48, 0xf7, 0xc2, 0x3b,
  0x62, 0x38, 0x92, 0x3b, 0x53, 0xbd, 0xa5, 0x3b, 0x9e, 0xab, 0xab, 0x3b,
  0xaf, 0x00, 0x8c, 0x3b, 0x18, 0x00, 0x00, 0x00, 0x73, 0x65, 0x71, 0x75,
  0x65, 0x6e, 0x74, 0x69, 0x61, 0x6c, 0x2f, 0x63, 0x6f, 0x6e, 0x76, 0x31,
  0x64, 0x2f, 0x43, 0x6f, 0x6e, 0x76, 0x31, 0x44, 0x00, 0x00, 0x00, 0x00,
  0x04, 0x00, 0x00, 0x00, 0x20, 0x00, 0x00, 0x00, 0x01, 0x00, 0x00, 0x00,
  0x03, 0x00, 0x00, 0x00, 0x0d, 0x00, 0x00, 0x00, 0x1a, 0xf7, 0xff, 0xff,
  0x00, 0x00, 0x00, 0x01, 0x14, 0x00, 0x00, 0x00, 0xa4, 0x01, 0x00, 0x00,
  0x0f, 0x00, 0x00, 0x00, 0x00, 0x00, 0x00, 0x02, 0xc8, 0x01, 0x00, 0x00,
  0x04, 0xf7, 0xff, 0xff, 0x08, 0x00, 0x00, 0x00, 0x08, 0x01, 0x00, 0x00,
  0x20, 0x00, 0x00, 0x00, 0x00, 0x00, 0x00, 0x00, 0x00, 0x00, 0x00, 0x00,
  0x00, 0x00, 0x00, 0x00, 0x00, 0x00, 0x00, 0x00, 0x00, 0x00, 0x00, 0x00,
  0x00, 0x00, 0x00, 0x00, 0x00, 0x00, 0x00, 0x00, 0x00, 0x00, 0x00, 0x00,
  0x00, 0x00, 0x00, 0x00, 0x00, 0x00, 0x00, 0x00, 0x00, 0x00, 0x00, 0x00,
  0x00, 0x00, 0x00, 0x00, 0x00, 0x00, 0x00, 0x00, 0x00, 0x00, 0x00, 0x00,
  0x00, 0x00, 0x00, 0x00, 0x00, 0x00, 0x00, 0x00, 0x00, 0x00, 0x00, 0x00,
  0x00, 0x00, 0x00, 0x00, 0x00, 0x00, 0x00, 0x00, 0x00, 0x00, 0x00, 0x00,
  0x00, 0x00, 0x00, 0x00, 0x00, 0x00, 0x00, 0x00, 0x00, 0x00, 0x00, 0x00,
  0x00, 0x00, 0x00, 0x00, 0x00, 0x00, 0x00, 0x00, 0x00, 0x00, 0x00, 0x00,
  0x00, 0x00, 0x00, 0x00, 0x00, 0x00, 0x00, 0x00, 0x00, 0x00, 0x00, 0x00,
  0x00, 0x00, 0x00, 0x00, 0x00, 0x00, 0x00, 0x00, 0x00, 0x00, 0x00, 0x00,
  0x00, 0x00, 0x00, 0x00, 0x00, 0x00, 0x00, 0x00, 0x00, 0x00, 0x00, 0x00,
  0x00, 0x00, 0x00, 0x00, 0x00, 0x00, 0x00, 0x00, 0x00, 0x00, 0x00, 0x00,
  0x00, 0x00, 0x00, 0x00, 0x00, 0x00, 0x00, 0x00, 0x00, 0x00, 0x00, 0x00,
  0x00, 0x00, 0x00, 0x00, 0x00, 0x00, 0x00, 0x00, 0x00, 0x00, 0x00, 0x00,
  0x00, 0x00, 0x00, 0x00, 0x00, 0x00, 0x00, 0x00, 0x00, 0x00, 0x00, 0x00,
  0x00, 0x00, 0x00, 0x00, 0x00, 0x00, 0x00, 0x00, 0x00, 0x00, 0x00, 0x00,
  0x00, 0x00, 0x00, 0x00, 0x00, 0x00, 0x00, 0x00, 0x00, 0x00, 0x00, 0x00,
  0x00, 0x00, 0x00, 0x00, 0x00, 0x00, 0x00, 0x00, 0x00, 0x00, 0x00, 0x00,
  0x00, 0x00, 0x00, 0x00, 0x00, 0x00, 0x00, 0x00, 0x00, 0x00, 0x00, 0x00,
  0x00, 0x00, 0x00, 0x00, 0x00, 0x00, 0x00, 0x00, 0x00, 0x00, 0x00, 0x00,
  0x00, 0x00, 0x00, 0x00, 0x00, 0x00, 0x00, 0x00, 0x20, 0x00, 0x00, 0x00,
  0x36, 0x9b, 0x53, 0x39, 0x91, 0x0a, 0xc4, 0x39, 0x95, 0x6d, 0x72, 0x39,
  0xae, 0x3b, 0x3e, 0x39, 0xde, 0x8e, 0x7c, 0x39, 0xcb, 0x87, 0x67, 0x39,
  0xea, 0x63, 0x87, 0x39, 0x59, 0xe9, 0xad, 0x39, 0xfa, 0xf9, 0x49, 0x39,
  0xe3, 0xe0, 0x80, 0x39, 0x28, 0xb5, 0xbe, 0x39, 0xe6, 0xa7, 0x84, 0x39,
  0x9e, 0x00, 0x14, 0x3a, 0x0c, 0xf6, 0x6a, 0x39, 0x5a, 0x29, 0x61, 0x39,
  0xc8, 0xdd, 0x80, 0x39, 0x23, 0x44, 0x72, 0x39, 0x1f, 0xa0, 0x6d, 0x39,
  0x02, 0x45, 0x6c, 0x39, 0x52, 0x0a, 0x61, 0x39, 0x37, 0xab, 0x8c, 0x39,
  0x5d, 0x3a, 0x62, 0x39, 0xe8, 0xd4, 0xf2, 0x39, 0x17, 0xb6, 0x44, 0x39,
  0xea, 0xcc, 0x86, 0x39, 0xc8, 0x95, 0xa8, 0x39, 0xbb, 0x58, 0x89, 0x39,
  0x6a, 0x65, 0x96, 0x39, 0x75, 0x96, 0x61, 0x39, 0xb5, 0xb3, 0x7f, 0x39,
  0x0f, 0x6d, 0x84, 0x39, 0xcb, 0xfe, 0x57, 0x39, 0x28, 0x00, 0x00, 0x00,
  0x73, 0x65, 0x71, 0x75, 0x65, 0x6e, 0x74, 0x69, 0x61, 0x6c, 0x2f, 0x63,
  0x6f, 0x6e, 0x76, 0x31, 0x64, 0x2f, 0x42, 0x69, 0x61, 0x73, 0x41, 0x64,
  0x64, 0x2f, 0x52, 0x65, 0x61, 0x64, 0x56, 0x61, 0x72, 0x69, 0x61, 0x62,
  0x6c, 0x65, 0x4f, 0x70, 0x00, 0x00, 0x00, 0x00, 0x01, 0x00, 0x00, 0x00,
  0x20, 0x00, 0x00, 0x00, 0x02, 0xf9, 0xff, 0xff, 0x00, 0x00, 0x00, 0x01,
  0x14, 0x00, 0x00, 0x00, 0xe8, 0x00, 0x00, 0x00, 0x0e, 0x00, 0x00, 0x00,
  0x00, 0x00, 0x00, 0x09, 0xfc, 0x00, 0x00, 0x00, 0xec, 0xf8, 0xff, 0xff,
  0x08, 0x00, 0x00, 0x00, 0x8c, 0x00, 0x00, 0x00, 0x10, 0x00, 0x00, 0x00,
  0x00, 0x00, 0x00, 0x00, 0x00, 0x00, 0x00, 0x00, 0x00, 0x00, 0x00, 0x00,
  0x00, 0x00, 0x00, 0x00, 0x00, 0x00, 0x00, 0x00, 0x00, 0x00, 0x00, 0x00,
  0x00, 0x00, 0x00, 0x00, 0x00, 0x00, 0x00, 0x00, 0x00, 0x00, 0x00, 0x00,
  0x00, 0x00, 0x00, 0x00, 0x00, 0x00, 0x00, 0x00, 0x00, 0x00, 0x00, 0x00,
  0x00, 0x00, 0x00, 0x00, 0x00, 0x00, 0x00, 0x00, 0x00, 0x00, 0x00, 0x00,
  0x00, 0x00, 0x00, 0x00, 0x00, 0x00, 0x00, 0x00, 0x00, 0x00, 0x00, 0x00,
  0x00, 0x00, 0x00, 0x00, 0x00, 0x00, 0x00, 0x00, 0x00, 0x00, 0x00, 0x00,
  0x00, 0x00, 0x00, 0x00, 0x00, 0x00, 0x00, 0x00, 0x00, 0x00, 0x00, 0x00,
  0x00, 0x00, 0x00, 0x00, 0x00, 0x00, 0x00, 0x00, 0x00, 0x00, 0x00, 0x00,
  0x00, 0x00, 0x00, 0x00, 0x00, 0x00, 0x00, 0x00, 0x00, 0x00, 0x00, 0x00,
  0x00, 0x00, 0x00, 0x00, 0x00, 0x00, 0x00, 0x00, 0x00, 0x00, 0x00, 0x00,
  0x10, 0x00, 0x00, 0x00, 0x35, 0xfe, 0xa7, 0x3b, 0x64, 0x34, 0xf2, 0x3b,
  0xd6, 0xce, 0xc8, 0x3b, 0x6a, 0x65, 0xe7, 0x3b, 0x14, 0xdd, 0xe9, 0x3b,
  0xc5, 0x97, 0xc4, 0x3b, 0x0c, 0x90, 0x02, 0x3c, 0xb6, 0x7e, 0xc1, 0x3b,
  0x96, 0x7b, 0x11, 0x3c, 0x55, 0xd8, 0xee, 0x3b, 0x5c, 0x97, 0xf6, 0x3b,
  0x91, 0xe7, 0x18, 0x3c, 0xa1, 0xda, 0xd2, 0x3b, 0x55, 0x24, 0xbc, 0x3b,
  0x74, 0xa1, 0x0c, 0x3c, 0x21, 0x69, 0xd2, 0x3b, 0x1a, 0x00, 0x00, 0x00,
  0x73, 0x65, 0x71, 0x75, 0x65, 0x6e, 0x74, 0x69, 0x61, 0x6c, 0x2f, 0x63,
  0x6f, 0x6e, 0x76, 0x31, 0x64, 0x5f, 0x31, 0x2f, 0x43, 0x6f, 0x6e, 0x76,
  0x31, 0x44, 0x00, 0x00, 0x04, 0x00, 0x00, 0x00, 0x10, 0x00, 0x00, 0x00,
  0x01, 0x00, 0x00, 0x00, 0x03, 0x00, 0x00, 0x00, 0x20, 0x00, 0x00, 0x00,
  0x2a, 0xfa, 0xff, 0xff, 0x00, 0x00, 0x00, 0x01, 0x14, 0x00, 0x00, 0x00,
  0xe4, 0x00, 0x00, 0x00, 0x0d, 0x00, 0x00, 0x00, 0x00, 0x00, 0x00, 0x02,
  0x08, 0x01, 0x00, 0x00, 0x14, 0xfa, 0xff, 0xff, 0x08, 0x00, 0x00, 0x00,
  0x88, 0x00, 0x00, 0x00, 0x10, 0x00, 0x00, 0x00, 0x00, 0x00, 0x00, 0x00,
  0x00, 0x00, 0x00, 0x00, 0x00, 0x00, 0x00, 0x00, 0x00, 0x00, 0x00, 0x00,
  0x00, 0x00, 0x00, 0x00, 0x00, 0x00, 0x00, 0x00, 0x00, 0x00, 0x00, 0x00,
  0x00, 0x00, 0x00, 0x00, 0x00, 0x00, 0x00, 0x00, 0x00, 0x00, 0x00, 0x00,
  0x00, 0x00, 0x00, 0x00, 0x00, 0x00, 0x00, 0x00, 0x00, 0x00, 0x00, 0x00,
  0x00, 0x00, 0x00, 0x00, 0x00, 0x00, 0x00, 0x00, 0x00, 0x00, 0x00, 0x00,
  0x00, 0x00, 0x00, 0x00, 0x00, 0x00, 0x00, 0x00, 0x00, 0x00, 0x00, 0x00,
  0x00, 0x00, 0x00, 0x00, 0x00, 0x00, 0x00, 0x00, 0x00, 0x00, 0x00, 0x00,
  0x00, 0x00, 0x00, 0x00, 0x00, 0x00, 0x00, 0x00, 0x00, 0x00, 0x00, 0x00,
  0x00, 0x00, 0x00, 0x00, 0x00, 0x00, 0x00, 0x00, 0x00, 0x00, 0x00, 0x00,
  0x00, 0x00, 0x00, 0x00, 0x00, 0x00, 0x00, 0x00, 0x00, 0x00, 0x00, 0x00,
  0x00, 0x00, 0x00, 0x00, 0x10, 0x00, 0x00, 0x00, 0x31, 0x4b, 0x7e, 0x39,
  0x87, 0x50, 0xb7, 0x39, 0xae, 0xfb, 0x97, 0x39, 0x51, 0x22, 0xaf, 0x39,
  0x66, 0x00, 0xb1, 0x39, 0xfb, 0xca, 0x94, 0x39, 0x86, 0xa2, 0xc5, 0x39,
  0xbf, 0x72, 0x92, 0x39, 0x38, 0x38, 0xdc, 0x39, 0x95, 0xc5, 0xb4, 0x39,
  0x74, 0xa2, 0xba, 0x39, 0x40, 0x74, 0xe7, 0x39, 0x2a, 0x96, 0x9f, 0x39,
  0x91, 0x65, 0x8e, 0x39, 0xfc, 0xdf, 0xd4, 0x39, 0x42, 0x40, 0x9f, 0x39,
  0x2a, 0x00, 0x00, 0x00, 0x73, 0x65, 0x71, 0x75, 0x65, 0x6e, 0x74, 0x69,
  0x61, 0x6c, 0x2f, 0x63, 0x6f, 0x6e, 0x76, 0x31, 0x64, 0x5f, 0x31, 0x2f,
  0x42, 0x69, 0x61, 0x73, 0x41, 0x64, 0x64, 0x2f, 0x52, 0x65, 0x61, 0x64,
  0x56, 0x61, 0x72, 0x69, 0x61, 0x62, 0x6c, 0x65, 0x4f, 0x70, 0x00, 0x00,
  0x01, 0x00, 0x00, 0x00, 0x10, 0x00, 0x00, 0x00, 0x52, 0xfb, 0xff, 0xff,
  0x00, 0x00, 0x00, 0x01, 0x14, 0x00, 0x00, 0x00, 0x88, 0x00, 0x00, 0x00,
  0x0c, 0x00, 0x00, 0x00, 0x00, 0x00, 0x00, 0x09, 0x9c, 0x00, 0x00, 0x00,
  0x3c, 0xfb, 0xff, 0xff, 0x08, 0x00, 0x00, 0x00, 0x4c, 0x00, 0x00, 0x00,
  0x08, 0x00, 0x00, 0x00, 0x00, 0x00, 0x00, 0x00, 0x00, 0x00, 0x00, 0x00,
  0x00, 0x00, 0x00, 0x00, 0x00, 0x00, 0x00, 0x00, 0x00, 0x00, 0x00, 0x00,
  0x00, 0x00, 0x00, 0x00, 0x00, 0x00, 0x00, 0x00, 0x00, 0x00, 0x00, 0x00,
  0x00, 0x00, 0x00, 0x00, 0x00, 0x00, 0x00, 0x00, 0x00, 0x00, 0x00, 0x00,
  0x00, 0x00, 0x00, 0x00, 0x00, 0x00, 0x00, 0x00, 0x00, 0x00, 0x00, 0x00,
  0x00, 0x00, 0x00, 0x00, 0x00, 0x00, 0x00, 0x00, 0x00, 0x00, 0x00, 0x00,
  0x08, 0x00, 0x00, 0x00, 0x36, 0xcc, 0xcc, 0x3b, 0xcb, 0x48, 0xb8, 0x3b,
  0xf6, 0x32, 0xa5, 0x3b, 0xd4, 0x5b, 0x07, 0x3c, 0xb6, 0x21, 0xb5, 0x3b,
  0x70, 0x63, 0xa7, 0x3b, 0xae, 0x55, 0xc4, 0x3b, 0x54, 0xf0, 0x8e, 0x3b,
  0x1a, 0x00, 0x00, 0x00, 0x73, 0x65, 0x71, 0x75, 0x65, 0x6e, 0x74, 0x69,
  0x61, 0x6c, 0x2f, 0x63, 0x6f, 0x6e, 0x76, 0x31, 0x64, 0x5f, 0x32, 0x2f,
  0x43, 0x6f, 0x6e, 0x76, 0x31, 0x44, 0x00, 0x00, 0x04, 0x00, 0x00, 0x00,
  0x08, 0x00, 0x00, 0x00, 0x01, 0x00, 0x00, 0x00, 0x03, 0x00, 0x00, 0x00,
  0x10, 0x00, 0x00, 0x00, 0x1a, 0xfc, 0xff, 0xff, 0x00, 0x00, 0x00, 0x01,
  0x14, 0x00, 0x00, 0x00, 0x84, 0x00, 0x00, 0x00, 0x0b, 0x00, 0x00, 0x00,
  0x00, 0x00, 0x00, 0x02, 0xa8, 0x00, 0x00, 0x00, 0x04, 0xfc, 0xff, 0xff,
  0x08, 0x00, 0x00, 0x00, 0x48, 0x00, 0x00, 0x00, 0x08, 0x00, 0x00, 0x00,
  0x00, 0x00, 0x00, 0x00, 0x00, 0x00, 0x00, 0x00, 0x00, 0x00, 0x00, 0x00,
  0x00, 0x00, 0x00, 0x00, 0x00, 0x00, 0x00, 0x00, 0x00, 0x00, 0x00, 0x00,
  0x00, 0x00, 0x00, 0x00, 0x00, 0x00, 0x00, 0x00, 0x00, 0x00, 0x00, 0x00,
  0x00, 0x00, 0x00, 0x00, 0x00, 0x00, 0x00, 0x00, 0x00, 0x00, 0x00, 0x00,
  0x00, 0x00, 0x00, 0x00, 0x00, 0x00, 0x00, 0x00, 0x00, 0x00, 0x00, 0x00,
  0x00, 0x00, 0x00, 0x00, 0x08, 0x00, 0x00, 0x00, 0x19, 0x75, 0x09, 0x3a,
  0xd6, 0x60, 0xf7, 0x39, 0x3b, 0xc2, 0xdd, 0x39, 0xab, 0xb3, 0x35, 0x3a,
  0x6f, 0x25, 0xf3, 0x39, 0x99, 0xb2, 0xe0, 0x39, 0xf4, 0xc6, 0x03, 0x3a,
  0x8a, 0xe0, 0xbf, 0x39, 0x2a, 0x00, 0x00, 0x00, 0x73, 0x65, 0x71, 0x75,
  0x65, 0x6e, 0x74, 0x69, 0x61, 0x6c, 0x2f, 0x63, 0x6f, 0x6e, 0x76, 0x31,
  0x64, 0x5f, 0x32, 0x2f, 0x42, 0x69, 0x61, 0x73, 0x41, 0x64, 0x64, 0x2f,
  0x52, 0x65, 0x61, 0x64, 0x56, 0x61, 0x72, 0x69, 0x61, 0x62, 0x6c, 0x65,
  0x4f, 0x70, 0x00, 0x00, 0x01, 0x00, 0x00, 0x00, 0x08, 0x00, 0x00, 0x00,
  0xe2, 0xfc, 0xff, 0xff, 0x00, 0x00, 0x00, 0x01, 0x14, 0x00, 0x00, 0x00,
  0x30, 0x00, 0x00, 0x00, 0x0a, 0x00, 0x00, 0x00, 0x00, 0x00, 0x00, 0x09,
  0x44, 0x00, 0x00, 0x00, 0xcc, 0xfc, 0xff, 0xff, 0x08, 0x00, 0x00, 0x00,
  0x10, 0x00, 0x00, 0x00, 0x01, 0x00, 0x00, 0x00, 0x00, 0x00, 0x00, 0x00,
  0x00, 0x00, 0x00, 0x00, 0x01, 0x00, 0x00, 0x00, 0x80, 0x8d, 0x0c, 0x3c,
  0x18, 0x00, 0x00, 0x00, 0x73, 0x65, 0x71, 0x75, 0x65, 0x6e, 0x74, 0x69,
  0x61, 0x6c, 0x2f, 0x79, 0x5f, 0x70, 0x72, 0x65, 0x64, 0x2f, 0x4d, 0x61,
  0x74, 0x4d, 0x75, 0x6c, 0x00, 0x00, 0x00, 0x00, 0x02, 0x00, 0x00, 0x00,
  0x04, 0x00, 0x00, 0x00, 0x38, 0x00, 0x00, 0x00, 0x4a, 0xfd, 0xff, 0xff,
  0x00, 0x00, 0x00, 0x01, 0x14, 0x00, 0x00, 0x00, 0x34, 0x00, 0x00, 0x00,
  0x09, 0x00, 0x00, 0x00, 0x00, 0x00, 0x00, 0x02, 0x58, 0x00, 0x00, 0x00,
  0x34, 0xfd, 0xff, 0xff, 0x08, 0x00, 0x00, 0x00, 0x14, 0x00, 0x00, 0x00,
  0x01, 0x00, 0x00, 0x00, 0x00, 0x00, 0x00, 0x00, 0x00, 0x00, 0x00, 0x00,
  0x00, 0x00, 0x00, 0x00, 0x01, 0x00, 0x00, 0x00, 0x43, 0xd5, 0x4c, 0x3a,
  0x28, 0x00, 0x00, 0x00, 0x73, 0x65, 0x71, 0x75, 0x65, 0x6e, 0x74, 0x69,
  0x61, 0x6c, 0x2f, 0x79, 0x5f, 0x70, 0x72, 0x65, 0x64, 0x2f, 0x42, 0x69,
  0x61, 0x73, 0x41, 0x64, 0x64, 0x2f, 0x52, 0x65, 0x61, 0x64, 0x56, 0x61,
  0x72, 0x69, 0x61, 0x62, 0x6c, 0x65, 0x4f, 0x70, 0x00, 0x00, 0x00, 0x00,
  0x01, 0x00, 0x00, 0x00, 0x04, 0x00, 0x00, 0x00, 0xc2, 0xfd, 0xff, 0xff,
  0x00, 0x00, 0x00, 0x01, 0x14, 0x00, 0x00, 0x00, 0x14, 0x00, 0x00, 0x00,
  0x08, 0x00, 0x00, 0x00, 0x00, 0x00, 0x00, 0x02, 0x28, 0x00, 0x00, 0x00,
  0x18, 0xfe, 0xff, 0xff, 0x18, 0x00, 0x00, 0x00, 0x73, 0x65, 0x71, 0x75,
  0x65, 0x6e, 0x74, 0x69, 0x61, 0x6c, 0x2f, 0x66, 0x6c, 0x61, 0x74, 0x74,
  0x65, 0x6e, 0x2f, 0x43, 0x6f, 0x6e, 0x73, 0x74, 0x00, 0x00, 0x00, 0x00,
  0x01, 0x00, 0x00, 0x00, 0x02, 0x00, 0x00, 0x00, 0x0a, 0xfe, 0xff, 0xff,
  0x00, 0x00, 0x00, 0x01, 0x14, 0x00, 0x00, 0x00, 0x14, 0x00, 0x00, 0x00,
  0x07, 0x00, 0x00, 0x00, 0x00, 0x00, 0x00, 0x02, 0x34, 0x00, 0x00, 0x00,
  0x60, 0xfe, 0xff, 0xff, 0x25, 0x00, 0x00, 0x00, 0x73, 0x65, 0x71, 0x75,
  0x65, 0x6e, 0x74, 0x69, 0x61, 0x6c, 0x2f, 0x6d, 0x61, 0x78, 0x5f, 0x70,
  0x6f, 0x6f, 0x6c, 0x69, 0x6e, 0x67, 0x31, 0x64, 0x5f, 0x32, 0x2f, 0x45,
  0x78, 0x70, 0x61, 0x6e, 0x64, 0x44, 0x69, 0x6d, 0x73, 0x00, 0x00, 0x00,
  0x01, 0x00, 0x00, 0x00, 0x04, 0x00, 0x00, 0x00, 0x5e, 0xfe, 0xff, 0xff,
  0x00, 0x00, 0x00, 0x01, 0x14, 0x00, 0x00, 0x00, 0x14, 0x00, 0x00, 0x00,
  0x06, 0x00, 0x00, 0x00, 0x00, 0x00, 0x00, 0x02, 0x34, 0x00, 0x00, 0x00,
  0xb4, 0xfe, 0xff, 0xff, 0x25, 0x00, 0x00, 0x00, 0x73, 0x65, 0x71, 0x75,
  0x65, 0x6e, 0x74, 0x69, 0x61, 0x6c, 0x2f, 0x63, 0x6f, 0x6e, 0x76, 0x31,
  0x64, 0x5f, 0x32, 0x2f, 0x43, 0x6f, 0x6e, 0x76, 0x31, 0x44, 0x2f, 0x45,
  0x78, 0x70, 0x61, 0x6e, 0x64, 0x44, 0x69, 0x6d, 0x73, 0x00, 0x00, 0x00,
  0x01, 0x00, 0x00, 0x00, 0x04, 0x00, 0x00, 0x00, 0xb2, 0xfe, 0xff, 0xff,
  0x00, 0x00, 0x00, 0x01, 0x14, 0x00, 0x00, 0x00, 0x14, 0x00, 0x00, 0x00,
  0x05, 0x00, 0x00, 0x00, 0x00, 0x00, 0x00, 0x02, 0x34, 0x00, 0x00, 0x00,
  0x08, 0xff, 0xff, 0xff, 0x25, 0x00, 0x00, 0x00, 0x73, 0x65, 0x71, 0x75,
  0x65, 0x6e, 0x74, 0x69, 0x61, 0x6c, 0x2f, 0x6d, 0x61, 0x78, 0x5f, 0x70,
  0x6f, 0x6f, 0x6c, 0x69, 0x6e, 0x67, 0x31, 0x64, 0x5f, 0x31, 0x2f, 0x45,
  0x78, 0x70, 0x61, 0x6e, 0x64, 0x44, 0x69, 0x6d, 0x73, 0x00, 0x00, 0x00,
  0x01, 0x00, 0x00, 0x00, 0x04, 0x00, 0x00, 0x00, 0x06, 0xff, 0xff, 0xff,
  0x00, 0x00, 0x00, 0x01, 0x14, 0x00, 0x00, 0x00, 0x14, 0x00, 0x00, 0x00,
  0x04, 0x00, 0x00, 0x00, 0x00, 0x00, 0x00, 0x02, 0x34, 0x00, 0x00, 0x00,
  0x5c, 0xff, 0xff, 0xff, 0x25, 0x00, 0x00, 0x00, 0x73, 0x65, 0x71, 0x75,
  0x65, 0x6e, 0x74, 0x69, 0x61, 0x6c, 0x2f, 0x63, 0x6f, 0x6e, 0x76, 0x31,
  0x64, 0x5f, 0x31, 0x2f, 0x43, 0x6f, 0x6e, 0x76, 0x31, 0x44, 0x2f, 0x45,
  0x78, 0x70, 0x61, 0x6e, 0x64, 0x44, 0x69, 0x6d, 0x73, 0x00, 0x00, 0x00,
  0x01, 0x00, 0x00, 0x00, 0x04, 0x00, 0x00, 0x00, 0x5a, 0xff, 0xff, 0xff,
  0x00, 0x00, 0x00, 0x01, 0x14, 0x00, 0x00, 0x00, 0x14, 0x00, 0x00, 0x00,
  0x03, 0x00, 0x00, 0x00, 0x00, 0x00, 0x00, 0x02, 0x30, 0x00, 0x00, 0x00,
  0xb0, 0xff, 0xff, 0xff, 0x23, 0x00, 0x00, 0x00, 0x73, 0x65, 0x71, 0x75,
  0x65, 0x6e, 0x74, 0x69, 0x61, 0x6c, 0x2f, 0x6d, 0x61, 0x78, 0x5f, 0x70,
  0x6f, 0x6f, 0x6c, 0x69, 0x6e, 0x67, 0x31, 0x64, 0x2f, 0x45, 0x78, 0x70,
  0x61, 0x6e, 0x64, 0x44, 0x69, 0x6d, 0x73, 0x00, 0x01, 0x00, 0x00, 0x00,
  0x04, 0x00, 0x00, 0x00, 0xaa, 0xff, 0xff, 0xff, 0x00, 0x00, 0x00, 0x01,
  0x18, 0x00, 0x00, 0x00, 0x18, 0x00, 0x00, 0x00, 0x02, 0x00, 0x00, 0x00,
  0x00, 0x00, 0x00, 0x02, 0x34, 0x00, 0x00, 0x00, 0x04, 0x00, 0x04, 0x00,
  0x04, 0x00, 0x00, 0x00, 0x23, 0x00, 0x00, 0x00, 0x73, 0x65, 0x71, 0x75,
  0x65, 0x6e, 0x74, 0x69, 0x61, 0x6c, 0x2f, 0x63, 0x6f, 0x6e, 0x76, 0x31,
  0x64, 0x2f, 0x43, 0x6f, 0x6e, 0x76, 0x31, 0x44, 0x2f, 0x45, 0x78, 0x70,
  0x61, 0x6e, 0x64, 0x44, 0x69, 0x6d, 0x73, 0x00, 0x01, 0x00, 0x00, 0x00,
  0x04, 0x00, 0x00, 0x00, 0x00, 0x00, 0x16, 0x00, 0x1c, 0x00, 0x18, 0x00,
  0x17, 0x00, 0x10, 0x00, 0x0c, 0x00, 0x08, 0x00, 0x00, 0x00, 0x00, 0x00,
  0x00, 0x00, 0x07, 0x00, 0x16, 0x00, 0x00, 0x00, 0x00, 0x00, 0x00, 0x01,
  0x20, 0x00, 0x00, 0x00, 0x3c, 0x00, 0x00, 0x00, 0x01, 0x00, 0x00, 0x00,
  0x00, 0x00, 0x00, 0x09, 0x48, 0x00, 0x00, 0x00, 0x0c, 0x00, 0x0c, 0x00,
  0x00, 0x00, 0x00, 0x00, 0x08, 0x00, 0x04, 0x00, 0x0c, 0x00, 0x00, 0x00,
  0x08, 0x00, 0x00, 0x00, 0x10, 0x00, 0x00, 0x00, 0x01, 0x00, 0x00, 0x00,
  0xf0, 0xff, 0xff, 0xff, 0xff, 0xff, 0xff, 0xff, 0x01, 0x00, 0x00, 0x00,
  0x46, 0x7a, 0x45, 0x3d, 0x13, 0x00, 0x00, 0x00, 0x73, 0x65, 0x72, 0x76,
  0x69, 0x6e, 0x67, 0x5f, 0x64, 0x65, 0x66, 0x61, 0x75, 0x6c, 0x74, 0x5f,
  0x78, 0x3a, 0x30, 0x00, 0x02, 0x00, 0x00, 0x00, 0x01, 0x00, 0x00, 0x00,
  0x8a, 0x02, 0x00, 0x00, 0x05, 0x00, 0x00, 0x00, 0x6c, 0x00, 0x00, 0x00,
  0x4c, 0x00, 0x00, 0x00, 0x2c, 0x00, 0x00, 0x00, 0x18, 0x00, 0x00, 0x00,
  0x04, 0x00, 0x00, 0x00, 0xd0, 0xff, 0xff, 0xff, 0x19, 0x00, 0x00, 0x00,
  0x02, 0x00, 0x00, 0x00, 0x00, 0x00, 0x00, 0x19, 0xe0, 0xff, 0xff, 0xff,
  0x09, 0x00, 0x00, 0x00, 0x04, 0x00, 0x00, 0x00, 0x00, 0x00, 0x00, 0x09,
  0xf0, 0xff, 0xff, 0xff, 0x11, 0x00, 0x00, 0x00, 0x02, 0x00, 0x00, 0x00,
  0x00, 0x00, 0x00, 0x11, 0x0c, 0x00, 0x10, 0x00, 0x0f, 0x00, 0x00, 0x00,
  0x08, 0x00, 0x04, 0x00, 0x0c, 0x00, 0x00, 0x00, 0x03, 0x00, 0x00, 0x00,
  0x03, 0x00, 0x00, 0x00, 0x00, 0x00, 0x00, 0x03, 0x0c, 0x00, 0x0c, 0x00,
  0x0b, 0x00, 0x00, 0x00, 0x00, 0x00, 0x04, 0x00, 0x0c, 0x00, 0x00, 0x00,
  0x16, 0x00, 0x00, 0x00, 0x00, 0x00, 0x00, 0x16
};
unsigned int tflite_learn_3_len = 10784;
#endif // _EI_CLASSIFIER_TFLITE_LEARN_3_H_
