/*
 * Copyright (c) 2025 EdgeImpulse Inc.
 *
 * Generated by Edge Impulse and licensed under the applicable Edge Impulse
 * Terms of Service. Community and Professional Terms of Service
 * (https://edgeimpulse.com/legal/terms-of-service) or Enterprise Terms of
 * Service (https://edgeimpulse.com/legal/enterprise-terms-of-service),
 * according to your product plan subscription (the “License”).
 *
 * This software, documentation and other associated files (collectively referred
 * to as the “Software”) is a single SDK variation generated by the Edge Impulse
 * platform and requires an active paid Edge Impulse subscription to use this
 * Software for any purpose.
 *
 * You may NOT use this Software unless you have an active Edge Impulse subscription
 * that meets the eligibility requirements for the applicable License, subject to
 * your full and continued compliance with the terms and conditions of the License,
 * including without limitation any usage restrictions under the applicable License.
 *
 * If you do not have an active Edge Impulse product plan subscription, or if use
 * of this Software exceeds the usage limitations of your Edge Impulse product plan
 * subscription, you are not permitted to use this Software and must immediately
 * delete and erase all copies of this Software within your control or possession.
 * Edge Impulse reserves all rights and remedies available to enforce its rights.
 *
 * Unless required by applicable law or agreed to in writing, the Software is
 * distributed on an "AS IS" BASIS, WITHOUT WARRANTIES OR CONDITIONS OF ANY KIND,
 * either express or implied. See the License for the specific language governing
 * permissions, disclaimers and limitations under the License.
 */

#ifndef _EI_CLASSIFIER_TFLITE_LEARN_3_H_
#define _EI_CLASSIFIER_TFLITE_LEARN_3_H_

#define EI_CLASSIFIER_TFLITE_LEARN_3_ARENA_SIZE     9817
const size_t tflite_learn_3_arena_size = 9817;

#if defined __GNUC__
#define ALIGN(X) __attribute__((aligned(X)))
#elif defined _MSC_VER
#define ALIGN(X) __declspec(align(X))
#elif defined __TASKING__
#define ALIGN(X) __align(X)
#else
#define ALIGN(X)
#endif

#if defined(EI_MODEL_SECTION) && (defined(__GNUC__) || defined(__clang__))
#define STRINGIZE(x) #x
#define STRINGIZE_VALUE_OF(x) STRINGIZE(x)
#define MODEL_SECTION(X) __attribute__((section(STRINGIZE_VALUE_OF(X))))
#else
#define MODEL_SECTION(X)
#endif


MODEL_SECTION(EI_MODEL_SECTION) ALIGN(16) const unsigned char tflite_learn_3[] = {
  0x20, 0x00, 0x00, 0x00, 0x54, 0x46, 0x4c, 0x33, 0x00, 0x00, 0x00, 0x00,
  0x14, 0x00, 0x20, 0x00, 0x1c, 0x00, 0x18, 0x00, 0x14, 0x00, 0x10, 0x00,
  0x0c, 0x00, 0x00, 0x00, 0x08, 0x00, 0x04, 0x00, 0x14, 0x00, 0x00, 0x00,
  0x1c, 0x00, 0x00, 0x00, 0x8c, 0x00, 0x00, 0x00, 0xe4, 0x00, 0x00, 0x00,
  0x7c, 0x11, 0x00, 0x00, 0x8c, 0x11, 0x00, 0x00, 0x6c, 0x29, 0x00, 0x00,
  0x03, 0x00, 0x00, 0x00, 0x01, 0x00, 0x00, 0x00, 0x10, 0x00, 0x00, 0x00,
  0x00, 0x00, 0x0a, 0x00, 0x10, 0x00, 0x0c, 0x00, 0x08, 0x00, 0x04, 0x00,
  0x0a, 0x00, 0x00, 0x00, 0x0c, 0x00, 0x00, 0x00, 0x1c, 0x00, 0x00, 0x00,
  0x3c, 0x00, 0x00, 0x00, 0x0f, 0x00, 0x00, 0x00, 0x73, 0x65, 0x72, 0x76,
  0x69, 0x6e, 0x67, 0x5f, 0x64, 0x65, 0x66, 0x61, 0x75, 0x6c, 0x74, 0x00,
  0x01, 0x00, 0x00, 0x00, 0x04, 0x00, 0x00, 0x00, 0x9c, 0xff, 0xff, 0xff,
  0x1e, 0x00, 0x00, 0x00, 0x04, 0x00, 0x00, 0x00, 0x08, 0x00, 0x00, 0x00,
  0x6f, 0x75, 0x74, 0x70, 0x75, 0x74, 0x5f, 0x30, 0x00, 0x00, 0x00, 0x00,
  0x01, 0x00, 0x00, 0x00, 0x04, 0x00, 0x00, 0x00, 0x4e, 0xee, 0xff, 0xff,
  0x04, 0x00, 0x00, 0x00, 0x01, 0x00, 0x00, 0x00, 0x78, 0x00, 0x00, 0x00,
  0x02, 0x00, 0x00, 0x00, 0x34, 0x00, 0x00, 0x00, 0x04, 0x00, 0x00, 0x00,
  0xdc, 0xff, 0xff, 0xff, 0x21, 0x00, 0x00, 0x00, 0x04, 0x00, 0x00, 0x00,
  0x13, 0x00, 0x00, 0x00, 0x43, 0x4f, 0x4e, 0x56, 0x45, 0x52, 0x53, 0x49,
  0x4f, 0x4e, 0x5f, 0x4d, 0x45, 0x54, 0x41, 0x44, 0x41, 0x54, 0x41, 0x00,
  0x08, 0x00, 0x0c, 0x00, 0x08, 0x00, 0x04, 0x00, 0x08, 0x00, 0x00, 0x00,
  0x20, 0x00, 0x00, 0x00, 0x04, 0x00, 0x00, 0x00, 0x13, 0x00, 0x00, 0x00,
  0x6d, 0x69, 0x6e, 0x5f, 0x72, 0x75, 0x6e, 0x74, 0x69, 0x6d, 0x65, 0x5f,
  0x76, 0x65, 0x72, 0x73, 0x69, 0x6f, 0x6e, 0x00, 0x22, 0x00, 0x00, 0x00,
  0x94, 0x10, 0x00, 0x00, 0x8c, 0x10, 0x00, 0x00, 0x6c, 0x10, 0x00, 0x00,
  0x4c, 0x10, 0x00, 0x00, 0x2c, 0x10, 0x00, 0x00, 0x0c, 0x10, 0x00, 0x00,
  0xec, 0x0f, 0x00, 0x00, 0xcc, 0x0f, 0x00, 0x00, 0xb4, 0x0f, 0x00, 0x00,
  0x94, 0x0f, 0x00, 0x00, 0xa4, 0x0e, 0x00, 0x00, 0x74, 0x0e, 0x00, 0x00,
  0xe4, 0x0c, 0x00, 0x00, 0x94, 0x0c, 0x00, 0x00, 0x84, 0x06, 0x00, 0x00,
  0xf4, 0x05, 0x00, 0x00, 0x04, 0x01, 0x00, 0x00, 0xfc, 0x00, 0x00, 0x00,
  0xf4, 0x00, 0x00, 0x00, 0xec, 0x00, 0x00, 0x00, 0xe4, 0x00, 0x00, 0x00,
  0xdc, 0x00, 0x00, 0x00, 0xd4, 0x00, 0x00, 0x00, 0xcc, 0x00, 0x00, 0x00,
  0xc4, 0x00, 0x00, 0x00, 0xbc, 0x00, 0x00, 0x00, 0xb4, 0x00, 0x00, 0x00,
  0xac, 0x00, 0x00, 0x00, 0xa4, 0x00, 0x00, 0x00, 0x9c, 0x00, 0x00, 0x00,
  0x94, 0x00, 0x00, 0x00, 0x8c, 0x00, 0x00, 0x00, 0x6c, 0x00, 0x00, 0x00,
  0x04, 0x00, 0x00, 0x00, 0x46, 0xef, 0xff, 0xff, 0x04, 0x00, 0x00, 0x00,
  0x58, 0x00, 0x00, 0x00, 0x0c, 0x00, 0x00, 0x00, 0x08, 0x00, 0x0e, 0x00,
  0x08, 0x00, 0x04, 0x00, 0x08, 0x00, 0x00, 0x00, 0x10, 0x00, 0x00, 0x00,
  0x28, 0x00, 0x00, 0x00, 0x00, 0x00, 0x06, 0x00, 0x08, 0x00, 0x04, 0x00,
  0x06, 0x00, 0x00, 0x00, 0x04, 0x00, 0x00, 0x00, 0x01, 0x00, 0x00, 0x00,
  0xeb, 0x03, 0x00, 0x00, 0x00, 0x00, 0x0a, 0x00, 0x10, 0x00, 0x0c, 0x00,
  0x08, 0x00, 0x04, 0x00, 0x0a, 0x00, 0x00, 0x00, 0x03, 0x00, 0x00, 0x00,
  0x02, 0x00, 0x00, 0x00, 0x04, 0x00, 0x00, 0x00, 0x06, 0x00, 0x00, 0x00,
  0x32, 0x2e, 0x31, 0x31, 0x2e, 0x31, 0x00, 0x00, 0xaa, 0xef, 0xff, 0xff,
  0x04, 0x00, 0x00, 0x00, 0x10, 0x00, 0x00, 0x00, 0x31, 0x2e, 0x31, 0x34,
  0x2e, 0x30, 0x00, 0x00, 0x00, 0x00, 0x00, 0x00, 0x00, 0x00, 0x00, 0x00,
  0x34, 0xd9, 0xff, 0xff, 0x38, 0xd9, 0xff, 0xff, 0x3c, 0xd9, 0xff, 0xff,
  0x40, 0xd9, 0xff, 0xff, 0x44, 0xd9, 0xff, 0xff, 0x48, 0xd9, 0xff, 0xff,
  0x4c, 0xd9, 0xff, 0xff, 0x50, 0xd9, 0xff, 0xff, 0x54, 0xd9, 0xff, 0xff,
  0x58, 0xd9, 0xff, 0xff, 0x5c, 0xd9, 0xff, 0xff, 0x60, 0xd9, 0xff, 0xff,
  0x64, 0xd9, 0xff, 0xff, 0x68, 0xd9, 0xff, 0xff, 0x6c, 0xd9, 0xff, 0xff,
  0x02, 0xf0, 0xff, 0xff, 0x04, 0x00, 0x00, 0x00, 0xe0, 0x04, 0x00, 0x00,
  0xd0, 0xbd, 0xf2, 0x09, 0x10, 0xf1, 0xef, 0xf1, 0xf3, 0x12, 0xfb, 0xec,
  0xf0, 0x81, 0x17, 0xe1, 0xea, 0x33, 0xee, 0xe1, 0x04, 0xd7, 0xe2, 0x0b,
  0x02, 0x1a, 0x28, 0xf5, 0x10, 0xea, 0xab, 0x13, 0xe7, 0xed, 0xd4, 0xec,
  0x18, 0xf0, 0xf6, 0xac, 0xc3, 0x42, 0x28, 0xac, 0xfa, 0xee, 0x1d, 0xef,
  0xfa, 0x29, 0x3f, 0x19, 0x19, 0x21, 0x58, 0x04, 0xcc, 0x12, 0x19, 0x3f,
  0xde, 0xea, 0xdd, 0x22, 0xde, 0x25, 0x10, 0x39, 0xc7, 0xa1, 0x0c, 0xfe,
  0x21, 0x81, 0xb3, 0xee, 0x53, 0xfb, 0xf8, 0xec, 0x09, 0x14, 0x31, 0x3b,
  0x07, 0x14, 0x09, 0xf2, 0x0b, 0x09, 0x09, 0x81, 0xb2, 0xf5, 0xda, 0xa9,
  0xc4, 0xd8, 0xd0, 0xce, 0xf3, 0x09, 0xf6, 0xf1, 0x62, 0x32, 0x12, 0x10,
  0x1b, 0x0c, 0x2b, 0x15, 0x34, 0x12, 0xf7, 0xda, 0xf8, 0x81, 0xb3, 0xe2,
  0x0f, 0xd6, 0xfa, 0xe4, 0x19, 0x04, 0xb5, 0x25, 0x15, 0x08, 0x92, 0x2b,
  0xe3, 0x34, 0x0a, 0x09, 0xef, 0x09, 0xf0, 0x26, 0xe9, 0x3c, 0xdc, 0x8b,
  0x66, 0x07, 0x3e, 0x62, 0xfb, 0xf5, 0xf4, 0x1d, 0x40, 0x14, 0xf5, 0xa5,
  0x0d, 0x8a, 0x06, 0xfb, 0x0d, 0xd6, 0xca, 0xfb, 0xe3, 0x00, 0x15, 0xfb,
  0x06, 0xbe, 0x81, 0x00, 0xe0, 0xcb, 0xf4, 0xeb, 0xf9, 0xe5, 0x14, 0xf7,
  0x08, 0xf2, 0x10, 0xcd, 0x2d, 0xef, 0xda, 0x43, 0xda, 0xe0, 0xb7, 0x04,
  0xc0, 0x19, 0xf1, 0xe8, 0x13, 0xee, 0xdd, 0xe6, 0x0a, 0x33, 0xe3, 0xe0,
  0xad, 0xd1, 0x05, 0xdd, 0x18, 0xef, 0x20, 0xf8, 0xf0, 0xc0, 0xf9, 0x1c,
  0xec, 0x61, 0x7f, 0x5c, 0x1e, 0xe2, 0x88, 0xc0, 0xdc, 0x35, 0x04, 0xbc,
  0x01, 0xdb, 0x1e, 0xf3, 0x9d, 0xa2, 0x1d, 0x1a, 0x02, 0xff, 0x02, 0xff,
  0x04, 0x00, 0x04, 0x00, 0xfe, 0xfc, 0xff, 0x81, 0xce, 0xf2, 0xfc, 0xf4,
  0x01, 0x01, 0xff, 0xfa, 0x05, 0xfc, 0x01, 0xf8, 0x55, 0x14, 0x09, 0x02,
  0x01, 0x00, 0xf9, 0x02, 0xfe, 0xfe, 0xff, 0xfb, 0x02, 0x1d, 0xb9, 0xb2,
  0xd0, 0x11, 0xe9, 0xfb, 0xe6, 0x18, 0xcc, 0x23, 0xd0, 0xf8, 0xfd, 0x81,
  0x08, 0xd6, 0xfd, 0xf0, 0xf4, 0xde, 0x11, 0x1d, 0x1c, 0xd6, 0x14, 0xea,
  0xa2, 0xbe, 0xc4, 0x19, 0xd1, 0x00, 0xbc, 0x44, 0xa8, 0x38, 0xc4, 0x1e,
  0xe0, 0x23, 0x0f, 0x11, 0xf0, 0xdf, 0x10, 0xed, 0xe4, 0x03, 0x22, 0xe8,
  0x06, 0x55, 0x30, 0x14, 0xec, 0xe2, 0x00, 0xf4, 0xf2, 0x04, 0x32, 0xcb,
  0xdf, 0x26, 0x81, 0xac, 0xd3, 0x19, 0x0e, 0x1e, 0xef, 0x09, 0x15, 0x13,
  0xed, 0xf4, 0x10, 0x81, 0x37, 0xf3, 0xf8, 0xf2, 0xfd, 0x0c, 0x06, 0x02,
  0xf9, 0x04, 0xf0, 0x01, 0xf8, 0xfa, 0x04, 0x02, 0x00, 0x06, 0x01, 0xf7,
  0x00, 0x0e, 0xfc, 0x15, 0x10, 0x75, 0xd1, 0x05, 0x05, 0xfd, 0x01, 0x04,
  0x14, 0xf7, 0x02, 0xf8, 0xff, 0xf8, 0x74, 0x8f, 0xa1, 0x81, 0xc6, 0xbc,
  0xe3, 0xfe, 0xf3, 0x19, 0xfa, 0xf3, 0xc5, 0x10, 0xbc, 0x50, 0x0c, 0xff,
  0xa4, 0x20, 0x35, 0xfe, 0xfa, 0xe7, 0x0d, 0x05, 0xc8, 0x0d, 0xc8, 0x31,
  0x2e, 0xfe, 0x34, 0xb8, 0x24, 0x1f, 0xdb, 0xcf, 0x16, 0x17, 0xb1, 0xea,
  0x22, 0x0d, 0x29, 0xf1, 0x28, 0x36, 0xff, 0xa8, 0x19, 0x34, 0xd0, 0x81,
  0x08, 0xb7, 0xe8, 0x31, 0x05, 0x07, 0x04, 0x0e, 0xe9, 0xf6, 0x3a, 0x18,
  0x92, 0xe8, 0xf0, 0xdf, 0xeb, 0x4c, 0xcc, 0xd2, 0xf9, 0x1a, 0x2b, 0xcb,
  0x02, 0x6d, 0xc9, 0x26, 0xfe, 0x30, 0x20, 0x45, 0xd2, 0x59, 0xe8, 0x2f,
  0x39, 0x01, 0x36, 0xf9, 0xa0, 0x0c, 0xe7, 0x38, 0xe9, 0x53, 0xcd, 0x25,
  0xf5, 0x17, 0x10, 0x7f, 0xfa, 0x0c, 0xfb, 0xcf, 0x08, 0x09, 0x3e, 0xe9,
  0xc2, 0x0b, 0x10, 0xdd, 0x23, 0xf8, 0xcc, 0x02, 0xef, 0xef, 0x2b, 0x2f,
  0x08, 0xc8, 0xf9, 0xda, 0xf1, 0x20, 0xe7, 0xf8, 0x01, 0xee, 0xe8, 0x0e,
  0x1f, 0x34, 0x1e, 0xf6, 0xfd, 0x81, 0xdb, 0xc9, 0xe7, 0x18, 0xe9, 0x09,
  0x14, 0x03, 0x12, 0xfe, 0xdd, 0xf3, 0x19, 0x35, 0xf6, 0xf0, 0x1a, 0x03,
  0xed, 0x05, 0xdd, 0x7e, 0xac, 0x03, 0xd3, 0xf2, 0x04, 0xe2, 0x1d, 0x0a,
  0x00, 0xd5, 0x0f, 0xc8, 0x7f, 0x9a, 0x34, 0xe3, 0xc7, 0x21, 0xef, 0xcf,
  0x1c, 0x02, 0x1e, 0x0f, 0xa3, 0x41, 0xc8, 0x2b, 0xc9, 0xdd, 0xd1, 0x10,
  0xc0, 0xe5, 0x14, 0xee, 0x18, 0x1b, 0xe3, 0x2e, 0xf2, 0x0d, 0xbf, 0x81,
  0x0d, 0xc3, 0xe6, 0x31, 0xdb, 0x0d, 0xb0, 0xd3, 0xf9, 0xf5, 0xca, 0xb7,
  0x9a, 0xc0, 0xe6, 0xf3, 0x3f, 0x02, 0x04, 0xea, 0xfa, 0xef, 0xf0, 0x13,
  0x2a, 0x13, 0x00, 0xf7, 0xfa, 0xf5, 0xfb, 0xf9, 0xfe, 0x04, 0x10, 0x0c,
  0x05, 0x3c, 0xfc, 0x08, 0xf9, 0x05, 0x0d, 0xfa, 0x00, 0x02, 0x00, 0x04,
  0xf9, 0xf7, 0x81, 0xe0, 0xf6, 0x06, 0xf5, 0xf8, 0x08, 0x0a, 0x05, 0xf2,
  0xf8, 0x00, 0x01, 0xef, 0x81, 0xc1, 0xe3, 0x45, 0x15, 0x3b, 0xa6, 0xe0,
  0x06, 0x02, 0x51, 0xf5, 0x26, 0xfa, 0xf0, 0xdd, 0xbd, 0x12, 0x17, 0xe1,
  0x01, 0xb8, 0x3a, 0x2e, 0xf9, 0x67, 0x6c, 0xcd, 0xcd, 0xb1, 0x1d, 0x03,
  0x15, 0xe5, 0x08, 0xfa, 0x3d, 0xee, 0x21, 0x44, 0x45, 0xc3, 0xba, 0x15,
  0xc9, 0x88, 0x2b, 0x01, 0xcb, 0x3b, 0xfb, 0x18, 0x30, 0xf0, 0xe1, 0xe7,
  0x2c, 0xde, 0xaf, 0x1f, 0x24, 0xe0, 0x34, 0x0f, 0x02, 0xf0, 0x4b, 0xec,
  0x02, 0xf7, 0x1c, 0xbb, 0x7f, 0xff, 0xdf, 0x49, 0x00, 0xb3, 0x65, 0x3a,
  0x46, 0x4f, 0x1e, 0x41, 0x37, 0xfd, 0xd8, 0x01, 0x66, 0xff, 0x0c, 0x35,
  0x22, 0x43, 0x6c, 0x28, 0x24, 0xf1, 0xe5, 0xdf, 0x0b, 0x0e, 0xe3, 0x73,
  0x54, 0xe4, 0xf3, 0x7f, 0x46, 0x54, 0xe9, 0xdc, 0xac, 0xef, 0xa2, 0xb3,
  0x83, 0x1b, 0xfa, 0xf7, 0x07, 0xd4, 0xdf, 0xe6, 0x2d, 0xff, 0x26, 0x0e,
  0x06, 0xab, 0x33, 0xfd, 0xed, 0x13, 0xe6, 0x17, 0xe8, 0x04, 0xff, 0xe7,
  0xf6, 0x1b, 0x81, 0x42, 0xd9, 0xe3, 0x24, 0x06, 0x08, 0x08, 0xdd, 0xe6,
  0x1a, 0xf3, 0x07, 0xb8, 0xcf, 0xc9, 0x11, 0x28, 0x47, 0xf8, 0xf3, 0x07,
  0xf5, 0x10, 0xf9, 0xf0, 0x87, 0x60, 0x51, 0x27, 0xd8, 0xe4, 0xda, 0x0d,
  0x00, 0x19, 0xfb, 0x0e, 0x0f, 0x7f, 0xe2, 0xd7, 0xc0, 0xd4, 0x07, 0x15,
  0x13, 0x04, 0x01, 0xe7, 0xf1, 0xf1, 0xd2, 0x0f, 0xf3, 0x06, 0xde, 0xf9,
  0x05, 0x10, 0xee, 0xf9, 0xe5, 0x09, 0x0e, 0xe1, 0x2b, 0xfe, 0xf3, 0xf8,
  0x09, 0x06, 0x16, 0xf4, 0xe1, 0xef, 0xfc, 0x11, 0x81, 0x16, 0xf6, 0xf2,
  0x17, 0x02, 0xf4, 0x09, 0xfc, 0xe3, 0x07, 0xfa, 0xf9, 0x1d, 0x83, 0xe8,
  0xde, 0xbb, 0x22, 0xde, 0x01, 0xe2, 0x17, 0x31, 0x27, 0x01, 0x81, 0x32,
  0x66, 0x1c, 0xae, 0x13, 0xd2, 0x01, 0x16, 0x4b, 0x47, 0xfe, 0x15, 0xd5,
  0x37, 0x02, 0x4a, 0x15, 0x08, 0xee, 0x44, 0x6e, 0x2b, 0xf9, 0x97, 0x47,
  0x13, 0x3e, 0x76, 0x72, 0x15, 0x04, 0x0b, 0x59, 0xe7, 0x7f, 0x4b, 0x33,
  0x0d, 0xfb, 0x0d, 0x3c, 0xe3, 0x77, 0x0a, 0x29, 0x50, 0x6f, 0xfd, 0xfe,
  0x0f, 0xc7, 0x4e, 0x9e, 0x5f, 0x20, 0x2f, 0xa3, 0x51, 0x44, 0x14, 0x33,
  0xa1, 0x15, 0xfa, 0x15, 0x7f, 0xfd, 0xef, 0x3c, 0xbe, 0xfe, 0xb2, 0x48,
  0xde, 0x20, 0xa8, 0x0a, 0x1d, 0x14, 0xf8, 0xe6, 0x20, 0xc2, 0x1b, 0xd2,
  0x16, 0x16, 0xb5, 0xd2, 0x23, 0x3a, 0xeb, 0xd9, 0x10, 0x11, 0xfa, 0x1f,
  0xfd, 0xeb, 0x02, 0x92, 0x35, 0x29, 0xe9, 0xda, 0xf2, 0x25, 0x6d, 0x04,
  0x11, 0xb6, 0x50, 0xec, 0x1f, 0x05, 0x81, 0xe0, 0xc6, 0x20, 0x18, 0x39,
  0x21, 0xc0, 0xbf, 0x26, 0xf5, 0x07, 0xd9, 0xea, 0xd3, 0x00, 0xee, 0xe1,
  0x08, 0x0e, 0x9b, 0xc9, 0xfe, 0x23, 0x19, 0xe7, 0xf5, 0xb6, 0x13, 0xce,
  0xfd, 0xd0, 0x23, 0xfa, 0x11, 0xf1, 0xd9, 0x07, 0x17, 0x0c, 0x81, 0x33,
  0x1c, 0xf3, 0xf1, 0x04, 0xf0, 0x12, 0x0c, 0xf3, 0x15, 0x08, 0x06, 0x9a,
  0x28, 0x00, 0x05, 0x0f, 0x13, 0x01, 0xf1, 0x15, 0xf4, 0x0e, 0x0d, 0x16,
  0x7f, 0x62, 0x28, 0x1c, 0x2f, 0x06, 0x3e, 0x28, 0x04, 0xd5, 0x11, 0x33,
  0x01, 0xde, 0xc6, 0xf6, 0xec, 0xdd, 0x26, 0x19, 0x49, 0x57, 0x55, 0x0b,
  0xf2, 0xd3, 0xb7, 0x9f, 0xdf, 0xc4, 0xf5, 0xe6, 0xc9, 0x8c, 0xa4, 0xf3,
  0x15, 0x32, 0x04, 0x0c, 0x3a, 0xd7, 0x47, 0x2f, 0xdb, 0xe6, 0xc4, 0x4c,
  0xdd, 0x7f, 0xf4, 0x0a, 0x02, 0x26, 0x1c, 0x2d, 0x2d, 0xa1, 0x29, 0xdb,
  0x41, 0x0c, 0x30, 0x81, 0x21, 0x07, 0x44, 0xc1, 0x6b, 0xbc, 0xe3, 0xdc,
  0x79, 0xc4, 0x4d, 0xde, 0x13, 0x15, 0x14, 0x23, 0x0b, 0xec, 0x15, 0x0d,
  0xc8, 0x0c, 0xf1, 0xed, 0x02, 0xf0, 0xea, 0x0e, 0x7f, 0x0b, 0x08, 0x0f,
  0x38, 0xed, 0x28, 0xd9, 0xe2, 0x15, 0x0d, 0xdb, 0xff, 0x3f, 0x20, 0x31,
  0x0e, 0x2c, 0x08, 0x02, 0x34, 0xed, 0x13, 0xfa, 0x46, 0x2c, 0x5a, 0xde,
  0x28, 0xa2, 0x30, 0xe2, 0x1e, 0xf2, 0xcd, 0x18, 0x36, 0xbf, 0x18, 0x0b,
  0x2a, 0xf7, 0xd3, 0x0e, 0xd0, 0x17, 0xeb, 0xa8, 0x72, 0xea, 0xed, 0x2d,
  0x0d, 0xf2, 0x13, 0xc4, 0xf4, 0xd4, 0x3c, 0xfb, 0xce, 0x7f, 0xf8, 0xfc,
  0xee, 0xf4, 0xff, 0xff, 0x04, 0x00, 0x00, 0x00, 0x80, 0x00, 0x00, 0x00,
  0x14, 0xfe, 0xff, 0xff, 0x7f, 0xe1, 0xff, 0xff, 0xd7, 0xfd, 0xff, 0xff,
  0x8e, 0xf3, 0xff, 0xff, 0x84, 0xfa, 0xff, 0xff, 0x40, 0xfc, 0xff, 0xff,
  0xe1, 0xfe, 0xff, 0xff, 0xc1, 0xf2, 0xff, 0xff, 0xf8, 0xf9, 0xff, 0xff,
  0x2d, 0xfd, 0xff, 0xff, 0x13, 0xf1, 0xff, 0xff, 0x07, 0xfa, 0xff, 0xff,
  0xf8, 0xee, 0xff, 0xff, 0xcf, 0xfa, 0xff, 0xff, 0x2f, 0xea, 0xff, 0xff,
  0x7c, 0xfd, 0xff, 0xff, 0x14, 0xfe, 0xff, 0xff, 0x41, 0xeb, 0xff, 0xff,
  0x6b, 0xec, 0xff, 0xff, 0x4e, 0xe3, 0xff, 0xff, 0x1c, 0xfd, 0xff, 0xff,
  0x62, 0xf7, 0xff, 0xff, 0x29, 0xfe, 0xff, 0xff, 0xa2, 0xf3, 0xff, 0xff,
  0x82, 0xe8, 0xff, 0xff, 0x8b, 0xea, 0xff, 0xff, 0xb7, 0xe9, 0xff, 0xff,
  0x1c, 0xfc, 0xff, 0xff, 0x43, 0xf7, 0xff, 0xff, 0x00, 0xe6, 0xff, 0xff,
  0x46, 0xf4, 0xff, 0xff, 0xe4, 0xe9, 0xff, 0xff, 0x7a, 0xf5, 0xff, 0xff,
  0x04, 0x00, 0x00, 0x00, 0x00, 0x06, 0x00, 0x00, 0xe1, 0xea, 0x01, 0x39,
  0xde, 0xd0, 0x56, 0xb1, 0x0c, 0x57, 0x59, 0xf9, 0x0d, 0xdf, 0xc8, 0xed,
  0x37, 0x00, 0xbe, 0xd8, 0xe7, 0x56, 0x1d, 0x2d, 0xe1, 0xd5, 0x1f, 0x29,
  0x37, 0xf1, 0xb4, 0xa6, 0xea, 0xf5, 0x33, 0x13, 0x9f, 0x06, 0x49, 0xc9,
  0x06, 0x17, 0x2e, 0xdc, 0x21, 0x0c, 0xcb, 0xe9, 0xe7, 0xec, 0xce, 0xc3,
  0x1f, 0x75, 0x28, 0x32, 0x14, 0x02, 0x18, 0x08, 0x07, 0x12, 0xc4, 0x81,
  0xfe, 0x17, 0xea, 0x35, 0xcb, 0x10, 0x31, 0xf5, 0x49, 0x27, 0xd3, 0xaf,
  0xf6, 0xc3, 0x15, 0xcd, 0x4a, 0x9e, 0xa2, 0xe5, 0x08, 0x2e, 0x03, 0x14,
  0xf2, 0x04, 0x0d, 0x17, 0xde, 0x12, 0xec, 0x81, 0xf0, 0x3a, 0xef, 0x9b,
  0xa0, 0x08, 0x07, 0x9f, 0xcd, 0x20, 0x22, 0xae, 0x19, 0xf4, 0xe5, 0xbc,
  0x3c, 0x1e, 0x02, 0xb4, 0xef, 0xd2, 0x06, 0xff, 0x81, 0xcf, 0x0f, 0xfc,
  0xf3, 0xdf, 0x1f, 0x22, 0xb5, 0x18, 0xe8, 0x0e, 0xac, 0x34, 0x20, 0xa4,
  0xfd, 0x29, 0xef, 0xd1, 0x0d, 0x4e, 0xba, 0x9d, 0xf4, 0xf0, 0x03, 0xef,
  0x19, 0x09, 0x07, 0xf7, 0xc5, 0x8e, 0xfb, 0x20, 0x13, 0xc8, 0xf5, 0x08,
  0xe3, 0x0a, 0xfa, 0x35, 0x10, 0x01, 0xce, 0xb6, 0x43, 0x3f, 0x3d, 0x14,
  0xc7, 0xfb, 0xbc, 0xe4, 0x12, 0xbd, 0xed, 0x3e, 0x1d, 0x14, 0x32, 0x17,
  0x0a, 0xf6, 0x13, 0x2b, 0xf1, 0xee, 0x97, 0xbd, 0xfa, 0x47, 0x94, 0x2e,
  0xbf, 0xcb, 0xe8, 0x00, 0x03, 0x00, 0x1e, 0xab, 0x0f, 0xc4, 0x2a, 0xda,
  0x31, 0x12, 0x16, 0x39, 0xc8, 0x30, 0xe2, 0xd8, 0x21, 0x2b, 0x6e, 0xdd,
  0xe4, 0x31, 0x3e, 0x6c, 0x0f, 0x3a, 0xac, 0x0b, 0xca, 0xb2, 0xd0, 0xd0,
  0xcb, 0xd1, 0xea, 0x81, 0xee, 0xcd, 0x2d, 0xe6, 0x02, 0x1e, 0x1d, 0x0c,
  0x13, 0xd2, 0xf9, 0x12, 0x28, 0x0b, 0x28, 0x16, 0x02, 0x13, 0xfe, 0x16,
  0x01, 0x13, 0xcc, 0xec, 0x95, 0xc4, 0xb2, 0x97, 0xa9, 0xa3, 0xc3, 0x87,
  0xdd, 0xd2, 0x0a, 0xdc, 0xe4, 0xe9, 0x20, 0xd6, 0xf7, 0xe4, 0x08, 0xed,
  0xf9, 0xfe, 0x05, 0x1c, 0xde, 0xcc, 0x07, 0xfc, 0x17, 0xbe, 0xb6, 0xef,
  0xdb, 0xe8, 0xdf, 0x61, 0xa6, 0xdd, 0xee, 0xd7, 0x09, 0xdc, 0xe5, 0xb8,
  0xd4, 0xc3, 0xad, 0x44, 0xe4, 0xc5, 0xc0, 0xc3, 0x06, 0x33, 0x28, 0xbd,
  0xe5, 0xff, 0xcf, 0xc6, 0xc0, 0xec, 0xa2, 0x05, 0xd0, 0xd8, 0xe9, 0xfc,
  0xf4, 0xc3, 0x2b, 0xd7, 0xe0, 0xdd, 0x5b, 0xbf, 0xdb, 0xc0, 0xc7, 0xc4,
  0x3d, 0x03, 0xfe, 0xd6, 0x83, 0x25, 0xf6, 0xde, 0xed, 0x0b, 0xec, 0xe4,
  0x0b, 0xca, 0xe5, 0x0c, 0x87, 0xd5, 0xf8, 0x3c, 0x11, 0xdc, 0x07, 0xaa,
  0xff, 0x0f, 0x9c, 0xca, 0x00, 0xb9, 0xbf, 0xde, 0x41, 0xd5, 0xc2, 0xff,
  0x81, 0xef, 0x1f, 0xf6, 0xcc, 0x30, 0x35, 0xbe, 0xff, 0xf4, 0xbe, 0xa7,
  0x1a, 0xc4, 0xa3, 0x0b, 0xea, 0xac, 0x1d, 0x05, 0x17, 0xdb, 0x19, 0xd4,
  0xb2, 0x0f, 0x2e, 0xf4, 0xc1, 0xf1, 0xea, 0xff, 0xf5, 0x0a, 0xdd, 0xbc,
  0x12, 0x09, 0x30, 0x2b, 0xc7, 0x16, 0x88, 0xcf, 0xf7, 0xed, 0x81, 0xea,
  0x1e, 0x9a, 0x02, 0x01, 0x2c, 0x13, 0xf1, 0xaf, 0xd7, 0x20, 0x08, 0x13,
  0x1a, 0xb4, 0xce, 0xb6, 0x11, 0x03, 0xec, 0xfb, 0xec, 0x1c, 0xf3, 0x37,
  0xbc, 0x09, 0xca, 0xf5, 0xdd, 0x19, 0x9b, 0xfb, 0xeb, 0xa1, 0xe8, 0xd2,
  0x22, 0x19, 0xfc, 0xf0, 0xdd, 0x2e, 0x2b, 0x23, 0xfc, 0xc4, 0xd9, 0xb8,
  0x1e, 0x22, 0xfd, 0xe5, 0x02, 0x26, 0xf8, 0x0a, 0xb5, 0xee, 0xeb, 0x09,
  0xdf, 0xb2, 0xb5, 0x41, 0xc5, 0xff, 0xcf, 0xce, 0xe8, 0x00, 0xa6, 0xa0,
  0xb5, 0x25, 0x09, 0xee, 0xca, 0x0d, 0xb2, 0x01, 0xf1, 0x04, 0xe5, 0xdd,
  0xfa, 0xc6, 0xd6, 0xa1, 0xc7, 0xe4, 0xcc, 0xfd, 0xe0, 0xee, 0x29, 0x34,
  0xfd, 0x0b, 0xd5, 0xf9, 0x98, 0xf3, 0xd0, 0xd2, 0xf1, 0xfd, 0xba, 0x0a,
  0xae, 0x1b, 0xd0, 0xd7, 0xe5, 0xcb, 0xd5, 0xf8, 0xc9, 0xc8, 0x02, 0xff,
  0xe5, 0x03, 0xbb, 0xff, 0xdf, 0xfc, 0xa1, 0xd2, 0xfd, 0x08, 0x91, 0x81,
  0xf1, 0x0e, 0xdf, 0xf1, 0xb8, 0xcb, 0xcf, 0x13, 0xba, 0xdc, 0x19, 0xda,
  0xcf, 0xde, 0xab, 0xdd, 0xaf, 0xb6, 0xc2, 0xb5, 0x05, 0xbe, 0xf3, 0xf0,
  0xde, 0x00, 0xd1, 0xb2, 0x47, 0xf2, 0xdb, 0xd1, 0xd2, 0xc9, 0x08, 0xad,
  0x6a, 0xab, 0x98, 0xff, 0xd0, 0xb8, 0xa2, 0xc3, 0xff, 0x09, 0xe4, 0xc7,
  0xc9, 0x41, 0xa0, 0xea, 0xd2, 0xef, 0xc1, 0xa0, 0x2f, 0x25, 0x3e, 0xf2,
  0x79, 0x10, 0x1d, 0xde, 0x25, 0x43, 0x00, 0xdc, 0x40, 0xc4, 0xe1, 0xcb,
  0x96, 0xd3, 0xc9, 0xe0, 0x46, 0xf9, 0xe6, 0xa7, 0x26, 0xf9, 0x09, 0xb3,
  0xc5, 0xaa, 0x21, 0x2c, 0xa5, 0x9b, 0x14, 0xa2, 0x59, 0xdb, 0xae, 0xb8,
  0xf6, 0xf4, 0x9a, 0xc5, 0x4a, 0x1d, 0xe9, 0xf6, 0xa0, 0x0e, 0xc8, 0x08,
  0x81, 0xc0, 0xd1, 0xb2, 0x17, 0x19, 0xca, 0xeb, 0xe9, 0xff, 0x1f, 0xd7,
  0xf2, 0x15, 0xd8, 0x27, 0xd4, 0xfa, 0x14, 0xf9, 0xfc, 0xe0, 0xa5, 0x14,
  0xd6, 0xbf, 0x93, 0xe8, 0xe8, 0xfe, 0x00, 0x15, 0xce, 0xfe, 0xd6, 0x17,
  0x01, 0xdf, 0xf5, 0xb0, 0xa6, 0x44, 0x08, 0x24, 0xbb, 0xfa, 0xfb, 0x1f,
  0xb8, 0xf1, 0xf6, 0xf8, 0x0e, 0xe7, 0x08, 0x0b, 0xad, 0xa1, 0xd7, 0x18,
  0xd2, 0x11, 0xde, 0x2d, 0x11, 0x01, 0xda, 0x20, 0xfa, 0x1d, 0x81, 0xdf,
  0xa6, 0x52, 0x1b, 0x18, 0x8a, 0x02, 0x33, 0x29, 0xe4, 0x1e, 0x1d, 0xb7,
  0x26, 0xd1, 0x48, 0xdf, 0x19, 0xd2, 0xe3, 0x0a, 0xb5, 0x31, 0x04, 0x27,
  0x1b, 0x33, 0x27, 0xd8, 0xdb, 0x1f, 0xe9, 0xd2, 0x09, 0xb3, 0xce, 0x15,
  0x02, 0xd4, 0x9c, 0xbc, 0xf1, 0xb8, 0xa9, 0xfa, 0xaf, 0xe9, 0xcd, 0x32,
  0xc4, 0x08, 0x4b, 0xdf, 0x15, 0xae, 0x03, 0xfd, 0xf3, 0xdc, 0x19, 0x0f,
  0x9f, 0xcc, 0x9f, 0x15, 0xee, 0xd9, 0xdd, 0x13, 0x0a, 0x10, 0xcc, 0xc3,
  0xe0, 0xc7, 0xbe, 0x0f, 0x81, 0x2c, 0xcc, 0xf1, 0xc3, 0xc5, 0xf3, 0xc3,
  0x2a, 0xfa, 0xf4, 0x04, 0x18, 0xe5, 0x14, 0x12, 0xed, 0xfb, 0x9d, 0x16,
  0xda, 0x06, 0xe2, 0xf7, 0x08, 0xea, 0xc1, 0xdc, 0xd4, 0xc7, 0xcd, 0xf1,
  0x9e, 0x05, 0xdc, 0xf1, 0xb0, 0xc5, 0xcd, 0xd4, 0x05, 0xb0, 0x3b, 0xcf,
  0xc8, 0xe9, 0xf9, 0x25, 0xe7, 0xfb, 0x89, 0x0c, 0x31, 0xb3, 0xf4, 0xd2,
  0xce, 0x13, 0x03, 0xe4, 0x2e, 0x01, 0x06, 0x0d, 0x30, 0x00, 0xee, 0xe4,
  0x11, 0x2d, 0x10, 0x1f, 0xe6, 0xfa, 0xf5, 0xe6, 0x0f, 0x12, 0xd2, 0xb1,
  0x3e, 0x25, 0x19, 0x27, 0xec, 0xbf, 0x2f, 0x90, 0x0a, 0xe9, 0xff, 0x03,
  0x3a, 0xe5, 0x0e, 0x1d, 0x0a, 0x2e, 0xe9, 0xb5, 0xbc, 0x76, 0x16, 0xed,
  0xe2, 0x0a, 0xd4, 0xfc, 0x02, 0xec, 0x90, 0x9d, 0x1a, 0x09, 0xdc, 0x23,
  0xcb, 0xca, 0xe8, 0xb2, 0xf1, 0x18, 0xdd, 0x05, 0x4d, 0x14, 0x26, 0xfd,
  0xed, 0x25, 0xe9, 0xb3, 0xe6, 0x2a, 0x11, 0x11, 0xad, 0xdd, 0xc1, 0x0f,
  0x17, 0xf1, 0xcb, 0x81, 0x1a, 0x11, 0xf9, 0xf1, 0xc0, 0x1b, 0x1b, 0x2f,
  0xde, 0xd8, 0xfa, 0xe3, 0xf3, 0x08, 0x2f, 0xcf, 0xfe, 0xbd, 0xed, 0xc8,
  0xb5, 0xbc, 0xca, 0x26, 0xcd, 0x11, 0xd0, 0x3c, 0x22, 0x13, 0x49, 0x0e,
  0xe3, 0x12, 0xdf, 0xf6, 0x03, 0x1f, 0x00, 0x21, 0xe0, 0xb9, 0x13, 0x57,
  0x11, 0x2c, 0x0e, 0xd6, 0x00, 0xae, 0x10, 0xf2, 0xfe, 0xe0, 0xe8, 0x04,
  0xb2, 0x09, 0xf2, 0x0f, 0x05, 0x1a, 0x1c, 0xc7, 0xea, 0x25, 0xf2, 0xe2,
  0xdf, 0x2e, 0xc5, 0xee, 0xb4, 0xbc, 0xf4, 0x0d, 0xca, 0xe3, 0x08, 0x81,
  0x10, 0xcc, 0x2f, 0xe3, 0x18, 0xf8, 0x08, 0xec, 0x02, 0x17, 0x20, 0x8d,
  0xd3, 0x0e, 0x1d, 0x32, 0xc8, 0x0e, 0x13, 0xf2, 0xec, 0x00, 0xcd, 0xe8,
  0x1e, 0x0d, 0xc0, 0xf3, 0xfa, 0xca, 0x1c, 0xf0, 0x40, 0xd7, 0x20, 0x02,
  0x81, 0xf8, 0x14, 0x12, 0xee, 0xba, 0xdf, 0xe9, 0x06, 0x20, 0x05, 0xaf,
  0xe9, 0x0d, 0x15, 0x32, 0xf1, 0xdc, 0xbc, 0xe9, 0x24, 0xdb, 0xad, 0x00,
  0x16, 0x99, 0xf4, 0xfb, 0xf5, 0xf1, 0x0f, 0xd2, 0xa7, 0x0f, 0x0b, 0x0e,
  0x01, 0xcb, 0xdf, 0x10, 0x05, 0x17, 0x03, 0xa5, 0xb6, 0x1d, 0x14, 0xf5,
  0xd7, 0xfe, 0xaa, 0x1b, 0xf9, 0x01, 0xbb, 0x0b, 0xe8, 0xa1, 0xfc, 0x03,
  0x30, 0xdb, 0x16, 0xeb, 0x97, 0x29, 0x02, 0x29, 0xd8, 0x9a, 0xb5, 0xb1,
  0x2e, 0x2e, 0xe4, 0xae, 0xe0, 0x22, 0x12, 0x3b, 0x09, 0xbe, 0xfe, 0x4c,
  0x05, 0xf3, 0x04, 0x9d, 0x17, 0x0e, 0x91, 0x01, 0x8a, 0x26, 0xd0, 0xe4,
  0xf4, 0x37, 0xe0, 0xb6, 0x37, 0xf8, 0x05, 0x3c, 0x1e, 0x86, 0xd7, 0x17,
  0xf4, 0xa0, 0x81, 0x11, 0x1a, 0xb9, 0xf0, 0x44, 0xf1, 0xf3, 0x47, 0x9b,
  0x0a, 0x41, 0xb3, 0xde, 0xbe, 0x08, 0xd7, 0x10, 0xeb, 0xd0, 0xb8, 0xb3,
  0xde, 0xe6, 0x07, 0xe5, 0xe0, 0xbd, 0xda, 0x25, 0xd9, 0xc4, 0xbc, 0x02,
  0x2b, 0xda, 0x0d, 0x23, 0xd7, 0xf6, 0xc5, 0x8b, 0xf2, 0x0a, 0xa4, 0xe8,
  0xb9, 0x0d, 0xc0, 0x02, 0x0d, 0xf6, 0x0f, 0xb9, 0x69, 0xe0, 0x68, 0xf1,
  0xd8, 0xe8, 0x30, 0x15, 0xba, 0xcf, 0xf3, 0x37, 0xf3, 0xd1, 0xfb, 0xcf,
  0x04, 0x0b, 0xeb, 0x18, 0x0e, 0xf8, 0xfc, 0x0b, 0x81, 0x15, 0xd1, 0x1d,
  0xec, 0xda, 0xca, 0xa8, 0x13, 0xed, 0xf8, 0x01, 0xbb, 0xca, 0xcc, 0xf3,
  0x0e, 0x9a, 0xc2, 0xa1, 0x00, 0x2e, 0x0e, 0xba, 0xff, 0x0c, 0xfc, 0x0d,
  0xf6, 0x0a, 0xeb, 0x10, 0xe1, 0x1a, 0x0c, 0xf4, 0xef, 0x07, 0xe4, 0xde,
  0xdc, 0x0d, 0xb9, 0xcb, 0xd2, 0xc6, 0xbc, 0xd0, 0xee, 0xd4, 0xf2, 0xcb,
  0xfa, 0x2a, 0xd5, 0xdc, 0x07, 0xa2, 0x01, 0xa9, 0xc4, 0x16, 0xe5, 0xdf,
  0x14, 0xc0, 0xf8, 0xce, 0x09, 0x20, 0x0e, 0xee, 0xc5, 0x19, 0xc6, 0xdf,
  0xa3, 0xd1, 0xc1, 0xae, 0xea, 0xdc, 0x19, 0x31, 0x17, 0x26, 0x02, 0xb8,
  0x21, 0x2a, 0x20, 0x00, 0x17, 0x32, 0x25, 0x27, 0xc4, 0xf4, 0xac, 0xf7,
  0x1e, 0x2a, 0x17, 0xda, 0xfc, 0xfa, 0xf2, 0xe1, 0xd2, 0x84, 0xdc, 0xdf,
  0x0f, 0xbd, 0xea, 0x11, 0x2c, 0x35, 0x25, 0xb5, 0xf7, 0x01, 0x09, 0x0e,
  0xf3, 0x13, 0xdb, 0xf7, 0xdb, 0xf0, 0xb4, 0xd3, 0x03, 0x29, 0xec, 0x94,
  0xb3, 0x28, 0xa9, 0x8d, 0x8a, 0x90, 0xf3, 0xa1, 0x57, 0x98, 0x30, 0x2a,
  0xf0, 0x67, 0xdb, 0xad, 0xe7, 0xc0, 0x32, 0x04, 0xe6, 0x2a, 0xfc, 0xb5,
  0x23, 0x16, 0xc3, 0xa6, 0x39, 0x15, 0x1e, 0xa4, 0x9a, 0x1e, 0x0d, 0xc1,
  0x81, 0xc7, 0xde, 0xfd, 0x2f, 0xac, 0x17, 0x24, 0x17, 0xc6, 0xe6, 0x13,
  0x06, 0xf6, 0xba, 0xe2, 0xe2, 0xbf, 0xc2, 0x09, 0xa1, 0xec, 0xeb, 0x2f,
  0xc6, 0x09, 0x05, 0xd2, 0xfd, 0xea, 0x11, 0xfd, 0xcb, 0xa0, 0x03, 0x01,
  0xdd, 0xed, 0xa5, 0x0c, 0xfc, 0xd8, 0x16, 0xf4, 0x1d, 0x0f, 0xba, 0xe9,
  0xdc, 0xc9, 0xc1, 0x06, 0xcc, 0x0f, 0x13, 0x03, 0xe5, 0xff, 0xfc, 0xb5,
  0xde, 0xde, 0x17, 0xe9, 0xef, 0xca, 0x34, 0x17, 0xe9, 0xb5, 0xb4, 0x2e,
  0x0c, 0xb1, 0xfb, 0x14, 0xfc, 0x0b, 0xc4, 0xe3, 0x08, 0xe3, 0xcd, 0xe2,
  0x81, 0xf8, 0xec, 0x0b, 0x20, 0xe6, 0xee, 0xc0, 0x2a, 0xa6, 0x39, 0xeb,
  0xab, 0xbd, 0x52, 0x4b, 0xc3, 0xe3, 0xab, 0xe0, 0x86, 0xfb, 0xff, 0xff,
  0x04, 0x00, 0x00, 0x00, 0x40, 0x00, 0x00, 0x00, 0x58, 0xfc, 0xff, 0xff,
  0xdd, 0xff, 0xff, 0xff, 0x43, 0xf6, 0xff, 0xff, 0xf6, 0xf9, 0xff, 0xff,
  0xfe, 0xfd, 0xff, 0xff, 0x26, 0xfb, 0xff, 0xff, 0x11, 0xfd, 0xff, 0xff,
  0x4d, 0xfd, 0xff, 0xff, 0xf6, 0x09, 0x00, 0x00, 0xd2, 0x05, 0x00, 0x00,
  0x2e, 0xfb, 0xff, 0xff, 0x3c, 0xff, 0xff, 0xff, 0x28, 0x03, 0x00, 0x00,
  0xee, 0xfc, 0xff, 0xff, 0x5d, 0xfe, 0xff, 0xff, 0x70, 0x04, 0x00, 0x00,
  0xd2, 0xfb, 0xff, 0xff, 0x04, 0x00, 0x00, 0x00, 0x80, 0x01, 0x00, 0x00,
  0xdc, 0x10, 0x3e, 0x2d, 0x35, 0x02, 0xca, 0x30, 0xf7, 0xd1, 0x46, 0xfd,
  0x09, 0x14, 0xf2, 0xfd, 0xf2, 0x05, 0x31, 0x29, 0x07, 0x01, 0x27, 0x0b,
  0xf2, 0xfa, 0xfd, 0x18, 0xe8, 0x7f, 0xd1, 0x03, 0xfa, 0xec, 0x31, 0x41,
  0x1f, 0xda, 0xc9, 0x43, 0x05, 0xfa, 0x49, 0x26, 0xd9, 0x78, 0xff, 0xc7,
  0xe4, 0xd9, 0xc9, 0xa4, 0x98, 0x0c, 0x27, 0xb8, 0x3b, 0xd3, 0x9c, 0xb4,
  0x08, 0xd9, 0xe3, 0x20, 0x03, 0x14, 0xac, 0xc8, 0x81, 0xfb, 0xc0, 0x85,
  0x25, 0xcb, 0x87, 0xe1, 0x10, 0xc4, 0xcf, 0x03, 0xfe, 0x20, 0xa0, 0xc4,
  0xf0, 0x02, 0xed, 0xdf, 0x3a, 0xaf, 0x86, 0x21, 0x0b, 0x95, 0xb5, 0x17,
  0x03, 0x99, 0xef, 0x34, 0xc8, 0x19, 0xf2, 0x58, 0xf3, 0xb7, 0xce, 0xf4,
  0xc9, 0xbd, 0xc8, 0xf3, 0xde, 0xdb, 0xef, 0xee, 0xbb, 0x04, 0x06, 0xc7,
  0xef, 0xbd, 0x1b, 0xad, 0xba, 0xcc, 0x97, 0xf3, 0x2b, 0x00, 0x0c, 0x14,
  0x81, 0x2d, 0x1d, 0x5d, 0xb2, 0xc8, 0x1b, 0xb4, 0xc9, 0xbe, 0xb4, 0xf9,
  0x02, 0xfd, 0xeb, 0x58, 0xcf, 0xec, 0xf2, 0x1e, 0xbd, 0xa3, 0x35, 0xfb,
  0xb9, 0xcd, 0xd4, 0xcb, 0xf9, 0x0b, 0x22, 0x29, 0xce, 0xc4, 0x21, 0x14,
  0xdc, 0xd4, 0x21, 0x00, 0xca, 0xc3, 0xc5, 0xbd, 0xfd, 0x1d, 0x0e, 0x3a,
  0xcf, 0xed, 0xf0, 0xfb, 0xed, 0x81, 0x23, 0x9c, 0x03, 0xee, 0xce, 0xf8,
  0x1d, 0x07, 0xab, 0x97, 0xb5, 0xea, 0x5d, 0x8e, 0xf3, 0x0e, 0x84, 0xc5,
  0x42, 0xca, 0xf3, 0x03, 0x2e, 0x00, 0xa2, 0xeb, 0x81, 0xea, 0x51, 0xd1,
  0x0c, 0xe0, 0xad, 0xb8, 0xf1, 0x9e, 0xf3, 0x22, 0xf4, 0x15, 0x92, 0xcb,
  0xe9, 0xb5, 0x30, 0xbc, 0x0b, 0xfa, 0xb9, 0xaf, 0x49, 0xda, 0xf6, 0xe9,
  0x05, 0x18, 0xd6, 0x04, 0xf2, 0xff, 0xb8, 0xc5, 0xdb, 0x24, 0x89, 0xd0,
  0x27, 0x4d, 0x4e, 0xd8, 0xfe, 0x2c, 0xfe, 0x0b, 0x07, 0x3a, 0x2a, 0xde,
  0xc8, 0x19, 0x8a, 0x96, 0xc9, 0x5d, 0x0d, 0xdb, 0xf5, 0x2a, 0x02, 0xef,
  0xe7, 0xd4, 0xc5, 0xef, 0xa4, 0x01, 0xbe, 0x81, 0xf5, 0x24, 0x48, 0xa1,
  0x23, 0xeb, 0xd7, 0xde, 0xba, 0x11, 0xeb, 0x2f, 0x9e, 0x29, 0x1d, 0xa9,
  0xeb, 0xbf, 0xe2, 0xd6, 0xf5, 0x1c, 0xec, 0x0b, 0x81, 0x0c, 0x0a, 0xfc,
  0xb7, 0xf7, 0x10, 0x94, 0xfa, 0xc8, 0xf5, 0xf3, 0x29, 0x05, 0xca, 0xff,
  0xbb, 0xfe, 0xfc, 0x1c, 0xd7, 0x02, 0x02, 0x98, 0x0a, 0xc9, 0xfb, 0xfa,
  0xfa, 0x9c, 0xf7, 0x04, 0x39, 0x00, 0x0f, 0x1d, 0xe6, 0x23, 0x03, 0x2e,
  0xec, 0xfb, 0xf4, 0xfe, 0xd5, 0x81, 0xff, 0xe6, 0x1a, 0xda, 0x1d, 0xe9,
  0xff, 0x0f, 0x02, 0xf8, 0xc8, 0x07, 0x08, 0xf2, 0xb2, 0xc9, 0x01, 0xd3,
  0x18, 0x17, 0xf6, 0xd2, 0x0e, 0x13, 0xf2, 0x37, 0xef, 0x02, 0xf9, 0xdc,
  0x5e, 0xfd, 0xff, 0xff, 0x04, 0x00, 0x00, 0x00, 0x20, 0x00, 0x00, 0x00,
  0x2e, 0xf9, 0xff, 0xff, 0xc9, 0x00, 0x00, 0x00, 0x77, 0xff, 0xff, 0xff,
  0x9d, 0xff, 0xff, 0xff, 0x7e, 0xff, 0xff, 0xff, 0xeb, 0x01, 0x00, 0x00,
  0x44, 0x01, 0x00, 0x00, 0x38, 0xfd, 0xff, 0xff, 0x8a, 0xfd, 0xff, 0xff,
  0x04, 0x00, 0x00, 0x00, 0xe0, 0x00, 0x00, 0x00, 0xeb, 0x9f, 0x41, 0x15,
  0xb0, 0xc9, 0x2b, 0xb3, 0x1a, 0xd8, 0x3c, 0x40, 0xe6, 0xcb, 0x07, 0xd9,
  0x0e, 0xf2, 0x11, 0x28, 0xd9, 0xd9, 0x0f, 0xe1, 0x0b, 0xe0, 0x49, 0x14,
  0xe8, 0xc2, 0x28, 0xc5, 0x2b, 0xd6, 0x23, 0x23, 0xf6, 0xc6, 0x17, 0xdd,
  0x1d, 0xe0, 0x14, 0x2a, 0xee, 0xc8, 0x1c, 0xb4, 0x11, 0xd4, 0x60, 0x25,
  0xe9, 0xf9, 0x07, 0xb4, 0xb3, 0xeb, 0x02, 0x02, 0x1a, 0x2d, 0x2a, 0x0b,
  0xb7, 0x27, 0x26, 0xe9, 0x28, 0x2a, 0xfc, 0x05, 0x96, 0x1c, 0x00, 0xda,
  0x20, 0x0a, 0x13, 0x0e, 0x9a, 0x37, 0xf5, 0xa9, 0x25, 0x07, 0x23, 0xda,
  0xbe, 0x22, 0xf3, 0xc1, 0x2e, 0x13, 0x27, 0xf5, 0xb1, 0xf8, 0x05, 0xcf,
  0x22, 0x19, 0x2e, 0x03, 0xdc, 0xed, 0xec, 0xca, 0x2f, 0x30, 0x29, 0xf9,
  0x09, 0x81, 0xec, 0xec, 0x8c, 0x41, 0xbf, 0xe3, 0x16, 0x9d, 0xbc, 0x36,
  0xb2, 0x41, 0xc4, 0xe0, 0x0b, 0xdb, 0xc7, 0x23, 0xca, 0x3a, 0xdb, 0xf6,
  0x11, 0xb4, 0x00, 0x0f, 0xcf, 0x24, 0xf7, 0xe3, 0x20, 0xcf, 0xe1, 0x24,
  0xd8, 0x18, 0xea, 0xf1, 0x0d, 0xc8, 0x14, 0x2e, 0xb8, 0xfb, 0xf3, 0xe7,
  0x10, 0xe9, 0x2e, 0x0f, 0xdb, 0x2d, 0xea, 0xc0, 0xcc, 0x07, 0xe2, 0xc6,
  0x14, 0xdf, 0xf2, 0x14, 0x09, 0x3a, 0x28, 0xd2, 0x3e, 0xeb, 0xcf, 0x3b,
  0x0e, 0x21, 0x03, 0xe9, 0x14, 0xef, 0xc2, 0x50, 0x19, 0x35, 0xfc, 0xe1,
  0x12, 0xe7, 0xd1, 0x34, 0x24, 0x3a, 0x05, 0xce, 0x23, 0xc8, 0xde, 0x1c,
  0xef, 0x1a, 0xf7, 0xd3, 0x18, 0xe0, 0xf9, 0x10, 0xe2, 0x11, 0xdb, 0x81,
  0x34, 0xd5, 0xcf, 0xf1, 0x76, 0xfe, 0xff, 0xff, 0x04, 0x00, 0x00, 0x00,
  0x10, 0x00, 0x00, 0x00, 0xc8, 0xfc, 0xff, 0xff, 0xc6, 0x01, 0x00, 0x00,
  0x51, 0x00, 0x00, 0x00, 0x7c, 0x00, 0x00, 0x00, 0x92, 0xfe, 0xff, 0xff,
  0x04, 0x00, 0x00, 0x00, 0x08, 0x00, 0x00, 0x00, 0xff, 0xff, 0xff, 0xff,
  0x38, 0x00, 0x00, 0x00, 0xa6, 0xfe, 0xff, 0xff, 0x04, 0x00, 0x00, 0x00,
  0x10, 0x00, 0x00, 0x00, 0x01, 0x00, 0x00, 0x00, 0x0d, 0x00, 0x00, 0x00,
  0x01, 0x00, 0x00, 0x00, 0x08, 0x00, 0x00, 0x00, 0xc2, 0xfe, 0xff, 0xff,
  0x04, 0x00, 0x00, 0x00, 0x10, 0x00, 0x00, 0x00, 0x01, 0x00, 0x00, 0x00,
  0x01, 0x00, 0x00, 0x00, 0x0d, 0x00, 0x00, 0x00, 0x10, 0x00, 0x00, 0x00,
  0xde, 0xfe, 0xff, 0xff, 0x04, 0x00, 0x00, 0x00, 0x10, 0x00, 0x00, 0x00,
  0x01, 0x00, 0x00, 0x00, 0x19, 0x00, 0x00, 0x00, 0x01, 0x00, 0x00, 0x00,
  0x10, 0x00, 0x00, 0x00, 0xfa, 0xfe, 0xff, 0xff, 0x04, 0x00, 0x00, 0x00,
  0x10, 0x00, 0x00, 0x00, 0x01, 0x00, 0x00, 0x00, 0x01, 0x00, 0x00, 0x00,
  0x19, 0x00, 0x00, 0x00, 0x20, 0x00, 0x00, 0x00, 0x16, 0xff, 0xff, 0xff,
  0x04, 0x00, 0x00, 0x00, 0x10, 0x00, 0x00, 0x00, 0x01, 0x00, 0x00, 0x00,
  0x32, 0x00, 0x00, 0x00, 0x01, 0x00, 0x00, 0x00, 0x20, 0x00, 0x00, 0x00,
  0x32, 0xff, 0xff, 0xff, 0x04, 0x00, 0x00, 0x00, 0x10, 0x00, 0x00, 0x00,
  0x01, 0x00, 0x00, 0x00, 0x01, 0x00, 0x00, 0x00, 0x32, 0x00, 0x00, 0x00,
  0x0d, 0x00, 0x00, 0x00, 0xbc, 0xe8, 0xff, 0xff, 0xc0, 0xe8, 0xff, 0xff,
  0x0f, 0x00, 0x00, 0x00, 0x4d, 0x4c, 0x49, 0x52, 0x20, 0x43, 0x6f, 0x6e,
  0x76, 0x65, 0x72, 0x74, 0x65, 0x64, 0x2e, 0x00, 0x01, 0x00, 0x00, 0x00,
  0x14, 0x00, 0x00, 0x00, 0x00, 0x00, 0x0e, 0x00, 0x18, 0x00, 0x14, 0x00,
  0x10, 0x00, 0x0c, 0x00, 0x08, 0x00, 0x04, 0x00, 0x0e, 0x00, 0x00, 0x00,
  0x14, 0x00, 0x00, 0x00, 0x1c, 0x00, 0x00, 0x00, 0x50, 0x03, 0x00, 0x00,
  0x54, 0x03, 0x00, 0x00, 0x58, 0x03, 0x00, 0x00, 0x04, 0x00, 0x00, 0x00,
  0x6d, 0x61, 0x69, 0x6e, 0x00, 0x00, 0x00, 0x00, 0x0f, 0x00, 0x00, 0x00,
  0x14, 0x03, 0x00, 0x00, 0xb8, 0x02, 0x00, 0x00, 0x84, 0x02, 0x00, 0x00,
  0x34, 0x02, 0x00, 0x00, 0x10, 0x02, 0x00, 0x00, 0xcc, 0x01, 0x00, 0x00,
  0xa8, 0x01, 0x00, 0x00, 0x68, 0x01, 0x00, 0x00, 0x44, 0x01, 0x00, 0x00,
  0x00, 0x01, 0x00, 0x00, 0xdc, 0x00, 0x00, 0x00, 0x9c, 0x00, 0x00, 0x00,
  0x78, 0x00, 0x00, 0x00, 0x40, 0x00, 0x00, 0x00, 0x04, 0x00, 0x00, 0x00,
  0x8e, 0xfd, 0xff, 0xff, 0x1c, 0x00, 0x00, 0x00, 0x00, 0x00, 0x00, 0x09,
  0x1c, 0x00, 0x00, 0x00, 0x20, 0x00, 0x00, 0x00, 0x04, 0x00, 0x00, 0x00,
  0x00, 0x00, 0x06, 0x00, 0x08, 0x00, 0x04, 0x00, 0x06, 0x00, 0x00, 0x00,
  0x00, 0x00, 0x80, 0x3f, 0x01, 0x00, 0x00, 0x00, 0x1e, 0x00, 0x00, 0x00,
  0x01, 0x00, 0x00, 0x00, 0x1d, 0x00, 0x00, 0x00, 0xc6, 0xfd, 0xff, 0xff,
  0x14, 0x00, 0x00, 0x00, 0x00, 0x00, 0x00, 0x08, 0x10, 0x00, 0x00, 0x00,
  0x14, 0x00, 0x00, 0x00, 0x03, 0x00, 0x00, 0x00, 0xa4, 0xe9, 0xff, 0xff,
  0x01, 0x00, 0x00, 0x00, 0x1d, 0x00, 0x00, 0x00, 0x03, 0x00, 0x00, 0x00,
  0x1c, 0x00, 0x00, 0x00, 0x09, 0x00, 0x00, 0x00, 0x08, 0x00, 0x00, 0x00,
  0x9e, 0xfd, 0xff, 0xff, 0x08, 0x00, 0x00, 0x00, 0x0c, 0x00, 0x00, 0x00,
  0x01, 0x00, 0x00, 0x00, 0x1c, 0x00, 0x00, 0x00, 0x02, 0x00, 0x00, 0x00,
  0x1b, 0x00, 0x00, 0x00, 0x07, 0x00, 0x00, 0x00, 0x1a, 0xfe, 0xff, 0xff,
  0x14, 0x00, 0x00, 0x00, 0x00, 0x00, 0x00, 0x05, 0x20, 0x00, 0x00, 0x00,
  0x24, 0x00, 0x00, 0x00, 0x02, 0x00, 0x00, 0x00, 0x86, 0xfe, 0xff, 0xff,
  0x02, 0x00, 0x00, 0x00, 0x01, 0x00, 0x00, 0x00, 0x02, 0x00, 0x00, 0x00,
  0x01, 0x00, 0x00, 0x00, 0x01, 0x00, 0x00, 0x00, 0x1b, 0x00, 0x00, 0x00,
  0x01, 0x00, 0x00, 0x00, 0x1a, 0x00, 0x00, 0x00, 0xfa, 0xfd, 0xff, 0xff,
  0x08, 0x00, 0x00, 0x00, 0x0c, 0x00, 0x00, 0x00, 0x01, 0x00, 0x00, 0x00,
  0x1a, 0x00, 0x00, 0x00, 0x02, 0x00, 0x00, 0x00, 0x19, 0x00, 0x00, 0x00,
  0x06, 0x00, 0x00, 0x00, 0x76, 0xfe, 0xff, 0xff, 0x14, 0x00, 0x00, 0x00,
  0x00, 0x00, 0x00, 0x01, 0x1c, 0x00, 0x00, 0x00, 0x20, 0x00, 0x00, 0x00,
  0x01, 0x00, 0x00, 0x00, 0x68, 0xfe, 0xff, 0xff, 0x00, 0x00, 0x00, 0x01,
  0x01, 0x00, 0x00, 0x00, 0x01, 0x00, 0x00, 0x00, 0x01, 0x00, 0x00, 0x00,
  0x19, 0x00, 0x00, 0x00, 0x03, 0x00, 0x00, 0x00, 0x18, 0x00, 0x00, 0x00,
  0x0b, 0x00, 0x00, 0x00, 0x0a, 0x00, 0x00, 0x00, 0x5a, 0xfe, 0xff, 0xff,
  0x08, 0x00, 0x00, 0x00, 0x0c, 0x00, 0x00, 0x00, 0x01, 0x00, 0x00, 0x00,
  0x18, 0x00, 0x00, 0x00, 0x02, 0x00, 0x00, 0x00, 0x17, 0x00, 0x00, 0x00,
  0x05, 0x00, 0x00, 0x00, 0xd6, 0xfe, 0xff, 0xff, 0x14, 0x00, 0x00, 0x00,
  0x00, 0x00, 0x00, 0x05, 0x20, 0x00, 0x00, 0x00, 0x24, 0x00, 0x00, 0x00,
  0x02, 0x00, 0x00, 0x00, 0x42, 0xff, 0xff, 0xff, 0x02, 0x00, 0x00, 0x00,
  0x01, 0x00, 0x00, 0x00, 0x02, 0x00, 0x00, 0x00, 0x01, 0x00, 0x00, 0x00,
  0x01, 0x00, 0x00, 0x00, 0x17, 0x00, 0x00, 0x00, 0x01, 0x00, 0x00, 0x00,
  0x16, 0x00, 0x00, 0x00, 0xb6, 0xfe, 0xff, 0xff, 0x08, 0x00, 0x00, 0x00,
  0x0c, 0x00, 0x00, 0x00, 0x01, 0x00, 0x00, 0x00, 0x16, 0x00, 0x00, 0x00,
  0x02, 0x00, 0x00, 0x00, 0x15, 0x00, 0x00, 0x00, 0x04, 0x00, 0x00, 0x00,
  0x32, 0xff, 0xff, 0xff, 0x14, 0x00, 0x00, 0x00, 0x00, 0x00, 0x00, 0x01,
  0x1c, 0x00, 0x00, 0x00, 0x20, 0x00, 0x00, 0x00, 0x01, 0x00, 0x00, 0x00,
  0x24, 0xff, 0xff, 0xff, 0x00, 0x00, 0x00, 0x01, 0x01, 0x00, 0x00, 0x00,
  0x01, 0x00, 0x00, 0x00, 0x01, 0x00, 0x00, 0x00, 0x15, 0x00, 0x00, 0x00,
  0x03, 0x00, 0x00, 0x00, 0x14, 0x00, 0x00, 0x00, 0x0d, 0x00, 0x00, 0x00,
  0x0c, 0x00, 0x00, 0x00, 0x16, 0xff, 0xff, 0xff, 0x08, 0x00, 0x00, 0x00,
  0x0c, 0x00, 0x00, 0x00, 0x01, 0x00, 0x00, 0x00, 0x14, 0x00, 0x00, 0x00,
  0x02, 0x00, 0x00, 0x00, 0x13, 0x00, 0x00, 0x00, 0x03, 0x00, 0x00, 0x00,
  0x92, 0xff, 0xff, 0xff, 0x24, 0x00, 0x00, 0x00, 0x00, 0x00, 0x00, 0x05,
  0x30, 0x00, 0x00, 0x00, 0x34, 0x00, 0x00, 0x00, 0x02, 0x00, 0x00, 0x00,
  0x00, 0x00, 0x0e, 0x00, 0x14, 0x00, 0x00, 0x00, 0x10, 0x00, 0x0c, 0x00,
  0x08, 0x00, 0x04, 0x00, 0x0e, 0x00, 0x00, 0x00, 0x02, 0x00, 0x00, 0x00,
  0x01, 0x00, 0x00, 0x00, 0x02, 0x00, 0x00, 0x00, 0x01, 0x00, 0x00, 0x00,
  0x01, 0x00, 0x00, 0x00, 0x13, 0x00, 0x00, 0x00, 0x01, 0x00, 0x00, 0x00,
  0x12, 0x00, 0x00, 0x00, 0x82, 0xff, 0xff, 0xff, 0x08, 0x00, 0x00, 0x00,
  0x0c, 0x00, 0x00, 0x00, 0x01, 0x00, 0x00, 0x00, 0x12, 0x00, 0x00, 0x00,
  0x02, 0x00, 0x00, 0x00, 0x11, 0x00, 0x00, 0x00, 0x02, 0x00, 0x00, 0x00,
  0x00, 0x00, 0x0e, 0x00, 0x18, 0x00, 0x14, 0x00, 0x10, 0x00, 0x0c, 0x00,
  0x0b, 0x00, 0x04, 0x00, 0x0e, 0x00, 0x00, 0x00, 0x20, 0x00, 0x00, 0x00,
  0x00, 0x00, 0x00, 0x01, 0x28, 0x00, 0x00, 0x00, 0x2c, 0x00, 0x00, 0x00,
  0x01, 0x00, 0x00, 0x00, 0x0c, 0x00, 0x10, 0x00, 0x00, 0x00, 0x0c, 0x00,
  0x08, 0x00, 0x07, 0x00, 0x0c, 0x00, 0x00, 0x00, 0x00, 0x00, 0x00, 0x01,
  0x01, 0x00, 0x00, 0x00, 0x01, 0x00, 0x00, 0x00, 0x01, 0x00, 0x00, 0x00,
  0x11, 0x00, 0x00, 0x00, 0x03, 0x00, 0x00, 0x00, 0x10, 0x00, 0x00, 0x00,
  0x0f, 0x00, 0x00, 0x00, 0x0e, 0x00, 0x00, 0x00, 0x00, 0x00, 0x0a, 0x00,
  0x0c, 0x00, 0x00, 0x00, 0x08, 0x00, 0x04, 0x00, 0x0a, 0x00, 0x00, 0x00,
  0x08, 0x00, 0x00, 0x00, 0x0c, 0x00, 0x00, 0x00, 0x01, 0x00, 0x00, 0x00,
  0x10, 0x00, 0x00, 0x00, 0x02, 0x00, 0x00, 0x00, 0x00, 0x00, 0x00, 0x00,
  0x01, 0x00, 0x00, 0x00, 0x01, 0x00, 0x00, 0x00, 0x1e, 0x00, 0x00, 0x00,
  0x01, 0x00, 0x00, 0x00, 0x00, 0x00, 0x00, 0x00, 0x1f, 0x00, 0x00, 0x00,
  0xf0, 0x13, 0x00, 0x00, 0x80, 0x13, 0x00, 0x00, 0x2c, 0x13, 0x00, 0x00,
  0xd4, 0x12, 0x00, 0x00, 0x7c, 0x12, 0x00, 0x00, 0x24, 0x12, 0x00, 0x00,
  0xcc, 0x11, 0x00, 0x00, 0x80, 0x11, 0x00, 0x00, 0x04, 0x11, 0x00, 0x00,
  0x98, 0x10, 0x00, 0x00, 0xcc, 0x0f, 0x00, 0x00, 0x00, 0x0f, 0x00, 0x00,
  0xd4, 0x0d, 0x00, 0x00, 0xa8, 0x0c, 0x00, 0x00, 0xbc, 0x0a, 0x00, 0x00,
  0xd0, 0x08, 0x00, 0x00, 0x4c, 0x08, 0x00, 0x00, 0x60, 0x07, 0x00, 0x00,
  0xdc, 0x06, 0x00, 0x00, 0x60, 0x06, 0x00, 0x00, 0xdc, 0x05, 0x00, 0x00,
  0xe0, 0x04, 0x00, 0x00, 0x5c, 0x04, 0x00, 0x00, 0xe0, 0x03, 0x00, 0x00,
  0x5c, 0x03, 0x00, 0x00, 0x60, 0x02, 0x00, 0x00, 0xdc, 0x01, 0x00, 0x00,
  0x60, 0x01, 0x00, 0x00, 0xf4, 0x00, 0x00, 0x00, 0x70, 0x00, 0x00, 0x00,
  0x04, 0x00, 0x00, 0x00, 0xa2, 0xec, 0xff, 0xff, 0x00, 0x00, 0x00, 0x01,
  0x14, 0x00, 0x00, 0x00, 0x30, 0x00, 0x00, 0x00, 0x1f, 0x00, 0x00, 0x00,
  0x00, 0x00, 0x00, 0x09, 0x44, 0x00, 0x00, 0x00, 0x8c, 0xec, 0xff, 0xff,
  0x08, 0x00, 0x00, 0x00, 0x10, 0x00, 0x00, 0x00, 0x01, 0x00, 0x00, 0x00,
  0x80, 0xff, 0xff, 0xff, 0xff, 0xff, 0xff, 0xff, 0x01, 0x00, 0x00, 0x00,
  0x00, 0x00, 0x80, 0x3b, 0x19, 0x00, 0x00, 0x00, 0x53, 0x74, 0x61, 0x74,
  0x65, 0x66, 0x75, 0x6c, 0x50, 0x61, 0x72, 0x74, 0x69, 0x74, 0x69, 0x6f,
  0x6e, 0x65, 0x64, 0x43, 0x61, 0x6c, 0x6c, 0x3a, 0x30, 0x00, 0x00, 0x00,
  0x02, 0x00, 0x00, 0x00, 0x01, 0x00, 0x00, 0x00, 0x04, 0x00, 0x00, 0x00,
  0x0a, 0xed, 0xff, 0xff, 0x00, 0x00, 0x00, 0x01, 0x14, 0x00, 0x00, 0x00,
  0x30, 0x00, 0x00, 0x00, 0x1e, 0x00, 0x00, 0x00, 0x00, 0x00, 0x00, 0x09,
  0x5c, 0x00, 0x00, 0x00, 0xf4, 0xec, 0xff, 0xff, 0x08, 0x00, 0x00, 0x00,
  0x10, 0x00, 0x00, 0x00, 0x01, 0x00, 0x00, 0x00, 0x1c, 0x00, 0x00, 0x00,
  0x00, 0x00, 0x00, 0x00, 0x01, 0x00, 0x00, 0x00, 0x36, 0x0c, 0x0d, 0x3e,
  0x32, 0x00, 0x00, 0x00, 0x73, 0x65, 0x71, 0x75, 0x65, 0x6e, 0x74, 0x69,
  0x61, 0x6c, 0x2f, 0x79, 0x5f, 0x70, 0x72, 0x65, 0x64, 0x2f, 0x4d, 0x61,
  0x74, 0x4d, 0x75, 0x6c, 0x3b, 0x73, 0x65, 0x71, 0x75, 0x65, 0x6e, 0x74,
  0x69, 0x61, 0x6c, 0x2f, 0x79, 0x5f, 0x70, 0x72, 0x65, 0x64, 0x2f, 0x42,
  0x69, 0x61, 0x73, 0x41, 0x64, 0x64, 0x00, 0x00, 0x02, 0x00, 0x00, 0x00,
  0x01, 0x00, 0x00, 0x00, 0x04, 0x00, 0x00, 0x00, 0x8a, 0xed, 0xff, 0xff,
  0x00, 0x00, 0x00, 0x01, 0x14, 0x00, 0x00, 0x00, 0x30, 0x00, 0x00, 0x00,
  0x1d, 0x00, 0x00, 0x00, 0x00, 0x00, 0x00, 0x09, 0x44, 0x00, 0x00, 0x00,
  0x74, 0xed, 0xff, 0xff, 0x08, 0x00, 0x00, 0x00, 0x10, 0x00, 0x00, 0x00,
  0x01, 0x00, 0x00, 0x00, 0x80, 0xff, 0xff, 0xff, 0xff, 0xff, 0xff, 0xff,
  0x01, 0x00, 0x00, 0x00, 0x66, 0x29, 0x8c, 0x3d, 0x1a, 0x00, 0x00, 0x00,
  0x73, 0x65, 0x71, 0x75, 0x65, 0x6e, 0x74, 0x69, 0x61, 0x6c, 0x2f, 0x66,
  0x6c, 0x61, 0x74, 0x74, 0x65, 0x6e, 0x2f, 0x52, 0x65, 0x73, 0x68, 0x61,
  0x70, 0x65, 0x00, 0x00, 0x02, 0x00, 0x00, 0x00, 0x01, 0x00, 0x00, 0x00,
  0x38, 0x00, 0x00, 0x00, 0xf2, 0xed, 0xff, 0xff, 0x00, 0x00, 0x00, 0x01,
  0x14, 0x00, 0x00, 0x00, 0x30, 0x00, 0x00, 0x00, 0x1c, 0x00, 0x00, 0x00,
  0x00, 0x00, 0x00, 0x09, 0x4c, 0x00, 0x00, 0x00, 0xdc, 0xed, 0xff, 0xff,
  0x08, 0x00, 0x00, 0x00, 0x10, 0x00, 0x00, 0x00, 0x01, 0x00, 0x00, 0x00,
  0x80, 0xff, 0xff, 0xff, 0xff, 0xff, 0xff, 0xff, 0x01, 0x00, 0x00, 0x00,
  0x66, 0x29, 0x8c, 0x3d, 0x22, 0x00, 0x00, 0x00, 0x73, 0x65, 0x71, 0x75,
  0x65, 0x6e, 0x74, 0x69, 0x61, 0x6c, 0x2f, 0x6d, 0x61, 0x78, 0x5f, 0x70,
  0x6f, 0x6f, 0x6c, 0x69, 0x6e, 0x67, 0x31, 0x64, 0x5f, 0x32, 0x2f, 0x4d,
  0x61, 0x78, 0x50, 0x6f, 0x6f, 0x6c, 0x00, 0x00, 0x04, 0x00, 0x00, 0x00,
  0x01, 0x00, 0x00, 0x00, 0x07, 0x00, 0x00, 0x00, 0x01, 0x00, 0x00, 0x00,
  0x08, 0x00, 0x00, 0x00, 0x6a, 0xee, 0xff, 0xff, 0x00, 0x00, 0x00, 0x01,
  0x14, 0x00, 0x00, 0x00, 0x34, 0x00, 0x00, 0x00, 0x1b, 0x00, 0x00, 0x00,
  0x00, 0x00, 0x00, 0x09, 0x54, 0x00, 0x00, 0x00, 0x54, 0xee, 0xff, 0xff,
  0x08, 0x00, 0x00, 0x00, 0x14, 0x00, 0x00, 0x00, 0x01, 0x00, 0x00, 0x00,
  0x80, 0xff, 0xff, 0xff, 0xff, 0xff, 0xff, 0xff, 0x00, 0x00, 0x00, 0x00,
  0x01, 0x00, 0x00, 0x00, 0x66, 0x29, 0x8c, 0x3d, 0x26, 0x00, 0x00, 0x00,
  0x73, 0x65, 0x71, 0x75, 0x65, 0x6e, 0x74, 0x69, 0x61, 0x6c, 0x2f, 0x6d,
  0x61, 0x78, 0x5f, 0x70, 0x6f, 0x6f, 0x6c, 0x69, 0x6e, 0x67, 0x31, 0x64,
  0x5f, 0x32, 0x2f, 0x45, 0x78, 0x70, 0x61, 0x6e, 0x64, 0x44, 0x69, 0x6d,
  0x73, 0x31, 0x00, 0x00, 0x04, 0x00, 0x00, 0x00, 0x01, 0x00, 0x00, 0x00,
  0x0d, 0x00, 0x00, 0x00, 0x01, 0x00, 0x00, 0x00, 0x08, 0x00, 0x00, 0x00,
  0xea, 0xee, 0xff, 0xff, 0x00, 0x00, 0x00, 0x01, 0x14, 0x00, 0x00, 0x00,
  0x34, 0x00, 0x00, 0x00, 0x1a, 0x00, 0x00, 0x00, 0x00, 0x00, 0x00, 0x09,
  0xcc, 0x00, 0x00, 0x00, 0xd4, 0xee, 0xff, 0xff, 0x08, 0x00, 0x00, 0x00,
  0x14, 0x00, 0x00, 0x00, 0x01, 0x00, 0x00, 0x00, 0x80, 0xff, 0xff, 0xff,
  0xff, 0xff, 0xff, 0xff, 0x00, 0x00, 0x00, 0x00, 0x01, 0x00, 0x00, 0x00,
  0x66, 0x29, 0x8c, 0x3d, 0x9d, 0x00, 0x00, 0x00, 0x73, 0x65, 0x71, 0x75,
  0x65, 0x6e, 0x74, 0x69, 0x61, 0x6c, 0x2f, 0x63, 0x6f, 0x6e, 0x76, 0x31,
  0x64, 0x5f, 0x32, 0x2f, 0x52, 0x65, 0x6c, 0x75, 0x3b, 0x73, 0x65, 0x71,
  0x75, 0x65, 0x6e, 0x74, 0x69, 0x61, 0x6c, 0x2f, 0x63, 0x6f, 0x6e, 0x76,
  0x31, 0x64, 0x5f, 0x32, 0x2f, 0x42, 0x69, 0x61, 0x73, 0x41, 0x64, 0x64,
  0x3b, 0x73, 0x65, 0x71, 0x75, 0x65, 0x6e, 0x74, 0x69, 0x61, 0x6c, 0x2f,
  0x63, 0x6f, 0x6e, 0x76, 0x31, 0x64, 0x5f, 0x32, 0x2f, 0x43, 0x6f, 0x6e,
  0x76, 0x31, 0x44, 0x2f, 0x53, 0x71, 0x75, 0x65, 0x65, 0x7a, 0x65, 0x3b,
  0x73, 0x65, 0x71, 0x75, 0x65, 0x6e, 0x74, 0x69, 0x61, 0x6c, 0x2f, 0x63,
  0x6f, 0x6e, 0x76, 0x31, 0x64, 0x5f, 0x32, 0x2f, 0x42, 0x69, 0x61, 0x73,
  0x41, 0x64, 0x64, 0x2f, 0x52, 0x65, 0x61, 0x64, 0x56, 0x61, 0x72, 0x69,
  0x61, 0x62, 0x6c, 0x65, 0x4f, 0x70, 0x3b, 0x73, 0x65, 0x71, 0x75, 0x65,
  0x6e, 0x74, 0x69, 0x61, 0x6c, 0x2f, 0x63, 0x6f, 0x6e, 0x76, 0x31, 0x64,
  0x5f, 0x32, 0x2f, 0x43, 0x6f, 0x6e, 0x76, 0x31, 0x44, 0x00, 0x00, 0x00,
  0x04, 0x00, 0x00, 0x00, 0x01, 0x00, 0x00, 0x00, 0x01, 0x00, 0x00, 0x00,
  0x0d, 0x00, 0x00, 0x00, 0x08, 0x00, 0x00, 0x00, 0xe2, 0xef, 0xff, 0xff,
  0x00, 0x00, 0x00, 0x01, 0x14, 0x00, 0x00, 0x00, 0x34, 0x00, 0x00, 0x00,
  0x19, 0x00, 0x00, 0x00, 0x00, 0x00, 0x00, 0x09, 0x54, 0x00, 0x00, 0x00,
  0xcc, 0xef, 0xff, 0xff, 0x08, 0x00, 0x00, 0x00, 0x14, 0x00, 0x00, 0x00,
  0x01, 0x00, 0x00, 0x00, 0x80, 0xff, 0xff, 0xff, 0xff, 0xff, 0xff, 0xff,
  0x00, 0x00, 0x00, 0x00, 0x01, 0x00, 0x00, 0x00, 0x3d, 0x45, 0x7c, 0x3d,
  0x26, 0x00, 0x00, 0x00, 0x73, 0x65, 0x71, 0x75, 0x65, 0x6e, 0x74, 0x69,
  0x61, 0x6c, 0x2f, 0x63, 0x6f, 0x6e, 0x76, 0x31, 0x64, 0x5f, 0x32, 0x2f,
  0x43, 0x6f, 0x6e, 0x76, 0x31, 0x44, 0x2f, 0x45, 0x78, 0x70, 0x61, 0x6e,
  0x64, 0x44, 0x69, 0x6d, 0x73, 0x31, 0x00, 0x00, 0x04, 0x00, 0x00, 0x00,
  0x01, 0x00, 0x00, 0x00, 0x01, 0x00, 0x00, 0x00, 0x0d, 0x00, 0x00, 0x00,
  0x10, 0x00, 0x00, 0x00, 0x62, 0xf0, 0xff, 0xff, 0x00, 0x00, 0x00, 0x01,
  0x14, 0x00, 0x00, 0x00, 0x30, 0x00, 0x00, 0x00, 0x18, 0x00, 0x00, 0x00,
  0x00, 0x00, 0x00, 0x09, 0x4c, 0x00, 0x00, 0x00, 0x4c, 0xf0, 0xff, 0xff,
  0x08, 0x00, 0x00, 0x00, 0x10, 0x00, 0x00, 0x00, 0x01, 0x00, 0x00, 0x00,
  0x80, 0xff, 0xff, 0xff, 0xff, 0xff, 0xff, 0xff, 0x01, 0x00, 0x00, 0x00,
  0x3d, 0x45, 0x7c, 0x3d, 0x22, 0x00, 0x00, 0x00, 0x73, 0x65, 0x71, 0x75,
  0x65, 0x6e, 0x74, 0x69, 0x61, 0x6c, 0x2f, 0x6d, 0x61, 0x78, 0x5f, 0x70,
  0x6f, 0x6f, 0x6c, 0x69, 0x6e, 0x67, 0x31, 0x64, 0x5f, 0x31, 0x2f, 0x4d,
  0x61, 0x78, 0x50, 0x6f, 0x6f, 0x6c, 0x00, 0x00, 0x04, 0x00, 0x00, 0x00,
  0x01, 0x00, 0x00, 0x00, 0x0d, 0x00, 0x00, 0x00, 0x01, 0x00, 0x00, 0x00,
  0x10, 0x00, 0x00, 0x00, 0xda, 0xf0, 0xff, 0xff, 0x00, 0x00, 0x00, 0x01,
  0x14, 0x00, 0x00, 0x00, 0x34, 0x00, 0x00, 0x00, 0x17, 0x00, 0x00, 0x00,
  0x00, 0x00, 0x00, 0x09, 0x54, 0x00, 0x00, 0x00, 0xc4, 0xf0, 0xff, 0xff,
  0x08, 0x00, 0x00, 0x00, 0x14, 0x00, 0x00, 0x00, 0x01, 0x00, 0x00, 0x00,
  0x80, 0xff, 0xff, 0xff, 0xff, 0xff, 0xff, 0xff, 0x00, 0x00, 0x00, 0x00,
  0x01, 0x00, 0x00, 0x00, 0x3d, 0x45, 0x7c, 0x3d, 0x26, 0x00, 0x00, 0x00,
  0x73, 0x65, 0x71, 0x75, 0x65, 0x6e, 0x74, 0x69, 0x61, 0x6c, 0x2f, 0x6d,
  0x61, 0x78, 0x5f, 0x70, 0x6f, 0x6f, 0x6c, 0x69, 0x6e, 0x67, 0x31, 0x64,
  0x5f, 0x31, 0x2f, 0x45, 0x78, 0x70, 0x61, 0x6e, 0x64, 0x44, 0x69, 0x6d,
  0x73, 0x31, 0x00, 0x00, 0x04, 0x00, 0x00, 0x00, 0x01, 0x00, 0x00, 0x00,
  0x19, 0x00, 0x00, 0x00, 0x01, 0x00, 0x00, 0x00, 0x10, 0x00, 0x00, 0x00,
  0x5a, 0xf1, 0xff, 0xff, 0x00, 0x00, 0x00, 0x01, 0x14, 0x00, 0x00, 0x00,
  0x34, 0x00, 0x00, 0x00, 0x16, 0x00, 0x00, 0x00, 0x00, 0x00, 0x00, 0x09,
  0xcc, 0x00, 0x00, 0x00, 0x44, 0xf1, 0xff, 0xff, 0x08, 0x00, 0x00, 0x00,
  0x14, 0x00, 0x00, 0x00, 0x01, 0x00, 0x00, 0x00, 0x80, 0xff, 0xff, 0xff,
  0xff, 0xff, 0xff, 0xff, 0x00, 0x00, 0x00, 0x00, 0x01, 0x00, 0x00, 0x00,
  0x3d, 0x45, 0x7c, 0x3d, 0x9d, 0x00, 0x00, 0x00, 0x73, 0x65, 0x71, 0x75,
  0x65, 0x6e, 0x74, 0x69, 0x61, 0x6c, 0x2f, 0x63, 0x6f, 0x6e, 0x76, 0x31,
  0x64, 0x5f, 0x31, 0x2f, 0x52, 0x65, 0x6c, 0x75, 0x3b, 0x73, 0x65, 0x71,
  0x75, 0x65, 0x6e, 0x74, 0x69, 0x61, 0x6c, 0x2f, 0x63, 0x6f, 0x6e, 0x76,
  0x31, 0x64, 0x5f, 0x31, 0x2f, 0x42, 0x69, 0x61, 0x73, 0x41, 0x64, 0x64,
  0x3b, 0x73, 0x65, 0x71, 0x75, 0x65, 0x6e, 0x74, 0x69, 0x61, 0x6c, 0x2f,
  0x63, 0x6f, 0x6e, 0x76, 0x31, 0x64, 0x5f, 0x31, 0x2f, 0x43, 0x6f, 0x6e,
  0x76, 0x31, 0x44, 0x2f, 0x53, 0x71, 0x75, 0x65, 0x65, 0x7a, 0x65, 0x3b,
  0x73, 0x65, 0x71, 0x75, 0x65, 0x6e, 0x74, 0x69, 0x61, 0x6c, 0x2f, 0x63,
  0x6f, 0x6e, 0x76, 0x31, 0x64, 0x5f, 0x31, 0x2f, 0x42, 0x69, 0x61, 0x73,
  0x41, 0x64, 0x64, 0x2f, 0x52, 0x65, 0x61, 0x64, 0x56, 0x61, 0x72, 0x69,
  0x61, 0x62, 0x6c, 0x65, 0x4f, 0x70, 0x3b, 0x73, 0x65, 0x71, 0x75, 0x65,
  0x6e, 0x74, 0x69, 0x61, 0x6c, 0x2f, 0x63, 0x6f, 0x6e, 0x76, 0x31, 0x64,
  0x5f, 0x31, 0x2f, 0x43, 0x6f, 0x6e, 0x76, 0x31, 0x44, 0x00, 0x00, 0x00,
  0x04, 0x00, 0x00, 0x00, 0x01, 0x00, 0x00, 0x00, 0x01, 0x00, 0x00, 0x00,
  0x19, 0x00, 0x00, 0x00, 0x10, 0x00, 0x00, 0x00, 0x52, 0xf2, 0xff, 0xff,
  0x00, 0x00, 0x00, 0x01, 0x14, 0x00, 0x00, 0x00, 0x34, 0x00, 0x00, 0x00,
  0x15, 0x00, 0x00, 0x00, 0x00, 0x00, 0x00, 0x09, 0x54, 0x00, 0x00, 0x00,
  0x3c, 0xf2, 0xff, 0xff, 0x08, 0x00, 0x00, 0x00, 0x14, 0x00, 0x00, 0x00,
  0x01, 0x00, 0x00, 0x00, 0x80, 0xff, 0xff, 0xff, 0xff, 0xff, 0xff, 0xff,
  0x00, 0x00, 0x00, 0x00, 0x01, 0x00, 0x00, 0x00, 0xec, 0x17, 0x3a, 0x3d,
  0x26, 0x00, 0x00, 0x00, 0x73, 0x65, 0x71, 0x75, 0x65, 0x6e, 0x74, 0x69,
  0x61, 0x6c, 0x2f, 0x63, 0x6f, 0x6e, 0x76, 0x31, 0x64, 0x5f, 0x31, 0x2f,
  0x43, 0x6f, 0x6e, 0x76, 0x31, 0x44, 0x2f, 0x45, 0x78, 0x70, 0x61, 0x6e,
  0x64, 0x44, 0x69, 0x6d, 0x73, 0x31, 0x00, 0x00, 0x04, 0x00, 0x00, 0x00,
  0x01, 0x00, 0x00, 0x00, 0x01, 0x00, 0x00, 0x00, 0x19, 0x00, 0x00, 0x00,
  0x20, 0x00, 0x00, 0x00, 0xd2, 0xf2, 0xff, 0xff, 0x00, 0x00, 0x00, 0x01,
  0x14, 0x00, 0x00, 0x00, 0x30, 0x00, 0x00, 0x00, 0x14, 0x00, 0x00, 0x00,
  0x00, 0x00, 0x00, 0x09, 0x4c, 0x00, 0x00, 0x00, 0xbc, 0xf2, 0xff, 0xff,
  0x08, 0x00, 0x00, 0x00, 0x10, 0x00, 0x00, 0x00, 0x01, 0x00, 0x00, 0x00,
  0x80, 0xff, 0xff, 0xff, 0xff, 0xff, 0xff, 0xff, 0x01, 0x00, 0x00, 0x00,
  0xec, 0x17, 0x3a, 0x3d, 0x20, 0x00, 0x00, 0x00, 0x73, 0x65, 0x71, 0x75,
  0x65, 0x6e, 0x74, 0x69, 0x61, 0x6c, 0x2f, 0x6d, 0x61, 0x78, 0x5f, 0x70,
  0x6f, 0x6f, 0x6c, 0x69, 0x6e, 0x67, 0x31, 0x64, 0x2f, 0x4d, 0x61, 0x78,
  0x50, 0x6f, 0x6f, 0x6c, 0x00, 0x00, 0x00, 0x00, 0x04, 0x00, 0x00, 0x00,
  0x01, 0x00, 0x00, 0x00, 0x19, 0x00, 0x00, 0x00, 0x01, 0x00, 0x00, 0x00,
  0x20, 0x00, 0x00, 0x00, 0x4a, 0xf3, 0xff, 0xff, 0x00, 0x00, 0x00, 0x01,
  0x14, 0x00, 0x00, 0x00, 0x34, 0x00, 0x00, 0x00, 0x13, 0x00, 0x00, 0x00,
  0x00, 0x00, 0x00, 0x09, 0x54, 0x00, 0x00, 0x00, 0x34, 0xf3, 0xff, 0xff,
  0x08, 0x00, 0x00, 0x00, 0x14, 0x00, 0x00, 0x00, 0x01, 0x00, 0x00, 0x00,
  0x80, 0xff, 0xff, 0xff, 0xff, 0xff, 0xff, 0xff, 0x00, 0x00, 0x00, 0x00,
  0x01, 0x00, 0x00, 0x00, 0xec, 0x17, 0x3a, 0x3d, 0x24, 0x00, 0x00, 0x00,
  0x73, 0x65, 0x71, 0x75, 0x65, 0x6e, 0x74, 0x69, 0x61, 0x6c, 0x2f, 0x6d,
  0x61, 0x78, 0x5f, 0x70, 0x6f, 0x6f, 0x6c, 0x69, 0x6e, 0x67, 0x31, 0x64,
  0x2f, 0x45, 0x78, 0x70, 0x61, 0x6e, 0x64, 0x44, 0x69, 0x6d, 0x73, 0x31,
  0x00, 0x00, 0x00, 0x00, 0x04, 0x00, 0x00, 0x00, 0x01, 0x00, 0x00, 0x00,
  0x32, 0x00, 0x00, 0x00, 0x01, 0x00, 0x00, 0x00, 0x20, 0x00, 0x00, 0x00,
  0xca, 0xf3, 0xff, 0xff, 0x00, 0x00, 0x00, 0x01, 0x14, 0x00, 0x00, 0x00,
  0x30, 0x00, 0x00, 0x00, 0x12, 0x00, 0x00, 0x00, 0x00, 0x00, 0x00, 0x09,
  0xbc, 0x00, 0x00, 0x00, 0xb4, 0xf3, 0xff, 0xff, 0x08, 0x00, 0x00, 0x00,
  0x10, 0x00, 0x00, 0x00, 0x01, 0x00, 0x00, 0x00, 0x80, 0xff, 0xff, 0xff,
  0xff, 0xff, 0xff, 0xff, 0x01, 0x00, 0x00, 0x00, 0xec, 0x17, 0x3a, 0x3d,
  0x93, 0x00, 0x00, 0x00, 0x73, 0x65, 0x71, 0x75, 0x65, 0x6e, 0x74, 0x69,
  0x61, 0x6c, 0x2f, 0x63, 0x6f, 0x6e, 0x76, 0x31, 0x64, 0x2f, 0x52, 0x65,
  0x6c, 0x75, 0x3b, 0x73, 0x65, 0x71, 0x75, 0x65, 0x6e, 0x74, 0x69, 0x61,
  0x6c, 0x2f, 0x63, 0x6f, 0x6e, 0x76, 0x31, 0x64, 0x2f, 0x42, 0x69, 0x61,
  0x73, 0x41, 0x64, 0x64, 0x3b, 0x73, 0x65, 0x71, 0x75, 0x65, 0x6e, 0x74,
  0x69, 0x61, 0x6c, 0x2f, 0x63, 0x6f, 0x6e, 0x76, 0x31, 0x64, 0x2f, 0x43,
  0x6f, 0x6e, 0x76, 0x31, 0x44, 0x2f, 0x53, 0x71, 0x75, 0x65, 0x65, 0x7a,
  0x65, 0x3b, 0x73, 0x65, 0x71, 0x75, 0x65, 0x6e, 0x74, 0x69, 0x61, 0x6c,
  0x2f, 0x63, 0x6f, 0x6e, 0x76, 0x31, 0x64, 0x2f, 0x42, 0x69, 0x61, 0x73,
  0x41, 0x64, 0x64, 0x2f, 0x52, 0x65, 0x61, 0x64, 0x56, 0x61, 0x72, 0x69,
  0x61, 0x62, 0x6c, 0x65, 0x4f, 0x70, 0x3b, 0x73, 0x65, 0x71, 0x75, 0x65,
  0x6e, 0x74, 0x69, 0x61, 0x6c, 0x2f, 0x63, 0x6f, 0x6e, 0x76, 0x31, 0x64,
  0x2f, 0x43, 0x6f, 0x6e, 0x76, 0x31, 0x44, 0x00, 0x04, 0x00, 0x00, 0x00,
  0x01, 0x00, 0x00, 0x00, 0x01, 0x00, 0x00, 0x00, 0x32, 0x00, 0x00, 0x00,
  0x20, 0x00, 0x00, 0x00, 0xb2, 0xf4, 0xff, 0xff, 0x00, 0x00, 0x00, 0x01,
  0x14, 0x00, 0x00, 0x00, 0x34, 0x00, 0x00, 0x00, 0x11, 0x00, 0x00, 0x00,
  0x00, 0x00, 0x00, 0x09, 0x54, 0x00, 0x00, 0x00, 0x9c, 0xf4, 0xff, 0xff,
  0x08, 0x00, 0x00, 0x00, 0x14, 0x00, 0x00, 0x00, 0x01, 0x00, 0x00, 0x00,
  0xf8, 0xff, 0xff, 0xff, 0xff, 0xff, 0xff, 0xff, 0x00, 0x00, 0x00, 0x00,
  0x01, 0x00, 0x00, 0x00, 0x44, 0xd3, 0x51, 0x3d, 0x24, 0x00, 0x00, 0x00,
  0x73, 0x65, 0x71, 0x75, 0x65, 0x6e, 0x74, 0x69, 0x61, 0x6c, 0x2f, 0x63,
  0x6f, 0x6e, 0x76, 0x31, 0x64, 0x2f, 0x43, 0x6f, 0x6e, 0x76, 0x31, 0x44,
  0x2f, 0x45, 0x78, 0x70, 0x61, 0x6e, 0x64, 0x44, 0x69, 0x6d, 0x73, 0x31,
  0x00, 0x00, 0x00, 0x00, 0x04, 0x00, 0x00, 0x00, 0x01, 0x00, 0x00, 0x00,
  0x01, 0x00, 0x00, 0x00, 0x32, 0x00, 0x00, 0x00, 0x0d, 0x00, 0x00, 0x00,
  0x32, 0xf5, 0xff, 0xff, 0x00, 0x00, 0x00, 0x01, 0x14, 0x00, 0x00, 0x00,
  0xa8, 0x01, 0x00, 0x00, 0x10, 0x00, 0x00, 0x00, 0x00, 0x00, 0x00, 0x09,
  0xbc, 0x01, 0x00, 0x00, 0x1c, 0xf5, 0xff, 0xff, 0x08, 0x00, 0x00, 0x00,
  0x0c, 0x01, 0x00, 0x00, 0x20, 0x00, 0x00, 0x00, 0x00, 0x00, 0x00, 0x00,
  0x00, 0x00, 0x00, 0x00, 0x00, 0x00, 0x00, 0x00, 0x00, 0x00, 0x00, 0x00,
  0x00, 0x00, 0x00, 0x00, 0x00, 0x00, 0x00, 0x00, 0x00, 0x00, 0x00, 0x00,
  0x00, 0x00, 0x00, 0x00, 0x00, 0x00, 0x00, 0x00, 0x00, 0x00, 0x00, 0x00,
  0x00, 0x00, 0x00, 0x00, 0x00, 0x00, 0x00, 0x00, 0x00, 0x00, 0x00, 0x00,
  0x00, 0x00, 0x00, 0x00, 0x00, 0x00, 0x00, 0x00, 0x00, 0x00, 0x00, 0x00,
  0x00, 0x00, 0x00, 0x00, 0x00, 0x00, 0x00, 0x00, 0x00, 0x00, 0x00, 0x00,
  0x00, 0x00, 0x00, 0x00, 0x00, 0x00, 0x00, 0x00, 0x00, 0x00, 0x00, 0x00,
  0x00, 0x00, 0x00, 0x00, 0x00, 0x00, 0x00, 0x00, 0x00, 0x00, 0x00, 0x00,
  0x00, 0x00, 0x00, 0x00, 0x00, 0x00, 0x00, 0x00, 0x00, 0x00, 0x00, 0x00,
  0x00, 0x00, 0x00, 0x00, 0x00, 0x00, 0x00, 0x00, 0x00, 0x00, 0x00, 0x00,
  0x00, 0x00, 0x00, 0x00, 0x00, 0x00, 0x00, 0x00, 0x00, 0x00, 0x00, 0x00,
  0x00, 0x00, 0x00, 0x00, 0x00, 0x00, 0x00, 0x00, 0x00, 0x00, 0x00, 0x00,
  0x00, 0x00, 0x00, 0x00, 0x00, 0x00, 0x00, 0x00, 0x00, 0x00, 0x00, 0x00,
  0x00, 0x00, 0x00, 0x00, 0x00, 0x00, 0x00, 0x00, 0x00, 0x00, 0x00, 0x00,
  0x00, 0x00, 0x00, 0x00, 0x00, 0x00, 0x00, 0x00, 0x00, 0x00, 0x00, 0x00,
  0x00, 0x00, 0x00, 0x00, 0x00, 0x00, 0x00, 0x00, 0x00, 0x00, 0x00, 0x00,
  0x00, 0x00, 0x00, 0x00, 0x00, 0x00, 0x00, 0x00, 0x00, 0x00, 0x00, 0x00,
  0x00, 0x00, 0x00, 0x00, 0x00, 0x00, 0x00, 0x00, 0x00, 0x00, 0x00, 0x00,
  0x00, 0x00, 0x00, 0x00, 0x00, 0x00, 0x00, 0x00, 0x00, 0x00, 0x00, 0x00,
  0x00, 0x00, 0x00, 0x00, 0x00, 0x00, 0x00, 0x00, 0x00, 0x00, 0x00, 0x00,
  0x00, 0x00, 0x00, 0x00, 0x00, 0x00, 0x00, 0x00, 0x00, 0x00, 0x00, 0x00,
  0x00, 0x00, 0x00, 0x00, 0x20, 0x00, 0x00, 0x00, 0xf0, 0x00, 0xe7, 0x3b,
  0x00, 0x03, 0x84, 0x3b, 0xd1, 0xd9, 0xdb, 0x3b, 0xc9, 0x5f, 0xac, 0x3b,
  0xfa, 0xa3, 0xd0, 0x3b, 0x66, 0x13, 0x98, 0x3b, 0x9d, 0xdd, 0x56, 0x3c,
  0x2b, 0x69, 0xaf, 0x3b, 0xa4, 0xb4, 0xff, 0x3b, 0x67, 0xcc, 0x28, 0x3c,
  0x49, 0xaa, 0x90, 0x3b, 0xb1, 0x42, 0xb2, 0x3b, 0x89, 0xcd, 0x9d, 0x3b,
  0xac, 0x71, 0xe8, 0x3b, 0x0c, 0xf5, 0x97, 0x3b, 0xa7, 0xfa, 0xaa, 0x3b,
  0xa0, 0x43, 0x66, 0x3c, 0xdb, 0xb4, 0x9b, 0x3b, 0x1a, 0x02, 0x8f, 0x3b,
  0x7d, 0xe1, 0x57, 0x3b, 0x58, 0x3e, 0xd5, 0x3b, 0x1e, 0xb4, 0xcd, 0x3b,
  0x23, 0x39, 0x1c, 0x3c, 0x6d, 0xd3, 0x94, 0x3b, 0x61, 0x5a, 0x83, 0x3b,
  0x29, 0x6b, 0x92, 0x3b, 0xa4, 0x94, 0x91, 0x3b, 0xeb, 0xb5, 0x06, 0x3c,
  0x9f, 0x52, 0x99, 0x3b, 0x70, 0x6d, 0x77, 0x3b, 0x4f, 0x5c, 0xd7, 0x3b,
  0x57, 0xf8, 0x9f, 0x3b, 0x18, 0x00, 0x00, 0x00, 0x73, 0x65, 0x71, 0x75,
  0x65, 0x6e, 0x74, 0x69, 0x61, 0x6c, 0x2f, 0x63, 0x6f, 0x6e, 0x76, 0x31,
  0x64, 0x2f, 0x43, 0x6f, 0x6e, 0x76, 0x31, 0x44, 0x00, 0x00, 0x00, 0x00,
  0x04, 0x00, 0x00, 0x00, 0x20, 0x00, 0x00, 0x00, 0x01, 0x00, 0x00, 0x00,
  0x03, 0x00, 0x00, 0x00, 0x0d, 0x00, 0x00, 0x00, 0x1a, 0xf7, 0xff, 0xff,
  0x00, 0x00, 0x00, 0x01, 0x14, 0x00, 0x00, 0x00, 0xa4, 0x01, 0x00, 0x00,
  0x0f, 0x00, 0x00, 0x00, 0x00, 0x00, 0x00, 0x02, 0xc8, 0x01, 0x00, 0x00,
  0x04, 0xf7, 0xff, 0xff, 0x08, 0x00, 0x00, 0x00, 0x08, 0x01, 0x00, 0x00,
  0x20, 0x00, 0x00, 0x00, 0x00, 0x00, 0x00, 0x00, 0x00, 0x00, 0x00, 0x00,
  0x00, 0x00, 0x00, 0x00, 0x00, 0x00, 0x00, 0x00, 0x00, 0x00, 0x00, 0x00,
  0x00, 0x00, 0x00, 0x00, 0x00, 0x00, 0x00, 0x00, 0x00, 0x00, 0x00, 0x00,
  0x00, 0x00, 0x00, 0x00, 0x00, 0x00, 0x00, 0x00, 0x00, 0x00, 0x00, 0x00,
  0x00, 0x00, 0x00, 0x00, 0x00, 0x00, 0x00, 0x00, 0x00, 0x00, 0x00, 0x00,
  0x00, 0x00, 0x00, 0x00, 0x00, 0x00, 0x00, 0x00, 0x00, 0x00, 0x00, 0x00,
  0x00, 0x00, 0x00, 0x00, 0x00, 0x00, 0x00, 0x00, 0x00, 0x00, 0x00, 0x00,
  0x00, 0x00, 0x00, 0x00, 0x00, 0x00, 0x00, 0x00, 0x00, 0x00, 0x00, 0x00,
  0x00, 0x00, 0x00, 0x00, 0x00, 0x00, 0x00, 0x00, 0x00, 0x00, 0x00, 0x00,
  0x00, 0x00, 0x00, 0x00, 0x00, 0x00, 0x00, 0x00, 0x00, 0x00, 0x00, 0x00,
  0x00, 0x00, 0x00, 0x00, 0x00, 0x00, 0x00, 0x00, 0x00, 0x00, 0x00, 0x00,
  0x00, 0x00, 0x00, 0x00, 0x00, 0x00, 0x00, 0x00, 0x00, 0x00, 0x00, 0x00,
  0x00, 0x00, 0x00, 0x00, 0x00, 0x00, 0x00, 0x00, 0x00, 0x00, 0x00, 0x00,
  0x00, 0x00, 0x00, 0x00, 0x00, 0x00, 0x00, 0x00, 0x00, 0x00, 0x00, 0x00,
  0x00, 0x00, 0x00, 0x00, 0x00, 0x00, 0x00, 0x00, 0x00, 0x00, 0x00, 0x00,
  0x00, 0x00, 0x00, 0x00, 0x00, 0x00, 0x00, 0x00, 0x00, 0x00, 0x00, 0x00,
  0x00, 0x00, 0x00, 0x00, 0x00, 0x00, 0x00, 0x00, 0x00, 0x00, 0x00, 0x00,
  0x00, 0x00, 0x00, 0x00, 0x00, 0x00, 0x00, 0x00, 0x00, 0x00, 0x00, 0x00,
  0x00, 0x00, 0x00, 0x00, 0x00, 0x00, 0x00, 0x00, 0x00, 0x00, 0x00, 0x00,
  0x00, 0x00, 0x00, 0x00, 0x00, 0x00, 0x00, 0x00, 0x00, 0x00, 0x00, 0x00,
  0x00, 0x00, 0x00, 0x00, 0x00, 0x00, 0x00, 0x00, 0x00, 0x00, 0x00, 0x00,
  0x00, 0x00, 0x00, 0x00, 0x00, 0x00, 0x00, 0x00, 0x20, 0x00, 0x00, 0x00,
  0x67, 0x56, 0xbd, 0x39, 0xc9, 0x66, 0x58, 0x39, 0x43, 0x32, 0xb4, 0x39,
  0x74, 0x48, 0x8d, 0x39, 0x0e, 0x02, 0xab, 0x39, 0xad, 0x4a, 0x79, 0x39,
  0x3f, 0x1c, 0x30, 0x3a, 0x9e, 0xc5, 0x8f, 0x39, 0x80, 0x95, 0xd1, 0x39,
  0x2d, 0x5a, 0x0a, 0x3a, 0xd1, 0x24, 0x6d, 0x39, 0x8f, 0x1b, 0x92, 0x39,
  0x07, 0x57, 0x81, 0x39, 0xa1, 0x84, 0xbe, 0x39, 0xec, 0x18, 0x79, 0x39,
  0xbc, 0x23, 0x8c, 0x39, 0x3d, 0xbb, 0x3c, 0x3a, 0x4c, 0x3e, 0x7f, 0x39,
  0x78, 0x6d, 0x6a, 0x39, 0x3f, 0xf1, 0x30, 0x39, 0xe1, 0xc7, 0xae, 0x39,
  0xcf, 0x99, 0xa8, 0x39, 0x92, 0x0b, 0x00, 0x3a, 0xdc, 0xf6, 0x73, 0x39,
  0x5f, 0x52, 0x57, 0x39, 0xa3, 0x04, 0x70, 0x39, 0xfc, 0xa4, 0x6e, 0x39,
  0x61, 0xd3, 0xdc, 0x39, 0xf7, 0x55, 0x7b, 0x39, 0x89, 0xcc, 0x4a, 0x39,
  0x17, 0x84, 0xb0, 0x39, 0xc3, 0x1d, 0x83, 0x39, 0x28, 0x00, 0x00, 0x00,
  0x73, 0x65, 0x71, 0x75, 0x65, 0x6e, 0x74, 0x69, 0x61, 0x6c, 0x2f, 0x63,
  0x6f, 0x6e, 0x76, 0x31, 0x64, 0x2f, 0x42, 0x69, 0x61, 0x73, 0x41, 0x64,
  0x64, 0x2f, 0x52, 0x65, 0x61, 0x64, 0x56, 0x61, 0x72, 0x69, 0x61, 0x62,
  0x6c, 0x65, 0x4f, 0x70, 0x00, 0x00, 0x00, 0x00, 0x01, 0x00, 0x00, 0x00,
  0x20, 0x00, 0x00, 0x00, 0x02, 0xf9, 0xff, 0xff, 0x00, 0x00, 0x00, 0x01,
  0x14, 0x00, 0x00, 0x00, 0xe8, 0x00, 0x00, 0x00, 0x0e, 0x00, 0x00, 0x00,
  0x00, 0x00, 0x00, 0x09, 0xfc, 0x00, 0x00, 0x00, 0xec, 0xf8, 0xff, 0xff,
  0x08, 0x00, 0x00, 0x00, 0x8c, 0x00, 0x00, 0x00, 0x10, 0x00, 0x00, 0x00,
  0x00, 0x00, 0x00, 0x00, 0x00, 0x00, 0x00, 0x00, 0x00, 0x00, 0x00, 0x00,
  0x00, 0x00, 0x00, 0x00, 0x00, 0x00, 0x00, 0x00, 0x00, 0x00, 0x00, 0x00,
  0x00, 0x00, 0x00, 0x00, 0x00, 0x00, 0x00, 0x00, 0x00, 0x00, 0x00, 0x00,
  0x00, 0x00, 0x00, 0x00, 0x00, 0x00, 0x00, 0x00, 0x00, 0x00, 0x00, 0x00,
  0x00, 0x00, 0x00, 0x00, 0x00, 0x00, 0x00, 0x00, 0x00, 0x00, 0x00, 0x00,
  0x00, 0x00, 0x00, 0x00, 0x00, 0x00, 0x00, 0x00, 0x00, 0x00, 0x00, 0x00,
  0x00, 0x00, 0x00, 0x00, 0x00, 0x00, 0x00, 0x00, 0x00, 0x00, 0x00, 0x00,
  0x00, 0x00, 0x00, 0x00, 0x00, 0x00, 0x00, 0x00, 0x00, 0x00, 0x00, 0x00,
  0x00, 0x00, 0x00, 0x00, 0x00, 0x00, 0x00, 0x00, 0x00, 0x00, 0x00, 0x00,
  0x00, 0x00, 0x00, 0x00, 0x00, 0x00, 0x00, 0x00, 0x00, 0x00, 0x00, 0x00,
  0x00, 0x00, 0x00, 0x00, 0x00, 0x00, 0x00, 0x00, 0x00, 0x00, 0x00, 0x00,
  0x10, 0x00, 0x00, 0x00, 0xee, 0x3a, 0x96, 0x3b, 0xf1, 0x8e, 0xb5, 0x3b,
  0x18, 0x3a, 0xbb, 0x3b, 0xbc, 0x0a, 0xd4, 0x3b, 0x48, 0x55, 0x09, 0x3c,
  0xf9, 0x22, 0x61, 0x3b, 0xca, 0xff, 0x9c, 0x3b, 0xf0, 0xf4, 0xee, 0x3b,
  0x8a, 0x97, 0xed, 0x3b, 0x17, 0x7f, 0xb6, 0x3b, 0xf4, 0x5d, 0xf9, 0x3b,
  0xc9, 0xf3, 0x01, 0x3c, 0xef, 0x92, 0xa2, 0x3b, 0x50, 0x3e, 0x32, 0x3c,
  0x7f, 0xc6, 0xa6, 0x3b, 0x8c, 0x20, 0xdc, 0x3b, 0x1a, 0x00, 0x00, 0x00,
  0x73, 0x65, 0x71, 0x75, 0x65, 0x6e, 0x74, 0x69, 0x61, 0x6c, 0x2f, 0x63,
  0x6f, 0x6e, 0x76, 0x31, 0x64, 0x5f, 0x31, 0x2f, 0x43, 0x6f, 0x6e, 0x76,
  0x31, 0x44, 0x00, 0x00, 0x04, 0x00, 0x00, 0x00, 0x10, 0x00, 0x00, 0x00,
  0x01, 0x00, 0x00, 0x00, 0x03, 0x00, 0x00, 0x00, 0x20, 0x00, 0x00, 0x00,
  0x2a, 0xfa, 0xff, 0xff, 0x00, 0x00, 0x00, 0x01, 0x14, 0x00, 0x00, 0x00,
  0xe4, 0x00, 0x00, 0x00, 0x0d, 0x00, 0x00, 0x00, 0x00, 0x00, 0x00, 0x02,
  0x08, 0x01, 0x00, 0x00, 0x14, 0xfa, 0xff, 0xff, 0x08, 0x00, 0x00, 0x00,
  0x88, 0x00, 0x00, 0x00, 0x10, 0x00, 0x00, 0x00, 0x00, 0x00, 0x00, 0x00,
  0x00, 0x00, 0x00, 0x00, 0x00, 0x00, 0x00, 0x00, 0x00, 0x00, 0x00, 0x00,
  0x00, 0x00, 0x00, 0x00, 0x00, 0x00, 0x00, 0x00, 0x00, 0x00, 0x00, 0x00,
  0x00, 0x00, 0x00, 0x00, 0x00, 0x00, 0x00, 0x00, 0x00, 0x00, 0x00, 0x00,
  0x00, 0x00, 0x00, 0x00, 0x00, 0x00, 0x00, 0x00, 0x00, 0x00, 0x00, 0x00,
  0x00, 0x00, 0x00, 0x00, 0x00, 0x00, 0x00, 0x00, 0x00, 0x00, 0x00, 0x00,
  0x00, 0x00, 0x00, 0x00, 0x00, 0x00, 0x00, 0x00, 0x00, 0x00, 0x00, 0x00,
  0x00, 0x00, 0x00, 0x00, 0x00, 0x00, 0x00, 0x00, 0x00, 0x00, 0x00, 0x00,
  0x00, 0x00, 0x00, 0x00, 0x00, 0x00, 0x00, 0x00, 0x00, 0x00, 0x00, 0x00,
  0x00, 0x00, 0x00, 0x00, 0x00, 0x00, 0x00, 0x00, 0x00, 0x00, 0x00, 0x00,
  0x00, 0x00, 0x00, 0x00, 0x00, 0x00, 0x00, 0x00, 0x00, 0x00, 0x00, 0x00,
  0x00, 0x00, 0x00, 0x00, 0x10, 0x00, 0x00, 0x00, 0xb5, 0x69, 0x5a, 0x39,
  0xd2, 0xfa, 0x83, 0x39, 0xb4, 0x19, 0x88, 0x39, 0x9d, 0x23, 0x9a, 0x39,
  0x97, 0xa9, 0xc7, 0x39, 0x73, 0xa8, 0x23, 0x39, 0x09, 0x41, 0x64, 0x39,
  0x4b, 0xb4, 0xad, 0x39, 0x4e, 0xb6, 0xac, 0x39, 0x64, 0xa9, 0x84, 0x39,
  0x91, 0x45, 0xb5, 0x39, 0x89, 0xee, 0xbc, 0x39, 0xe5, 0x5b, 0x6c, 0x39,
  0xee, 0x91, 0x01, 0x3a, 0x9c, 0x77, 0x72, 0x39, 0x38, 0x04, 0xa0, 0x39,
  0x2a, 0x00, 0x00, 0x00, 0x73, 0x65, 0x71, 0x75, 0x65, 0x6e, 0x74, 0x69,
  0x61, 0x6c, 0x2f, 0x63, 0x6f, 0x6e, 0x76, 0x31, 0x64, 0x5f, 0x31, 0x2f,
  0x42, 0x69, 0x61, 0x73, 0x41, 0x64, 0x64, 0x2f, 0x52, 0x65, 0x61, 0x64,
  0x56, 0x61, 0x72, 0x69, 0x61, 0x62, 0x6c, 0x65, 0x4f, 0x70, 0x00, 0x00,
  0x01, 0x00, 0x00, 0x00, 0x10, 0x00, 0x00, 0x00, 0x52, 0xfb, 0xff, 0xff,
  0x00, 0x00, 0x00, 0x01, 0x14, 0x00, 0x00, 0x00, 0x88, 0x00, 0x00, 0x00,
  0x0c, 0x00, 0x00, 0x00, 0x00, 0x00, 0x00, 0x09, 0x9c, 0x00, 0x00, 0x00,
  0x3c, 0xfb, 0xff, 0xff, 0x08, 0x00, 0x00, 0x00, 0x4c, 0x00, 0x00, 0x00,
  0x08, 0x00, 0x00, 0x00, 0x00, 0x00, 0x00, 0x00, 0x00, 0x00, 0x00, 0x00,
  0x00, 0x00, 0x00, 0x00, 0x00, 0x00, 0x00, 0x00, 0x00, 0x00, 0x00, 0x00,
  0x00, 0x00, 0x00, 0x00, 0x00, 0x00, 0x00, 0x00, 0x00, 0x00, 0x00, 0x00,
  0x00, 0x00, 0x00, 0x00, 0x00, 0x00, 0x00, 0x00, 0x00, 0x00, 0x00, 0x00,
  0x00, 0x00, 0x00, 0x00, 0x00, 0x00, 0x00, 0x00, 0x00, 0x00, 0x00, 0x00,
  0x00, 0x00, 0x00, 0x00, 0x00, 0x00, 0x00, 0x00, 0x00, 0x00, 0x00, 0x00,
  0x08, 0x00, 0x00, 0x00, 0xc7, 0x73, 0x95, 0x3b, 0xe6, 0x2e, 0xa9, 0x3b,
  0x0d, 0xee, 0xaf, 0x3b, 0xb3, 0x0f, 0xca, 0x3b, 0xaa, 0x91, 0x97, 0x3b,
  0x4f, 0x51, 0xb6, 0x3b, 0xe4, 0x04, 0xf0, 0x3b, 0xfb, 0x3e, 0xe7, 0x3b,
  0x1a, 0x00, 0x00, 0x00, 0x73, 0x65, 0x71, 0x75, 0x65, 0x6e, 0x74, 0x69,
  0x61, 0x6c, 0x2f, 0x63, 0x6f, 0x6e, 0x76, 0x31, 0x64, 0x5f, 0x32, 0x2f,
  0x43, 0x6f, 0x6e, 0x76, 0x31, 0x44, 0x00, 0x00, 0x04, 0x00, 0x00, 0x00,
  0x08, 0x00, 0x00, 0x00, 0x01, 0x00, 0x00, 0x00, 0x03, 0x00, 0x00, 0x00,
  0x10, 0x00, 0x00, 0x00, 0x1a, 0xfc, 0xff, 0xff, 0x00, 0x00, 0x00, 0x01,
  0x14, 0x00, 0x00, 0x00, 0x84, 0x00, 0x00, 0x00, 0x0b, 0x00, 0x00, 0x00,
  0x00, 0x00, 0x00, 0x02, 0xa8, 0x00, 0x00, 0x00, 0x04, 0xfc, 0xff, 0xff,
  0x08, 0x00, 0x00, 0x00, 0x48, 0x00, 0x00, 0x00, 0x08, 0x00, 0x00, 0x00,
  0x00, 0x00, 0x00, 0x00, 0x00, 0x00, 0x00, 0x00, 0x00, 0x00, 0x00, 0x00,
  0x00, 0x00, 0x00, 0x00, 0x00, 0x00, 0x00, 0x00, 0x00, 0x00, 0x00, 0x00,
  0x00, 0x00, 0x00, 0x00, 0x00, 0x00, 0x00, 0x00, 0x00, 0x00, 0x00, 0x00,
  0x00, 0x00, 0x00, 0x00, 0x00, 0x00, 0x00, 0x00, 0x00, 0x00, 0x00, 0x00,
  0x00, 0x00, 0x00, 0x00, 0x00, 0x00, 0x00, 0x00, 0x00, 0x00, 0x00, 0x00,
  0x00, 0x00, 0x00, 0x00, 0x08, 0x00, 0x00, 0x00, 0x64, 0x46, 0x93, 0x39,
  0xec, 0xb7, 0xa6, 0x39, 0xea, 0x5d, 0xad, 0x39, 0x1b, 0x1e, 0xc7, 0x39,
  0x62, 0x5c, 0x95, 0x39, 0x59, 0xa9, 0xb3, 0x39, 0xbb, 0x85, 0xec, 0x39,
  0x8a, 0xe0, 0xe3, 0x39, 0x2a, 0x00, 0x00, 0x00, 0x73, 0x65, 0x71, 0x75,
  0x65, 0x6e, 0x74, 0x69, 0x61, 0x6c, 0x2f, 0x63, 0x6f, 0x6e, 0x76, 0x31,
  0x64, 0x5f, 0x32, 0x2f, 0x42, 0x69, 0x61, 0x73, 0x41, 0x64, 0x64, 0x2f,
  0x52, 0x65, 0x61, 0x64, 0x56, 0x61, 0x72, 0x69, 0x61, 0x62, 0x6c, 0x65,
  0x4f, 0x70, 0x00, 0x00, 0x01, 0x00, 0x00, 0x00, 0x08, 0x00, 0x00, 0x00,
  0xe2, 0xfc, 0xff, 0xff, 0x00, 0x00, 0x00, 0x01, 0x14, 0x00, 0x00, 0x00,
  0x30, 0x00, 0x00, 0x00, 0x0a, 0x00, 0x00, 0x00, 0x00, 0x00, 0x00, 0x09,
  0x44, 0x00, 0x00, 0x00, 0xcc, 0xfc, 0xff, 0xff, 0x08, 0x00, 0x00, 0x00,
  0x10, 0x00, 0x00, 0x00, 0x01, 0x00, 0x00, 0x00, 0x00, 0x00, 0x00, 0x00,
  0x00, 0x00, 0x00, 0x00, 0x01, 0x00, 0x00, 0x00, 0xa0, 0xa3, 0xbf, 0x3b,
  0x18, 0x00, 0x00, 0x00, 0x73, 0x65, 0x71, 0x75, 0x65, 0x6e, 0x74, 0x69,
  0x61, 0x6c, 0x2f, 0x79, 0x5f, 0x70, 0x72, 0x65, 0x64, 0x2f, 0x4d, 0x61,
  0x74, 0x4d, 0x75, 0x6c, 0x00, 0x00, 0x00, 0x00, 0x02, 0x00, 0x00, 0x00,
  0x04, 0x00, 0x00, 0x00, 0x38, 0x00, 0x00, 0x00, 0x4a, 0xfd, 0xff, 0xff,
  0x00, 0x00, 0x00, 0x01, 0x14, 0x00, 0x00, 0x00, 0x34, 0x00, 0x00, 0x00,
  0x09, 0x00, 0x00, 0x00, 0x00, 0x00, 0x00, 0x02, 0x58, 0x00, 0x00, 0x00,
  0x34, 0xfd, 0xff, 0xff, 0x08, 0x00, 0x00, 0x00, 0x14, 0x00, 0x00, 0x00,
  0x01, 0x00, 0x00, 0x00, 0x00, 0x00, 0x00, 0x00, 0x00, 0x00, 0x00, 0x00,
  0x00, 0x00, 0x00, 0x00, 0x01, 0x00, 0x00, 0x00, 0xf2, 0xd8, 0xd1, 0x39,
  0x28, 0x00, 0x00, 0x00, 0x73, 0x65, 0x71, 0x75, 0x65, 0x6e, 0x74, 0x69,
  0x61, 0x6c, 0x2f, 0x79, 0x5f, 0x70, 0x72, 0x65, 0x64, 0x2f, 0x42, 0x69,
  0x61, 0x73, 0x41, 0x64, 0x64, 0x2f, 0x52, 0x65, 0x61, 0x64, 0x56, 0x61,
  0x72, 0x69, 0x61, 0x62, 0x6c, 0x65, 0x4f, 0x70, 0x00, 0x00, 0x00, 0x00,
  0x01, 0x00, 0x00, 0x00, 0x04, 0x00, 0x00, 0x00, 0xc2, 0xfd, 0xff, 0xff,
  0x00, 0x00, 0x00, 0x01, 0x14, 0x00, 0x00, 0x00, 0x14, 0x00, 0x00, 0x00,
  0x08, 0x00, 0x00, 0x00, 0x00, 0x00, 0x00, 0x02, 0x28, 0x00, 0x00, 0x00,
  0x18, 0xfe, 0xff, 0xff, 0x18, 0x00, 0x00, 0x00, 0x73, 0x65, 0x71, 0x75,
  0x65, 0x6e, 0x74, 0x69, 0x61, 0x6c, 0x2f, 0x66, 0x6c, 0x61, 0x74, 0x74,
  0x65, 0x6e, 0x2f, 0x43, 0x6f, 0x6e, 0x73, 0x74, 0x00, 0x00, 0x00, 0x00,
  0x01, 0x00, 0x00, 0x00, 0x02, 0x00, 0x00, 0x00, 0x0a, 0xfe, 0xff, 0xff,
  0x00, 0x00, 0x00, 0x01, 0x14, 0x00, 0x00, 0x00, 0x14, 0x00, 0x00, 0x00,
  0x07, 0x00, 0x00, 0x00, 0x00, 0x00, 0x00, 0x02, 0x34, 0x00, 0x00, 0x00,
  0x60, 0xfe, 0xff, 0xff, 0x25, 0x00, 0x00, 0x00, 0x73, 0x65, 0x71, 0x75,
  0x65, 0x6e, 0x74, 0x69, 0x61, 0x6c, 0x2f, 0x6d, 0x61, 0x78, 0x5f, 0x70,
  0x6f, 0x6f, 0x6c, 0x69, 0x6e, 0x67, 0x31, 0x64, 0x5f, 0x32, 0x2f, 0x45,
  0x78, 0x70, 0x61, 0x6e, 0x64, 0x44, 0x69, 0x6d, 0x73, 0x00, 0x00, 0x00,
  0x01, 0x00, 0x00, 0x00, 0x04, 0x00, 0x00, 0x00, 0x5e, 0xfe, 0xff, 0xff,
  0x00, 0x00, 0x00, 0x01, 0x14, 0x00, 0x00, 0x00, 0x14, 0x00, 0x00, 0x00,
  0x06, 0x00, 0x00, 0x00, 0x00, 0x00, 0x00, 0x02, 0x34, 0x00, 0x00, 0x00,
  0xb4, 0xfe, 0xff, 0xff, 0x25, 0x00, 0x00, 0x00, 0x73, 0x65, 0x71, 0x75,
  0x65, 0x6e, 0x74, 0x69, 0x61, 0x6c, 0x2f, 0x63, 0x6f, 0x6e, 0x76, 0x31,
  0x64, 0x5f, 0x32, 0x2f, 0x43, 0x6f, 0x6e, 0x76, 0x31, 0x44, 0x2f, 0x45,
  0x78, 0x70, 0x61, 0x6e, 0x64, 0x44, 0x69, 0x6d, 0x73, 0x00, 0x00, 0x00,
  0x01, 0x00, 0x00, 0x00, 0x04, 0x00, 0x00, 0x00, 0xb2, 0xfe, 0xff, 0xff,
  0x00, 0x00, 0x00, 0x01, 0x14, 0x00, 0x00, 0x00, 0x14, 0x00, 0x00, 0x00,
  0x05, 0x00, 0x00, 0x00, 0x00, 0x00, 0x00, 0x02, 0x34, 0x00, 0x00, 0x00,
  0x08, 0xff, 0xff, 0xff, 0x25, 0x00, 0x00, 0x00, 0x73, 0x65, 0x71, 0x75,
  0x65, 0x6e, 0x74, 0x69, 0x61, 0x6c, 0x2f, 0x6d, 0x61, 0x78, 0x5f, 0x70,
  0x6f, 0x6f, 0x6c, 0x69, 0x6e, 0x67, 0x31, 0x64, 0x5f, 0x31, 0x2f, 0x45,
  0x78, 0x70, 0x61, 0x6e, 0x64, 0x44, 0x69, 0x6d, 0x73, 0x00, 0x00, 0x00,
  0x01, 0x00, 0x00, 0x00, 0x04, 0x00, 0x00, 0x00, 0x06, 0xff, 0xff, 0xff,
  0x00, 0x00, 0x00, 0x01, 0x14, 0x00, 0x00, 0x00, 0x14, 0x00, 0x00, 0x00,
  0x04, 0x00, 0x00, 0x00, 0x00, 0x00, 0x00, 0x02, 0x34, 0x00, 0x00, 0x00,
  0x5c, 0xff, 0xff, 0xff, 0x25, 0x00, 0x00, 0x00, 0x73, 0x65, 0x71, 0x75,
  0x65, 0x6e, 0x74, 0x69, 0x61, 0x6c, 0x2f, 0x63, 0x6f, 0x6e, 0x76, 0x31,
  0x64, 0x5f, 0x31, 0x2f, 0x43, 0x6f, 0x6e, 0x76, 0x31, 0x44, 0x2f, 0x45,
  0x78, 0x70, 0x61, 0x6e, 0x64, 0x44, 0x69, 0x6d, 0x73, 0x00, 0x00, 0x00,
  0x01, 0x00, 0x00, 0x00, 0x04, 0x00, 0x00, 0x00, 0x5a, 0xff, 0xff, 0xff,
  0x00, 0x00, 0x00, 0x01, 0x14, 0x00, 0x00, 0x00, 0x14, 0x00, 0x00, 0x00,
  0x03, 0x00, 0x00, 0x00, 0x00, 0x00, 0x00, 0x02, 0x30, 0x00, 0x00, 0x00,
  0xb0, 0xff, 0xff, 0xff, 0x23, 0x00, 0x00, 0x00, 0x73, 0x65, 0x71, 0x75,
  0x65, 0x6e, 0x74, 0x69, 0x61, 0x6c, 0x2f, 0x6d, 0x61, 0x78, 0x5f, 0x70,
  0x6f, 0x6f, 0x6c, 0x69, 0x6e, 0x67, 0x31, 0x64, 0x2f, 0x45, 0x78, 0x70,
  0x61, 0x6e, 0x64, 0x44, 0x69, 0x6d, 0x73, 0x00, 0x01, 0x00, 0x00, 0x00,
  0x04, 0x00, 0x00, 0x00, 0xaa, 0xff, 0xff, 0xff, 0x00, 0x00, 0x00, 0x01,
  0x18, 0x00, 0x00, 0x00, 0x18, 0x00, 0x00, 0x00, 0x02, 0x00, 0x00, 0x00,
  0x00, 0x00, 0x00, 0x02, 0x34, 0x00, 0x00, 0x00, 0x04, 0x00, 0x04, 0x00,
  0x04, 0x00, 0x00, 0x00, 0x23, 0x00, 0x00, 0x00, 0x73, 0x65, 0x71, 0x75,
  0x65, 0x6e, 0x74, 0x69, 0x61, 0x6c, 0x2f, 0x63, 0x6f, 0x6e, 0x76, 0x31,
  0x64, 0x2f, 0x43, 0x6f, 0x6e, 0x76, 0x31, 0x44, 0x2f, 0x45, 0x78, 0x70,
  0x61, 0x6e, 0x64, 0x44, 0x69, 0x6d, 0x73, 0x00, 0x01, 0x00, 0x00, 0x00,
  0x04, 0x00, 0x00, 0x00, 0x00, 0x00, 0x16, 0x00, 0x1c, 0x00, 0x18, 0x00,
  0x17, 0x00, 0x10, 0x00, 0x0c, 0x00, 0x08, 0x00, 0x00, 0x00, 0x00, 0x00,
  0x00, 0x00, 0x07, 0x00, 0x16, 0x00, 0x00, 0x00, 0x00, 0x00, 0x00, 0x01,
  0x20, 0x00, 0x00, 0x00, 0x3c, 0x00, 0x00, 0x00, 0x01, 0x00, 0x00, 0x00,
  0x00, 0x00, 0x00, 0x09, 0x48, 0x00, 0x00, 0x00, 0x0c, 0x00, 0x0c, 0x00,
  0x00, 0x00, 0x00, 0x00, 0x08, 0x00, 0x04, 0x00, 0x0c, 0x00, 0x00, 0x00,
  0x08, 0x00, 0x00, 0x00, 0x10, 0x00, 0x00, 0x00, 0x01, 0x00, 0x00, 0x00,
  0xf8, 0xff, 0xff, 0xff, 0xff, 0xff, 0xff, 0xff, 0x01, 0x00, 0x00, 0x00,
  0x44, 0xd3, 0x51, 0x3d, 0x13, 0x00, 0x00, 0x00, 0x73, 0x65, 0x72, 0x76,
  0x69, 0x6e, 0x67, 0x5f, 0x64, 0x65, 0x66, 0x61, 0x75, 0x6c, 0x74, 0x5f,
  0x78, 0x3a, 0x30, 0x00, 0x02, 0x00, 0x00, 0x00, 0x01, 0x00, 0x00, 0x00,
  0x8a, 0x02, 0x00, 0x00, 0x05, 0x00, 0x00, 0x00, 0x6c, 0x00, 0x00, 0x00,
  0x4c, 0x00, 0x00, 0x00, 0x2c, 0x00, 0x00, 0x00, 0x18, 0x00, 0x00, 0x00,
  0x04, 0x00, 0x00, 0x00, 0xd0, 0xff, 0xff, 0xff, 0x19, 0x00, 0x00, 0x00,
  0x02, 0x00, 0x00, 0x00, 0x00, 0x00, 0x00, 0x19, 0xe0, 0xff, 0xff, 0xff,
  0x09, 0x00, 0x00, 0x00, 0x04, 0x00, 0x00, 0x00, 0x00, 0x00, 0x00, 0x09,
  0xf0, 0xff, 0xff, 0xff, 0x11, 0x00, 0x00, 0x00, 0x02, 0x00, 0x00, 0x00,
  0x00, 0x00, 0x00, 0x11, 0x0c, 0x00, 0x10, 0x00, 0x0f, 0x00, 0x00, 0x00,
  0x08, 0x00, 0x04, 0x00, 0x0c, 0x00, 0x00, 0x00, 0x03, 0x00, 0x00, 0x00,
  0x03, 0x00, 0x00, 0x00, 0x00, 0x00, 0x00, 0x03, 0x0c, 0x00, 0x0c, 0x00,
  0x0b, 0x00, 0x00, 0x00, 0x00, 0x00, 0x04, 0x00, 0x0c, 0x00, 0x00, 0x00,
  0x16, 0x00, 0x00, 0x00, 0x00, 0x00, 0x00, 0x16
};
unsigned int tflite_learn_3_len = 10784;
#endif // _EI_CLASSIFIER_TFLITE_LEARN_3_H_
