/*
 * Copyright (c) 2025 EdgeImpulse Inc.
 *
 * Generated by Edge Impulse and licensed under the applicable Edge Impulse
 * Terms of Service. Community and Professional Terms of Service
 * (https://edgeimpulse.com/legal/terms-of-service) or Enterprise Terms of
 * Service (https://edgeimpulse.com/legal/enterprise-terms-of-service),
 * according to your product plan subscription (the “License”).
 *
 * This software, documentation and other associated files (collectively referred
 * to as the “Software”) is a single SDK variation generated by the Edge Impulse
 * platform and requires an active paid Edge Impulse subscription to use this
 * Software for any purpose.
 *
 * You may NOT use this Software unless you have an active Edge Impulse subscription
 * that meets the eligibility requirements for the applicable License, subject to
 * your full and continued compliance with the terms and conditions of the License,
 * including without limitation any usage restrictions under the applicable License.
 *
 * If you do not have an active Edge Impulse product plan subscription, or if use
 * of this Software exceeds the usage limitations of your Edge Impulse product plan
 * subscription, you are not permitted to use this Software and must immediately
 * delete and erase all copies of this Software within your control or possession.
 * Edge Impulse reserves all rights and remedies available to enforce its rights.
 *
 * Unless required by applicable law or agreed to in writing, the Software is
 * distributed on an "AS IS" BASIS, WITHOUT WARRANTIES OR CONDITIONS OF ANY KIND,
 * either express or implied. See the License for the specific language governing
 * permissions, disclaimers and limitations under the License.
 */

#ifndef _EI_CLASSIFIER_TFLITE_LEARN_3_H_
#define _EI_CLASSIFIER_TFLITE_LEARN_3_H_

#define EI_CLASSIFIER_TFLITE_LEARN_3_ARENA_SIZE     9817
const size_t tflite_learn_3_arena_size = 9817;

#if defined __GNUC__
#define ALIGN(X) __attribute__((aligned(X)))
#elif defined _MSC_VER
#define ALIGN(X) __declspec(align(X))
#elif defined __TASKING__
#define ALIGN(X) __align(X)
#else
#define ALIGN(X)
#endif

#if defined(EI_MODEL_SECTION) && (defined(__GNUC__) || defined(__clang__))
#define STRINGIZE(x) #x
#define STRINGIZE_VALUE_OF(x) STRINGIZE(x)
#define MODEL_SECTION(X) __attribute__((section(STRINGIZE_VALUE_OF(X))))
#else
#define MODEL_SECTION(X)
#endif


MODEL_SECTION(EI_MODEL_SECTION) ALIGN(16) const unsigned char tflite_learn_3[] = {
  0x20, 0x00, 0x00, 0x00, 0x54, 0x46, 0x4c, 0x33, 0x00, 0x00, 0x00, 0x00,
  0x14, 0x00, 0x20, 0x00, 0x1c, 0x00, 0x18, 0x00, 0x14, 0x00, 0x10, 0x00,
  0x0c, 0x00, 0x00, 0x00, 0x08, 0x00, 0x04, 0x00, 0x14, 0x00, 0x00, 0x00,
  0x1c, 0x00, 0x00, 0x00, 0x8c, 0x00, 0x00, 0x00, 0xe4, 0x00, 0x00, 0x00,
  0x7c, 0x11, 0x00, 0x00, 0x8c, 0x11, 0x00, 0x00, 0x6c, 0x29, 0x00, 0x00,
  0x03, 0x00, 0x00, 0x00, 0x01, 0x00, 0x00, 0x00, 0x10, 0x00, 0x00, 0x00,
  0x00, 0x00, 0x0a, 0x00, 0x10, 0x00, 0x0c, 0x00, 0x08, 0x00, 0x04, 0x00,
  0x0a, 0x00, 0x00, 0x00, 0x0c, 0x00, 0x00, 0x00, 0x1c, 0x00, 0x00, 0x00,
  0x3c, 0x00, 0x00, 0x00, 0x0f, 0x00, 0x00, 0x00, 0x73, 0x65, 0x72, 0x76,
  0x69, 0x6e, 0x67, 0x5f, 0x64, 0x65, 0x66, 0x61, 0x75, 0x6c, 0x74, 0x00,
  0x01, 0x00, 0x00, 0x00, 0x04, 0x00, 0x00, 0x00, 0x9c, 0xff, 0xff, 0xff,
  0x1e, 0x00, 0x00, 0x00, 0x04, 0x00, 0x00, 0x00, 0x08, 0x00, 0x00, 0x00,
  0x6f, 0x75, 0x74, 0x70, 0x75, 0x74, 0x5f, 0x30, 0x00, 0x00, 0x00, 0x00,
  0x01, 0x00, 0x00, 0x00, 0x04, 0x00, 0x00, 0x00, 0x4e, 0xee, 0xff, 0xff,
  0x04, 0x00, 0x00, 0x00, 0x01, 0x00, 0x00, 0x00, 0x78, 0x00, 0x00, 0x00,
  0x02, 0x00, 0x00, 0x00, 0x34, 0x00, 0x00, 0x00, 0x04, 0x00, 0x00, 0x00,
  0xdc, 0xff, 0xff, 0xff, 0x21, 0x00, 0x00, 0x00, 0x04, 0x00, 0x00, 0x00,
  0x13, 0x00, 0x00, 0x00, 0x43, 0x4f, 0x4e, 0x56, 0x45, 0x52, 0x53, 0x49,
  0x4f, 0x4e, 0x5f, 0x4d, 0x45, 0x54, 0x41, 0x44, 0x41, 0x54, 0x41, 0x00,
  0x08, 0x00, 0x0c, 0x00, 0x08, 0x00, 0x04, 0x00, 0x08, 0x00, 0x00, 0x00,
  0x20, 0x00, 0x00, 0x00, 0x04, 0x00, 0x00, 0x00, 0x13, 0x00, 0x00, 0x00,
  0x6d, 0x69, 0x6e, 0x5f, 0x72, 0x75, 0x6e, 0x74, 0x69, 0x6d, 0x65, 0x5f,
  0x76, 0x65, 0x72, 0x73, 0x69, 0x6f, 0x6e, 0x00, 0x22, 0x00, 0x00, 0x00,
  0x94, 0x10, 0x00, 0x00, 0x8c, 0x10, 0x00, 0x00, 0x6c, 0x10, 0x00, 0x00,
  0x4c, 0x10, 0x00, 0x00, 0x2c, 0x10, 0x00, 0x00, 0x0c, 0x10, 0x00, 0x00,
  0xec, 0x0f, 0x00, 0x00, 0xcc, 0x0f, 0x00, 0x00, 0xb4, 0x0f, 0x00, 0x00,
  0x94, 0x0f, 0x00, 0x00, 0xa4, 0x0e, 0x00, 0x00, 0x74, 0x0e, 0x00, 0x00,
  0xe4, 0x0c, 0x00, 0x00, 0x94, 0x0c, 0x00, 0x00, 0x84, 0x06, 0x00, 0x00,
  0xf4, 0x05, 0x00, 0x00, 0x04, 0x01, 0x00, 0x00, 0xfc, 0x00, 0x00, 0x00,
  0xf4, 0x00, 0x00, 0x00, 0xec, 0x00, 0x00, 0x00, 0xe4, 0x00, 0x00, 0x00,
  0xdc, 0x00, 0x00, 0x00, 0xd4, 0x00, 0x00, 0x00, 0xcc, 0x00, 0x00, 0x00,
  0xc4, 0x00, 0x00, 0x00, 0xbc, 0x00, 0x00, 0x00, 0xb4, 0x00, 0x00, 0x00,
  0xac, 0x00, 0x00, 0x00, 0xa4, 0x00, 0x00, 0x00, 0x9c, 0x00, 0x00, 0x00,
  0x94, 0x00, 0x00, 0x00, 0x8c, 0x00, 0x00, 0x00, 0x6c, 0x00, 0x00, 0x00,
  0x04, 0x00, 0x00, 0x00, 0x46, 0xef, 0xff, 0xff, 0x04, 0x00, 0x00, 0x00,
  0x58, 0x00, 0x00, 0x00, 0x0c, 0x00, 0x00, 0x00, 0x08, 0x00, 0x0e, 0x00,
  0x08, 0x00, 0x04, 0x00, 0x08, 0x00, 0x00, 0x00, 0x10, 0x00, 0x00, 0x00,
  0x28, 0x00, 0x00, 0x00, 0x00, 0x00, 0x06, 0x00, 0x08, 0x00, 0x04, 0x00,
  0x06, 0x00, 0x00, 0x00, 0x04, 0x00, 0x00, 0x00, 0x01, 0x00, 0x00, 0x00,
  0xeb, 0x03, 0x00, 0x00, 0x00, 0x00, 0x0a, 0x00, 0x10, 0x00, 0x0c, 0x00,
  0x08, 0x00, 0x04, 0x00, 0x0a, 0x00, 0x00, 0x00, 0x03, 0x00, 0x00, 0x00,
  0x02, 0x00, 0x00, 0x00, 0x04, 0x00, 0x00, 0x00, 0x06, 0x00, 0x00, 0x00,
  0x32, 0x2e, 0x31, 0x31, 0x2e, 0x31, 0x00, 0x00, 0xaa, 0xef, 0xff, 0xff,
  0x04, 0x00, 0x00, 0x00, 0x10, 0x00, 0x00, 0x00, 0x31, 0x2e, 0x31, 0x34,
  0x2e, 0x30, 0x00, 0x00, 0x00, 0x00, 0x00, 0x00, 0x00, 0x00, 0x00, 0x00,
  0x34, 0xd9, 0xff, 0xff, 0x38, 0xd9, 0xff, 0xff, 0x3c, 0xd9, 0xff, 0xff,
  0x40, 0xd9, 0xff, 0xff, 0x44, 0xd9, 0xff, 0xff, 0x48, 0xd9, 0xff, 0xff,
  0x4c, 0xd9, 0xff, 0xff, 0x50, 0xd9, 0xff, 0xff, 0x54, 0xd9, 0xff, 0xff,
  0x58, 0xd9, 0xff, 0xff, 0x5c, 0xd9, 0xff, 0xff, 0x60, 0xd9, 0xff, 0xff,
  0x64, 0xd9, 0xff, 0xff, 0x68, 0xd9, 0xff, 0xff, 0x6c, 0xd9, 0xff, 0xff,
  0x02, 0xf0, 0xff, 0xff, 0x04, 0x00, 0x00, 0x00, 0xe0, 0x04, 0x00, 0x00,
  0x0f, 0x5c, 0x19, 0xca, 0x21, 0xf4, 0xe8, 0x0b, 0xfb, 0xfc, 0x1d, 0x13,
  0x2a, 0x81, 0x61, 0xd8, 0xd8, 0x4f, 0xef, 0x19, 0x07, 0x05, 0xed, 0xe4,
  0xfa, 0xe3, 0xce, 0x03, 0x07, 0xb7, 0xec, 0x21, 0x0c, 0xdd, 0xc8, 0xf4,
  0x07, 0xfa, 0x06, 0x81, 0xcd, 0xf8, 0x20, 0x0a, 0x06, 0xf0, 0xda, 0xdf,
  0x02, 0x09, 0xfa, 0x03, 0x30, 0x1e, 0x04, 0xc5, 0xe9, 0xf1, 0xfa, 0xf6,
  0xf8, 0xee, 0x05, 0x16, 0x05, 0x19, 0x12, 0xea, 0xfa, 0xef, 0x15, 0xfd,
  0x19, 0xfe, 0xfc, 0x08, 0xfa, 0xfd, 0x02, 0x25, 0xfb, 0x21, 0x30, 0x6c,
  0x4f, 0x18, 0x0d, 0xf1, 0x07, 0x10, 0xf0, 0xa4, 0xb0, 0x1e, 0xbc, 0x81,
  0x94, 0x9a, 0xd0, 0xf6, 0x20, 0x14, 0x13, 0xe7, 0xff, 0xf6, 0xf4, 0x02,
  0x2b, 0xf6, 0x48, 0x40, 0x12, 0xfc, 0xd2, 0xd4, 0x32, 0x92, 0xd7, 0x0a,
  0x0b, 0xff, 0x29, 0x04, 0x03, 0xee, 0xf2, 0x06, 0x13, 0xfc, 0x81, 0x28,
  0x20, 0x0d, 0x25, 0x05, 0xf2, 0xf4, 0x09, 0x0b, 0x07, 0x17, 0xfb, 0xc5,
  0x38, 0xec, 0x1d, 0x13, 0x04, 0xfa, 0x01, 0x19, 0x0c, 0xfb, 0xf7, 0xe1,
  0x0f, 0xdf, 0xe6, 0xf5, 0xfc, 0x06, 0xe3, 0x36, 0xae, 0x14, 0x51, 0xec,
  0xd6, 0xd2, 0xd5, 0x24, 0xcf, 0x03, 0xfd, 0xec, 0x15, 0xdb, 0xc5, 0x73,
  0xcc, 0x29, 0x0f, 0xdb, 0xe8, 0x19, 0xf8, 0x13, 0xad, 0x65, 0x81, 0x5b,
  0x00, 0xf2, 0xe2, 0xee, 0x01, 0x0e, 0x18, 0xde, 0xbb, 0x17, 0xd4, 0xaf,
  0xa4, 0xe0, 0x18, 0x30, 0xc7, 0xdc, 0x54, 0x0a, 0x4b, 0xde, 0x33, 0x1c,
  0xfe, 0x05, 0x56, 0x06, 0xfa, 0xea, 0xb5, 0xc6, 0xc8, 0x23, 0x7f, 0x51,
  0x16, 0xc7, 0xf1, 0xf4, 0xe1, 0xf5, 0x5b, 0xf1, 0xff, 0x04, 0x13, 0x14,
  0x0a, 0x09, 0xf7, 0xe4, 0xf1, 0xf0, 0xfe, 0x81, 0xf0, 0xeb, 0xf9, 0xf3,
  0x03, 0xf6, 0x0a, 0x01, 0x0a, 0x0b, 0xf7, 0x09, 0xfb, 0xfd, 0x1c, 0x0a,
  0xf3, 0xf1, 0xe7, 0xec, 0x03, 0x0b, 0x0c, 0x1b, 0x01, 0x06, 0x42, 0x1a,
  0xf6, 0x27, 0xe7, 0x01, 0x4a, 0x38, 0x0e, 0x0a, 0x08, 0xf0, 0xd9, 0xb0,
  0xf4, 0xa3, 0x3d, 0x1a, 0x20, 0x37, 0xf4, 0x49, 0x25, 0x22, 0xf3, 0xa3,
  0x81, 0xcd, 0xd6, 0xed, 0xd9, 0x2b, 0x1d, 0xff, 0x37, 0xd0, 0xe9, 0x24,
  0x17, 0xd2, 0x62, 0xfa, 0xa1, 0xf5, 0xd8, 0x00, 0xfe, 0xa6, 0x15, 0x55,
  0x81, 0x40, 0x07, 0x12, 0x3a, 0x99, 0x38, 0xa5, 0x2b, 0xe5, 0xfe, 0x17,
  0x49, 0x97, 0x38, 0x41, 0x1e, 0xe1, 0x93, 0x29, 0xb9, 0x58, 0xe9, 0x96,
  0x2f, 0x1d, 0xd1, 0xa0, 0x3f, 0xfb, 0x02, 0xff, 0x11, 0x0c, 0x00, 0x00,
  0xf3, 0x07, 0xf9, 0x05, 0xb9, 0x00, 0x09, 0x0b, 0x02, 0x01, 0xfe, 0xf7,
  0xff, 0x09, 0x03, 0xfd, 0x07, 0x7f, 0xca, 0xf6, 0xf6, 0xf9, 0xff, 0xf9,
  0x07, 0xf8, 0xfb, 0xf1, 0x0f, 0x0b, 0xfc, 0x8f, 0x2e, 0xb9, 0x08, 0x1f,
  0x23, 0xc6, 0x37, 0xee, 0xe0, 0x2e, 0x61, 0xfd, 0x1f, 0x1b, 0x1f, 0x08,
  0x2d, 0x21, 0x08, 0xf0, 0xca, 0xeb, 0x5f, 0xe6, 0x0e, 0x54, 0xb6, 0x2e,
  0x77, 0x61, 0x2f, 0x04, 0x29, 0x11, 0xdd, 0x7f, 0xfc, 0x8b, 0xe1, 0xcd,
  0x18, 0xdc, 0x12, 0xff, 0x67, 0x4a, 0xf8, 0xf9, 0x08, 0x1f, 0x88, 0xd5,
  0xf7, 0xf3, 0xeb, 0xe9, 0xb9, 0xa7, 0xd7, 0xc6, 0xfb, 0xf9, 0xaa, 0x1c,
  0x81, 0x09, 0xd4, 0xd8, 0xd2, 0x12, 0xd5, 0x01, 0x4c, 0x25, 0x2b, 0x09,
  0x34, 0xd3, 0xdd, 0xe4, 0xee, 0xc9, 0xe9, 0x14, 0xdb, 0xf3, 0x28, 0xcb,
  0x44, 0xeb, 0xca, 0x38, 0xc9, 0x21, 0xc2, 0x18, 0xad, 0x3d, 0xdb, 0x14,
  0xba, 0x37, 0x02, 0x4b, 0xc2, 0x01, 0x1f, 0xc6, 0x0f, 0xcb, 0x7f, 0x96,
  0x13, 0x9b, 0x3c, 0xf2, 0xc3, 0x36, 0xf5, 0x11, 0x03, 0xa8, 0xfe, 0xeb,
  0xe2, 0x14, 0x2a, 0xf1, 0xd5, 0xbf, 0x3f, 0xe7, 0x24, 0xf3, 0x0b, 0xff,
  0x1b, 0xe9, 0x00, 0x29, 0x06, 0xde, 0x81, 0x22, 0xbc, 0x0b, 0x26, 0xf4,
  0xf7, 0x14, 0xf2, 0xfc, 0x39, 0xea, 0xf7, 0x09, 0x00, 0x11, 0xfe, 0xe9,
  0xc7, 0xef, 0xe2, 0x1d, 0xa5, 0xd9, 0xec, 0xed, 0x03, 0xdb, 0x15, 0xdd,
  0xef, 0xe1, 0x1a, 0x9a, 0x6a, 0x81, 0x35, 0xda, 0xe9, 0x12, 0xf6, 0xd3,
  0x1a, 0x08, 0xdf, 0x04, 0xb4, 0x2f, 0xd4, 0x61, 0xc6, 0xbc, 0xcc, 0xdb,
  0xe9, 0x0e, 0x08, 0xd7, 0x43, 0x21, 0x08, 0xf7, 0xc1, 0x43, 0x81, 0x97,
  0xdf, 0xd3, 0xdd, 0x22, 0x01, 0xed, 0xc9, 0x09, 0xab, 0xe7, 0x1b, 0x0a,
  0xca, 0xca, 0xe3, 0xa5, 0xfd, 0x0d, 0x21, 0xe5, 0xf5, 0xe3, 0x0c, 0xc2,
  0x19, 0xfc, 0x01, 0x04, 0xfa, 0xfd, 0x01, 0x05, 0xfa, 0x07, 0x07, 0x08,
  0x01, 0x44, 0x21, 0x0d, 0xf2, 0x00, 0x08, 0xfa, 0xf9, 0xfc, 0x03, 0xfc,
  0x01, 0xff, 0x81, 0xe0, 0xed, 0x03, 0xf8, 0xf8, 0xfd, 0x13, 0x06, 0xfa,
  0xf9, 0xf7, 0x01, 0xdf, 0xe0, 0xf7, 0xd6, 0xc0, 0xfc, 0xe0, 0x28, 0xcf,
  0xfc, 0x15, 0x36, 0x09, 0x81, 0xfe, 0x19, 0xf7, 0xd8, 0x10, 0xea, 0x0d,
  0xf5, 0xef, 0x08, 0x11, 0xff, 0x96, 0xff, 0x1d, 0x26, 0x07, 0x07, 0x30,
  0x07, 0x24, 0x16, 0x15, 0xe6, 0x06, 0x81, 0x97, 0x17, 0xd0, 0x37, 0x03,
  0xf4, 0xd0, 0xb0, 0x10, 0xfd, 0xe9, 0x12, 0x05, 0xef, 0x1e, 0x1c, 0xc7,
  0x33, 0xfd, 0x04, 0xd8, 0xb8, 0xfc, 0x55, 0xde, 0x2b, 0x13, 0xdf, 0xe6,
  0xac, 0x0d, 0xf1, 0x17, 0x0e, 0xdc, 0x31, 0x26, 0xfa, 0xe9, 0x7e, 0x10,
  0x49, 0x5b, 0xc8, 0x32, 0x24, 0x03, 0x62, 0x1a, 0x2f, 0x0c, 0x07, 0x4c,
  0x30, 0x16, 0x7f, 0x99, 0x77, 0xfa, 0x60, 0x05, 0xce, 0xd0, 0x3f, 0x2a,
  0x1f, 0xfd, 0xf4, 0x3e, 0xa5, 0x2d, 0x53, 0xcb, 0x68, 0x81, 0x35, 0x10,
  0xbe, 0x3f, 0xdb, 0xeb, 0xab, 0x00, 0xbb, 0x01, 0xd7, 0x35, 0xa4, 0xdd,
  0x35, 0xdd, 0x36, 0xd5, 0x04, 0xa2, 0x23, 0xbb, 0xf0, 0x03, 0x62, 0x9e,
  0xbf, 0x7f, 0xcf, 0xd7, 0xf1, 0xd6, 0x56, 0x24, 0x09, 0xe1, 0x45, 0xf8,
  0xea, 0xc5, 0x32, 0xf3, 0x16, 0x03, 0xf5, 0x0c, 0x17, 0x04, 0x26, 0x2b,
  0xfa, 0x06, 0xc6, 0x0d, 0x9e, 0x7f, 0xe9, 0x46, 0xc0, 0x1a, 0xf6, 0x19,
  0x14, 0x16, 0x10, 0x09, 0xeb, 0xe4, 0x35, 0x1c, 0xed, 0xd8, 0xc6, 0x1e,
  0x01, 0x38, 0xff, 0x0b, 0xcb, 0x1a, 0xdb, 0x03, 0x00, 0xdb, 0xe7, 0xf9,
  0xfe, 0x09, 0xed, 0xec, 0x0d, 0x08, 0xf6, 0xb0, 0x31, 0x00, 0xf7, 0x07,
  0x15, 0x09, 0xfc, 0x14, 0xf3, 0xfd, 0xf3, 0x0a, 0x81, 0x0f, 0xfb, 0x0e,
  0x06, 0x11, 0xfc, 0xf7, 0xfb, 0xea, 0x13, 0xfd, 0x07, 0x10, 0x92, 0x24,
  0xc5, 0xef, 0xae, 0xda, 0xf9, 0xf5, 0x5a, 0xad, 0xda, 0x09, 0x8b, 0x81,
  0x13, 0xd1, 0xed, 0x29, 0xef, 0xa9, 0x18, 0xfa, 0xca, 0x3c, 0xe7, 0xe8,
  0x96, 0xa1, 0xec, 0xcb, 0xee, 0x29, 0x25, 0x20, 0xf8, 0xa4, 0x1c, 0xf8,
  0x81, 0xd0, 0xd6, 0xd0, 0xb5, 0xd5, 0x22, 0x36, 0x16, 0xfe, 0x1e, 0x01,
  0xdd, 0x25, 0x7f, 0x36, 0xfe, 0x21, 0xe8, 0x0f, 0xf0, 0x11, 0x1d, 0x0f,
  0xf7, 0x01, 0xb1, 0x88, 0xfc, 0x10, 0x30, 0x45, 0x11, 0x04, 0xfc, 0x08,
  0x0c, 0x2f, 0xeb, 0x28, 0x22, 0x17, 0x3f, 0x7f, 0x27, 0xfa, 0xa7, 0x48,
  0x16, 0x07, 0x0c, 0xd5, 0x09, 0xbd, 0x04, 0x1e, 0x57, 0xf8, 0xbc, 0xb5,
  0x07, 0x20, 0xf9, 0xdd, 0xe7, 0xc0, 0xbe, 0x04, 0xdb, 0x4f, 0x31, 0x95,
  0xca, 0xf4, 0xea, 0xf3, 0x0f, 0xcf, 0xf7, 0x00, 0x02, 0x23, 0x7f, 0x3d,
  0x4e, 0xee, 0x22, 0x35, 0xf4, 0xd5, 0xbd, 0xe0, 0xd2, 0x05, 0x08, 0x35,
  0xf6, 0xdc, 0xab, 0x50, 0x16, 0x09, 0xd5, 0xde, 0xdf, 0xc7, 0xe2, 0xbd,
  0xfc, 0xd4, 0xbd, 0xfe, 0x1f, 0xcb, 0x05, 0xd2, 0x16, 0x84, 0x81, 0xb5,
  0xd2, 0x3f, 0xbe, 0xe0, 0xbe, 0x4d, 0x20, 0x3c, 0xb9, 0x42, 0xa6, 0xcd,
  0x4d, 0xd8, 0x12, 0xfb, 0x14, 0xcf, 0xe7, 0x9e, 0x01, 0xe5, 0x02, 0x29,
  0x03, 0xaf, 0xc0, 0xba, 0x0a, 0x12, 0x1d, 0x1b, 0x15, 0x1b, 0xe3, 0x0b,
  0x37, 0xd2, 0x27, 0x65, 0x9f, 0xaa, 0xf0, 0x49, 0xe4, 0x7c, 0x35, 0x33,
  0xdf, 0xe3, 0x81, 0x45, 0x02, 0xf1, 0x1e, 0xd7, 0xeb, 0x3b, 0x1c, 0x39,
  0xdc, 0x21, 0x22, 0xed, 0x34, 0x5b, 0xb1, 0xdc, 0x45, 0x68, 0x4b, 0x4f,
  0xce, 0x9e, 0x12, 0x21, 0x31, 0x7d, 0x16, 0x76, 0x10, 0x22, 0x01, 0x6f,
  0x93, 0x50, 0x9d, 0x0a, 0xfa, 0x33, 0x0a, 0x5d, 0x4e, 0xf3, 0x3d, 0x0f,
  0x41, 0xa4, 0x1c, 0xdb, 0x21, 0x2c, 0x71, 0x2b, 0x7f, 0x09, 0x3a, 0x50,
  0x5e, 0xef, 0x11, 0xef, 0xfd, 0xfa, 0x1f, 0x81, 0x37, 0xe1, 0xd8, 0xfd,
  0x12, 0x40, 0xd8, 0xec, 0xc0, 0x33, 0x07, 0x02, 0x41, 0x00, 0x17, 0xc9,
  0x18, 0x03, 0xf3, 0xf7, 0xe2, 0xe4, 0x60, 0xec, 0xf8, 0x16, 0x37, 0xed,
  0xcd, 0x05, 0x08, 0x3c, 0xb9, 0xe7, 0x01, 0x12, 0x1c, 0x1f, 0x7f, 0xb6,
  0x2a, 0xd2, 0x20, 0xe5, 0x0d, 0x01, 0xf2, 0xd2, 0x23, 0xed, 0x04, 0x06,
  0x3e, 0xb2, 0x52, 0xe9, 0x28, 0xf1, 0x2e, 0xc0, 0x44, 0xe0, 0x21, 0x03,
  0x51, 0xe4, 0x08, 0xd1, 0x14, 0xf9, 0x0a, 0xf2, 0xff, 0x1b, 0xfe, 0x07,
  0xee, 0xf4, 0xff, 0xff, 0x04, 0x00, 0x00, 0x00, 0x80, 0x00, 0x00, 0x00,
  0x34, 0xfa, 0xff, 0xff, 0x92, 0xfb, 0xff, 0xff, 0x34, 0xfe, 0xff, 0xff,
  0x9a, 0xf7, 0xff, 0xff, 0x0f, 0xf8, 0xff, 0xff, 0x70, 0xfa, 0xff, 0xff,
  0xcd, 0xfd, 0xff, 0xff, 0xfc, 0xfe, 0xff, 0xff, 0x71, 0xeb, 0xff, 0xff,
  0x97, 0xfd, 0xff, 0xff, 0x3a, 0xed, 0xff, 0xff, 0x0c, 0x01, 0x00, 0x00,
  0x43, 0xe7, 0xff, 0xff, 0x14, 0xf9, 0xff, 0xff, 0x24, 0xee, 0xff, 0xff,
  0x43, 0xfe, 0xff, 0xff, 0xdd, 0xff, 0xff, 0xff, 0x24, 0xfc, 0xff, 0xff,
  0xc5, 0xf0, 0xff, 0xff, 0xda, 0xe0, 0xff, 0xff, 0xf4, 0xf0, 0xff, 0xff,
  0xc4, 0xf5, 0xff, 0xff, 0x03, 0xfe, 0xff, 0xff, 0xca, 0xfb, 0xff, 0xff,
  0x81, 0xfd, 0xff, 0xff, 0x34, 0xe6, 0xff, 0xff, 0x4f, 0xea, 0xff, 0xff,
  0x48, 0xf9, 0xff, 0xff, 0x47, 0xf1, 0xff, 0xff, 0x57, 0xdd, 0xff, 0xff,
  0xbd, 0xe8, 0xff, 0xff, 0x4e, 0xf0, 0xff, 0xff, 0x7a, 0xf5, 0xff, 0xff,
  0x04, 0x00, 0x00, 0x00, 0x00, 0x06, 0x00, 0x00, 0x0f, 0x1a, 0x07, 0x26,
  0xef, 0xfe, 0xf6, 0xf7, 0xb3, 0xe2, 0xea, 0xf1, 0xd4, 0xe5, 0x0d, 0xf8,
  0xfc, 0x0a, 0x04, 0xe5, 0x2d, 0x0a, 0x0d, 0xfc, 0x11, 0x02, 0x0a, 0xef,
  0xe1, 0x99, 0xc2, 0xcc, 0xfb, 0x01, 0xef, 0x32, 0xf4, 0x11, 0x05, 0xf5,
  0x81, 0x38, 0xf3, 0x07, 0xd5, 0xff, 0xcf, 0xee, 0x04, 0x0f, 0xe3, 0x08,
  0x19, 0x45, 0x2a, 0xea, 0x16, 0xf5, 0x00, 0xff, 0xc7, 0xfe, 0xa9, 0xe9,
  0x05, 0x11, 0xee, 0x3f, 0x08, 0x00, 0x3a, 0x02, 0xc2, 0x08, 0xb9, 0xf9,
  0x13, 0x25, 0xed, 0x03, 0x2d, 0x00, 0xfa, 0x0f, 0x0c, 0x0b, 0x1d, 0xf2,
  0x18, 0x07, 0xe0, 0xee, 0xd8, 0xdc, 0xbe, 0x0e, 0xd1, 0x26, 0x11, 0x03,
  0xbe, 0xc5, 0xd6, 0x2d, 0x9f, 0xdb, 0xba, 0xe3, 0x17, 0x16, 0x19, 0x3b,
  0x13, 0x12, 0xe0, 0x8b, 0xa7, 0xda, 0xe9, 0xb1, 0xdc, 0xdb, 0xfa, 0x92,
  0x97, 0x91, 0x1c, 0xd8, 0x04, 0x0e, 0x1b, 0x2c, 0xdb, 0x03, 0x12, 0xc1,
  0xe0, 0xf2, 0xb6, 0xb8, 0xd0, 0x19, 0x89, 0xd3, 0xc2, 0xc0, 0x1d, 0xa4,
  0x21, 0x07, 0xb7, 0xb2, 0xaa, 0xac, 0xf0, 0xcb, 0xc6, 0x01, 0xee, 0xe1,
  0xcc, 0x9a, 0x0f, 0xe1, 0xd6, 0xc7, 0xaf, 0xa1, 0xc8, 0x01, 0xee, 0xef,
  0x81, 0xd1, 0xde, 0x25, 0xa4, 0xee, 0xb4, 0xdd, 0xb0, 0x13, 0xe0, 0xba,
  0xf8, 0xc0, 0x39, 0xb3, 0xbe, 0xc9, 0x92, 0xe0, 0xc4, 0x05, 0xb9, 0xdb,
  0x42, 0xe1, 0xfe, 0xbd, 0x1f, 0xe8, 0x36, 0xe6, 0xef, 0x8b, 0x04, 0x0c,
  0xcd, 0x81, 0x2f, 0xeb, 0xf5, 0xd7, 0xb0, 0xe8, 0xcc, 0x44, 0x0d, 0x34,
  0xbe, 0x23, 0x26, 0x1e, 0xfa, 0xf9, 0xbe, 0x0b, 0xef, 0xba, 0x16, 0xa3,
  0x09, 0xfb, 0x08, 0xa9, 0x46, 0xd5, 0xed, 0xb6, 0xe4, 0x20, 0xf5, 0x03,
  0xfd, 0x18, 0xd8, 0x92, 0xa8, 0x0d, 0x0d, 0x2a, 0xe6, 0x02, 0x11, 0x16,
  0x36, 0xb6, 0xdd, 0x15, 0xd9, 0xaa, 0x00, 0xc9, 0x1d, 0xf3, 0xb7, 0xe8,
  0x0b, 0xec, 0x17, 0xa9, 0xfd, 0x2e, 0xfc, 0xde, 0xfe, 0x30, 0x19, 0xc1,
  0xe5, 0x23, 0x17, 0xf9, 0xee, 0xd9, 0x1a, 0x0f, 0xc4, 0x00, 0x08, 0xcc,
  0xfe, 0xf7, 0xfc, 0x11, 0xd2, 0xec, 0xda, 0x0d, 0xdc, 0xf8, 0xd0, 0x09,
  0x04, 0x09, 0xed, 0xb5, 0xf6, 0x93, 0xf2, 0x05, 0x23, 0xbd, 0xdd, 0x05,
  0x03, 0x81, 0x03, 0xbe, 0xa5, 0x19, 0x00, 0xbb, 0x06, 0xfa, 0xfb, 0x10,
  0xff, 0x09, 0xf4, 0x04, 0xf6, 0xec, 0x00, 0x0f, 0xf5, 0xfb, 0xf5, 0xc7,
  0xf0, 0xcf, 0xdd, 0xff, 0xf8, 0xd8, 0xf3, 0x11, 0xfc, 0xc7, 0x09, 0xd4,
  0xda, 0x0b, 0xf0, 0xdd, 0xe4, 0xcc, 0x09, 0xd0, 0x32, 0x1a, 0x11, 0xe3,
  0x05, 0xa3, 0xf5, 0xf9, 0x00, 0xca, 0x2a, 0xc4, 0xe2, 0xed, 0xce, 0xe3,
  0xc2, 0xde, 0xf8, 0x1a, 0x9a, 0xf5, 0x2a, 0x1b, 0xd6, 0xf4, 0x94, 0xd4,
  0xad, 0xe6, 0xef, 0xfe, 0xd1, 0xf0, 0xd8, 0x8a, 0xd7, 0x5a, 0xe4, 0xee,
  0xcc, 0xcd, 0x0a, 0xe5, 0xaf, 0x00, 0xab, 0xee, 0xc8, 0xe4, 0xf9, 0x14,
  0x27, 0xfc, 0x2a, 0xbc, 0xca, 0x27, 0xde, 0xda, 0x9b, 0xe6, 0xb3, 0xdd,
  0xf2, 0x8f, 0xd0, 0xd9, 0xf9, 0xfc, 0x00, 0xe0, 0xe4, 0xcd, 0xca, 0x05,
  0xd3, 0xdd, 0xd3, 0xa5, 0xca, 0xe1, 0xc4, 0xf6, 0xd3, 0xde, 0x07, 0x0e,
  0xd0, 0x09, 0xa7, 0xcd, 0x20, 0xeb, 0xb6, 0x29, 0xce, 0xb4, 0x29, 0xa4,
  0xfd, 0x14, 0xfd, 0x1c, 0x81, 0xfb, 0x19, 0xdc, 0x00, 0xda, 0xfa, 0xbd,
  0x07, 0xb7, 0x19, 0xe6, 0xd2, 0xe7, 0xf5, 0xb8, 0x12, 0xd2, 0xc7, 0x2a,
  0xdf, 0xd2, 0xb1, 0x0c, 0xf8, 0xd0, 0xd3, 0x07, 0x1a, 0x03, 0xdd, 0xf4,
  0xd6, 0xfb, 0xdb, 0x1f, 0x42, 0x0d, 0x18, 0xe0, 0xea, 0xc0, 0xcb, 0xf3,
  0x30, 0xa4, 0xe3, 0xce, 0x06, 0xf2, 0xcc, 0x21, 0xf4, 0xfd, 0x2c, 0x08,
  0xd6, 0x08, 0xd6, 0xe9, 0xf5, 0xfc, 0xfa, 0xd1, 0x43, 0xec, 0xde, 0xfc,
  0xcb, 0xe3, 0x2b, 0xeb, 0x0d, 0xcd, 0xc9, 0x04, 0x0b, 0x9c, 0xd5, 0xc2,
  0xf6, 0xc1, 0xc5, 0x09, 0xd6, 0xf1, 0xd8, 0xc6, 0xb7, 0xf6, 0xbc, 0xe5,
  0xf9, 0xda, 0xea, 0xbf, 0xc0, 0x21, 0xa0, 0x0e, 0xb9, 0xff, 0x3a, 0xd6,
  0xf5, 0xef, 0xd9, 0xfb, 0xcb, 0xc1, 0x81, 0xcf, 0x2a, 0xe1, 0xc0, 0xce,
  0x0b, 0xdc, 0xaa, 0xf4, 0x17, 0xa8, 0x23, 0xc8, 0xfd, 0x34, 0xfc, 0xe4,
  0x81, 0xad, 0xf1, 0x0e, 0x33, 0x0d, 0xaf, 0x19, 0xc6, 0x04, 0xf4, 0xb8,
  0x16, 0x0b, 0x10, 0x11, 0x0f, 0xdd, 0xd0, 0xde, 0x0e, 0xfc, 0xc6, 0xed,
  0xf0, 0xa2, 0x10, 0xd0, 0xea, 0xf6, 0xf8, 0xf3, 0xa0, 0xa6, 0x0c, 0xfd,
  0x09, 0x17, 0x94, 0x0b, 0xf5, 0xfd, 0xf6, 0xc2, 0x0e, 0x04, 0xe9, 0x1d,
  0x00, 0xf7, 0xec, 0x08, 0x28, 0x05, 0xb4, 0xfc, 0x12, 0xb8, 0x2b, 0xb3,
  0x21, 0xfd, 0xfa, 0xd3, 0xd3, 0xb2, 0x09, 0x3f, 0xf6, 0x0c, 0xaa, 0xec,
  0xe0, 0x09, 0x18, 0xb5, 0x17, 0x28, 0xdf, 0x35, 0xde, 0xe0, 0xf6, 0xfa,
  0xd3, 0x20, 0xf4, 0xea, 0x82, 0x0f, 0x27, 0xf0, 0x13, 0xf2, 0xc8, 0xe1,
  0xc7, 0x2a, 0xe3, 0xde, 0xa5, 0xa8, 0x19, 0xc2, 0x1b, 0x39, 0xfd, 0xe3,
  0xd1, 0x1d, 0x23, 0xd5, 0xa5, 0xf7, 0xe5, 0x47, 0x0a, 0x01, 0xf4, 0xd6,
  0xc3, 0x00, 0x14, 0xee, 0x32, 0xc2, 0x23, 0xc8, 0xba, 0x0e, 0xb0, 0x00,
  0xba, 0xcc, 0xd7, 0xf6, 0x26, 0xdc, 0x38, 0x18, 0xf0, 0x1b, 0xf7, 0xd8,
  0xfe, 0xe1, 0xdf, 0x40, 0xdb, 0xc1, 0x24, 0xc4, 0x5b, 0x30, 0xbe, 0x84,
  0x78, 0xab, 0x4b, 0xaf, 0xeb, 0xf1, 0xf1, 0x0a, 0xed, 0xd4, 0xec, 0xb1,
  0xfc, 0x4c, 0x25, 0xdf, 0x81, 0xed, 0xf4, 0xe9, 0xad, 0x31, 0xf5, 0xa6,
  0x0d, 0xe4, 0x11, 0xf9, 0x05, 0x04, 0x16, 0x16, 0xe6, 0xf3, 0xc5, 0xfd,
  0xfe, 0xee, 0x34, 0x95, 0x1c, 0xb2, 0xfc, 0x0a, 0xf6, 0xad, 0xc7, 0x1c,
  0xbb, 0xd0, 0x14, 0xe7, 0xe4, 0x1b, 0xdc, 0xb7, 0x00, 0xe7, 0xfe, 0xba,
  0x1f, 0x01, 0x14, 0xf0, 0xd3, 0xc6, 0xcf, 0x10, 0x1a, 0xd9, 0x1d, 0xa7,
  0xf8, 0x05, 0xf8, 0xef, 0xa4, 0xe1, 0x10, 0x0a, 0x81, 0xe5, 0x17, 0x14,
  0x1e, 0xe9, 0x1a, 0x91, 0xc1, 0xc0, 0x14, 0xef, 0x0c, 0xff, 0xf2, 0xe8,
  0x15, 0xcb, 0xee, 0xb9, 0x2f, 0x26, 0xff, 0xee, 0xeb, 0x2f, 0x0c, 0xb0,
  0xdc, 0xb8, 0xe2, 0xc3, 0xa2, 0xe9, 0x11, 0x10, 0x20, 0xcf, 0xde, 0xc5,
  0x37, 0x14, 0xcc, 0x12, 0x1a, 0xc0, 0x04, 0xf3, 0x01, 0x18, 0x05, 0x05,
  0xa7, 0xcd, 0xf4, 0x24, 0x27, 0x1c, 0xa4, 0x0b, 0xaf, 0xe9, 0xd7, 0xa5,
  0x0b, 0x10, 0xfe, 0x63, 0x0f, 0xf0, 0xe7, 0xc8, 0xf9, 0xf3, 0xde, 0xf7,
  0x02, 0xc3, 0x1a, 0xee, 0x07, 0x0b, 0x04, 0x03, 0xd7, 0xc2, 0x1f, 0x07,
  0x1c, 0x1f, 0x81, 0x2e, 0xd9, 0xde, 0xdd, 0xf2, 0x14, 0xff, 0xf0, 0x0e,
  0x13, 0xf5, 0x03, 0xd5, 0x48, 0xfb, 0xb3, 0x08, 0xf5, 0xcd, 0x13, 0xe9,
  0x00, 0x10, 0xe1, 0x17, 0xd9, 0x89, 0x02, 0x35, 0x0d, 0x14, 0x84, 0x15,
  0xfa, 0xfb, 0x04, 0xe9, 0x0e, 0x41, 0xce, 0x1e, 0x9c, 0xe4, 0x0b, 0x20,
  0xff, 0xe6, 0xee, 0x07, 0xf1, 0xf5, 0x24, 0xfc, 0x15, 0x08, 0xdf, 0xe1,
  0xcb, 0x3c, 0xdd, 0xfc, 0xb9, 0x13, 0xe5, 0xe8, 0x0d, 0x14, 0x11, 0x16,
  0x13, 0xf3, 0xe4, 0xbd, 0xd3, 0xce, 0x0f, 0x07, 0xea, 0xe8, 0x09, 0xc8,
  0xfa, 0x2b, 0xda, 0xca, 0x50, 0xd1, 0x0a, 0x9d, 0xea, 0x19, 0xa5, 0x35,
  0xe3, 0x18, 0xe1, 0xca, 0xd9, 0x1d, 0x1d, 0xcb, 0x1a, 0x23, 0x21, 0xef,
  0x00, 0xb8, 0xb6, 0x08, 0xd8, 0xf0, 0x27, 0x81, 0x07, 0x15, 0xe2, 0xbd,
  0x29, 0xab, 0x41, 0x84, 0x13, 0x01, 0xa1, 0x17, 0xe9, 0xf0, 0x0b, 0xc0,
  0xa0, 0xd6, 0x12, 0x32, 0xcc, 0x12, 0x62, 0xfb, 0xca, 0xd5, 0xcd, 0x3b,
  0x09, 0xf2, 0xda, 0x9c, 0x18, 0x06, 0x24, 0xd0, 0x47, 0xdb, 0x1e, 0xc1,
  0x9e, 0x1c, 0xba, 0x26, 0xf5, 0x2f, 0xc1, 0xf6, 0x03, 0x2c, 0x1d, 0xe7,
  0x29, 0x29, 0x24, 0x10, 0xf1, 0xcc, 0xb5, 0x22, 0x23, 0xdd, 0x0b, 0x92,
  0x14, 0x0d, 0xf5, 0x81, 0xfe, 0xee, 0x2e, 0xf4, 0xee, 0x9a, 0xed, 0x32,
  0x05, 0x05, 0xd6, 0xce, 0xc7, 0x01, 0x1e, 0xe3, 0xf5, 0x18, 0x24, 0xef,
  0x15, 0xec, 0xd6, 0x1b, 0x02, 0xf6, 0xff, 0xd6, 0x19, 0xf6, 0x04, 0xd5,
  0x34, 0xf2, 0x36, 0xb2, 0xf4, 0xe7, 0xf5, 0x0f, 0xf1, 0xee, 0x04, 0xb6,
  0xd2, 0x24, 0x06, 0xfc, 0xe9, 0x11, 0x12, 0x16, 0x19, 0xee, 0xe5, 0xdd,
  0x2d, 0x08, 0xd5, 0xe0, 0x12, 0xbf, 0xfe, 0xb9, 0xf5, 0x01, 0x21, 0xf4,
  0xb7, 0xc9, 0x0b, 0x15, 0x2f, 0x0e, 0xc5, 0x03, 0xb9, 0xdc, 0xb1, 0xc2,
  0x0a, 0x3a, 0x16, 0x5b, 0x08, 0x1e, 0xc6, 0xdd, 0xb9, 0xf1, 0xcf, 0xe7,
  0xf8, 0xf5, 0x05, 0x81, 0x4a, 0xd4, 0x18, 0xe1, 0xc5, 0xbc, 0xdd, 0xe5,
  0x27, 0xf5, 0xec, 0x10, 0xc3, 0xed, 0xd8, 0xc5, 0x05, 0xfb, 0xed, 0xe1,
  0x27, 0xdc, 0xba, 0xfe, 0x40, 0x0c, 0xab, 0xda, 0x23, 0xed, 0xf4, 0xe7,
  0x06, 0xe4, 0xfd, 0xd4, 0xc7, 0xa5, 0xde, 0x34, 0x29, 0x25, 0xbb, 0xd5,
  0xea, 0x01, 0xfb, 0xea, 0xf6, 0xed, 0xcf, 0x09, 0xe9, 0xad, 0x1c, 0xd9,
  0xd0, 0xbd, 0xdb, 0xb3, 0xfd, 0xe8, 0xa1, 0x11, 0x1d, 0x9a, 0x18, 0xc5,
  0xf2, 0xe5, 0xe3, 0x31, 0x3d, 0x95, 0xa9, 0xf2, 0xb4, 0x33, 0xed, 0xc0,
  0x26, 0xb2, 0x08, 0xd2, 0xfb, 0xca, 0x89, 0xd0, 0xd6, 0xf0, 0x13, 0xe5,
  0xa7, 0xd4, 0xee, 0xee, 0x01, 0xc4, 0xfb, 0x28, 0x1f, 0xcd, 0x85, 0xd4,
  0xa1, 0xc2, 0xb7, 0xb6, 0xe6, 0x3f, 0x46, 0xe2, 0xd6, 0xa2, 0xad, 0xab,
  0xc3, 0xf6, 0xfc, 0xf4, 0x03, 0x86, 0xb2, 0xc3, 0xbf, 0xf1, 0xa8, 0x03,
  0xbe, 0xd5, 0xdb, 0x02, 0xb5, 0xd7, 0xea, 0xb1, 0xe3, 0xce, 0x2c, 0xb1,
  0xd9, 0x81, 0x08, 0xe3, 0xb1, 0xc7, 0xe6, 0x97, 0x3b, 0x54, 0x31, 0x0d,
  0xec, 0x2a, 0x11, 0x01, 0xad, 0x63, 0xf1, 0xf4, 0xc2, 0xfc, 0xdb, 0xda,
  0x2f, 0x0d, 0xdb, 0x04, 0x01, 0x42, 0x09, 0xd8, 0x33, 0xfd, 0x56, 0x00,
  0x13, 0xc4, 0x97, 0x0a, 0x18, 0x13, 0x26, 0x14, 0xf0, 0xda, 0x41, 0xd3,
  0xaa, 0x42, 0x04, 0xf2, 0xb3, 0x05, 0xd4, 0xc7, 0xfd, 0xe3, 0xe6, 0xeb,
  0xfb, 0x52, 0xde, 0xba, 0xe4, 0xd4, 0x0e, 0x0c, 0x39, 0xa6, 0x9b, 0xea,
  0x1f, 0x2f, 0x04, 0xb4, 0xd9, 0x28, 0x30, 0xbc, 0x0f, 0x64, 0x03, 0xcc,
  0xaa, 0x0d, 0xfe, 0x98, 0x7f, 0xdc, 0xd8, 0x0e, 0x31, 0x02, 0xe2, 0xdc,
  0xee, 0x00, 0x43, 0xb3, 0x04, 0xc1, 0xd4, 0xe4, 0x37, 0xdf, 0xfa, 0xf0,
  0x84, 0xb8, 0xd9, 0x09, 0xbc, 0xc3, 0x25, 0xd7, 0xc3, 0xb8, 0xe9, 0xfa,
  0xc5, 0xa0, 0xfc, 0x88, 0xc6, 0xc2, 0x15, 0xef, 0xe0, 0xb8, 0xdb, 0x8f,
  0xc3, 0xcf, 0xda, 0xbd, 0xef, 0xdf, 0xe1, 0x06, 0x96, 0xc9, 0xa3, 0xf4,
  0xdc, 0xd4, 0xd7, 0xb0, 0xd8, 0xf8, 0xac, 0xdd, 0xcd, 0xb6, 0xd4, 0x8a,
  0xbe, 0xa5, 0xbe, 0x2a, 0xac, 0x00, 0x21, 0x13, 0x00, 0xc4, 0xb5, 0xe8,
  0xf6, 0x92, 0x69, 0xb5, 0xab, 0xc5, 0x81, 0xde, 0xad, 0xca, 0xed, 0xd6,
  0x94, 0xd4, 0x12, 0xed, 0xf0, 0xba, 0xc6, 0x04, 0x58, 0x1e, 0xc1, 0xe8,
  0xb0, 0xd4, 0xf7, 0x97, 0xa1, 0xe5, 0xc4, 0xf1, 0x86, 0xfb, 0xff, 0xff,
  0x04, 0x00, 0x00, 0x00, 0x40, 0x00, 0x00, 0x00, 0x4a, 0xfa, 0xff, 0xff,
  0x54, 0xfe, 0xff, 0xff, 0x01, 0xfb, 0xff, 0xff, 0x88, 0xff, 0xff, 0xff,
  0x32, 0xfb, 0xff, 0xff, 0x82, 0x00, 0x00, 0x00, 0x85, 0x01, 0x00, 0x00,
  0xfc, 0xfb, 0xff, 0xff, 0x41, 0xfe, 0xff, 0xff, 0xad, 0x02, 0x00, 0x00,
  0x71, 0xfb, 0xff, 0xff, 0x8a, 0xfb, 0xff, 0xff, 0xd1, 0xff, 0xff, 0xff,
  0x30, 0xfe, 0xff, 0xff, 0x3e, 0xff, 0xff, 0xff, 0x30, 0xfb, 0xff, 0xff,
  0xd2, 0xfb, 0xff, 0xff, 0x04, 0x00, 0x00, 0x00, 0x80, 0x01, 0x00, 0x00,
  0xe9, 0x1b, 0x24, 0xdd, 0x1b, 0xd1, 0x81, 0x08, 0x0d, 0x85, 0x1c, 0x29,
  0xdb, 0x2e, 0xe5, 0xec, 0xfc, 0xdc, 0x36, 0x23, 0xfa, 0xe2, 0xaf, 0x31,
  0xf0, 0x86, 0x16, 0xdb, 0xa1, 0x44, 0xfb, 0x29, 0x02, 0xd1, 0x0a, 0x3d,
  0xef, 0xc9, 0xbb, 0x35, 0xe0, 0xaf, 0x0c, 0x21, 0xb2, 0xed, 0xfd, 0xf8,
  0xe7, 0xd6, 0xe7, 0x0f, 0x24, 0x44, 0x56, 0xdf, 0xe9, 0x2a, 0xff, 0x0d,
  0x36, 0xcb, 0x01, 0xff, 0xd4, 0x0a, 0xe9, 0xd4, 0x03, 0x34, 0xc4, 0xd5,
  0xe9, 0x63, 0xed, 0x02, 0x00, 0x3e, 0xfd, 0x9e, 0x9d, 0x2d, 0x03, 0xca,
  0x0e, 0x3f, 0x7f, 0xd0, 0xf1, 0x21, 0xeb, 0x00, 0x30, 0x0b, 0xe5, 0xb2,
  0xf6, 0xe9, 0x01, 0x49, 0x0f, 0x06, 0xae, 0x91, 0x34, 0x99, 0xbd, 0xa9,
  0x81, 0x04, 0x16, 0xf5, 0xee, 0x1b, 0x30, 0x15, 0x04, 0x0e, 0xa4, 0xb9,
  0x1d, 0xe3, 0xd0, 0x9c, 0xdb, 0x4a, 0x1c, 0xfe, 0x09, 0xf2, 0x14, 0x1e,
  0xe7, 0xb5, 0xae, 0xe5, 0x3a, 0x9d, 0xc7, 0xd3, 0xa2, 0x0d, 0xf3, 0x3c,
  0xff, 0xfe, 0x13, 0xe6, 0x1a, 0x18, 0x0d, 0xf8, 0xb3, 0x04, 0x12, 0x3c,
  0x26, 0x42, 0xe3, 0x9f, 0xef, 0xdc, 0xfa, 0xdf, 0xf2, 0xaf, 0x32, 0x34,
  0xf8, 0xee, 0x3a, 0x2e, 0xff, 0xe2, 0xe4, 0xab, 0xf4, 0x15, 0x19, 0xe8,
  0x06, 0x15, 0xf9, 0xfd, 0xe4, 0x16, 0x65, 0x14, 0x3f, 0x81, 0x08, 0xad,
  0x0a, 0xf1, 0x81, 0xe9, 0x02, 0xf8, 0x0e, 0xe7, 0xf8, 0x26, 0xc5, 0xa3,
  0xf7, 0x0e, 0x16, 0x01, 0x11, 0xed, 0xb7, 0xdd, 0xd9, 0xcf, 0xef, 0x14,
  0xf2, 0x0f, 0xc8, 0xb9, 0xd8, 0x04, 0xfe, 0x17, 0xf9, 0xf7, 0xd3, 0xec,
  0xec, 0xcf, 0xf4, 0xb1, 0x02, 0x12, 0xae, 0xbc, 0xf5, 0x2b, 0x04, 0xe0,
  0xfb, 0xcd, 0xde, 0xc9, 0xee, 0xd3, 0xa0, 0xe0, 0xbd, 0xea, 0x37, 0xfe,
  0xba, 0xf5, 0x39, 0xf9, 0xf7, 0xd4, 0xe5, 0xcf, 0x01, 0xdf, 0xa3, 0xb6,
  0xcd, 0xde, 0x5c, 0xef, 0xec, 0xbb, 0xf2, 0x20, 0xf7, 0x1d, 0xde, 0xf8,
  0xdb, 0xfa, 0x8f, 0x1c, 0xdd, 0xac, 0xe7, 0x02, 0x81, 0x23, 0x37, 0xb4,
  0xfb, 0xe1, 0xb1, 0xee, 0x04, 0x37, 0xd4, 0xd1, 0xf6, 0x00, 0xd1, 0xa4,
  0xbb, 0xf8, 0xf3, 0xfe, 0xfa, 0x13, 0xce, 0xef, 0xf9, 0x11, 0xba, 0xe9,
  0xdc, 0xe9, 0xd3, 0x81, 0xf9, 0x01, 0x10, 0xf9, 0x32, 0xfa, 0xae, 0xed,
  0x24, 0xca, 0xd9, 0xda, 0xef, 0x13, 0xad, 0xd6, 0x13, 0x23, 0xe2, 0xe6,
  0xd8, 0x08, 0xf5, 0x22, 0x20, 0x17, 0x32, 0xc6, 0x22, 0x2f, 0xe0, 0xf9,
  0x29, 0xc8, 0xbb, 0xed, 0x81, 0xdd, 0x07, 0x0b, 0x19, 0xca, 0x2a, 0xcf,
  0x36, 0xf4, 0xc9, 0xf4, 0x32, 0xd1, 0xe8, 0xd5, 0xa7, 0xe9, 0x3f, 0x24,
  0x41, 0xcc, 0x3b, 0xfd, 0x31, 0x13, 0xcf, 0xf2, 0xf6, 0x04, 0xf8, 0xca,
  0x5e, 0xfd, 0xff, 0xff, 0x04, 0x00, 0x00, 0x00, 0x20, 0x00, 0x00, 0x00,
  0x7b, 0xfe, 0xff, 0xff, 0x71, 0x00, 0x00, 0x00, 0x3b, 0x00, 0x00, 0x00,
  0x6d, 0xfc, 0xff, 0xff, 0x5b, 0x00, 0x00, 0x00, 0xa2, 0xff, 0xff, 0xff,
  0xe2, 0xff, 0xff, 0xff, 0x79, 0xfd, 0xff, 0xff, 0x8a, 0xfd, 0xff, 0xff,
  0x04, 0x00, 0x00, 0x00, 0xe0, 0x00, 0x00, 0x00, 0xeb, 0xc1, 0xae, 0x0c,
  0xc9, 0x28, 0xe0, 0xa3, 0x10, 0xf7, 0xe2, 0x2a, 0xdc, 0x21, 0xcf, 0xb3,
  0x15, 0xf0, 0xda, 0x19, 0xef, 0x1e, 0xda, 0xcc, 0x21, 0xf1, 0xee, 0x0f,
  0xd4, 0x15, 0xdd, 0xc9, 0x2b, 0xf3, 0xcc, 0x19, 0xed, 0x0d, 0xc3, 0xcc,
  0x14, 0xcb, 0xf7, 0x12, 0xf8, 0xf9, 0xec, 0xd3, 0x15, 0xd1, 0x1c, 0x0a,
  0xeb, 0x25, 0xc6, 0xca, 0xd6, 0xf3, 0x22, 0xec, 0x0c, 0x1c, 0x2c, 0x0d,
  0xea, 0x15, 0x33, 0xe7, 0x2c, 0x10, 0x0c, 0x05, 0xd3, 0x10, 0x0a, 0xce,
  0x19, 0x19, 0x10, 0x08, 0xb5, 0x0a, 0x26, 0xb2, 0x29, 0x13, 0x2d, 0xe9,
  0xca, 0x1a, 0x0e, 0xce, 0x22, 0x0d, 0x21, 0xf2, 0xcd, 0xff, 0x16, 0xda,
  0x1c, 0x0e, 0x13, 0xf5, 0xf5, 0x03, 0x16, 0xc0, 0x33, 0x0e, 0xff, 0xfd,
  0x09, 0x81, 0x31, 0xce, 0x8b, 0xb8, 0xb1, 0x2b, 0x14, 0xc0, 0x3a, 0x0f,
  0xdc, 0xeb, 0xb9, 0x15, 0x0f, 0xd0, 0x19, 0xff, 0xc2, 0xee, 0xd5, 0x21,
  0x18, 0x05, 0x2c, 0x00, 0xcf, 0xeb, 0xc0, 0x08, 0x28, 0xf1, 0x1a, 0x12,
  0x05, 0xe7, 0xdf, 0x01, 0x0f, 0xe2, 0x1a, 0x11, 0xe7, 0xdc, 0xde, 0xf2,
  0x06, 0xe4, 0x25, 0x02, 0xd4, 0x12, 0xe1, 0xd6, 0xd0, 0x00, 0xe8, 0x01,
  0x22, 0xfd, 0x15, 0x03, 0xd9, 0x28, 0xf4, 0x23, 0x16, 0xf0, 0xfe, 0x16,
  0xd8, 0x29, 0xe5, 0x18, 0x0c, 0xdc, 0xfa, 0x25, 0xec, 0x2c, 0xf4, 0x07,
  0x10, 0xd2, 0x08, 0x12, 0xcf, 0x1c, 0xf6, 0x0d, 0x12, 0xcc, 0x13, 0x1c,
  0xc6, 0x15, 0xef, 0x0b, 0x08, 0xf2, 0x1e, 0x0d, 0xbc, 0x08, 0xdf, 0xe8,
  0x23, 0xeb, 0x20, 0xf0, 0x76, 0xfe, 0xff, 0xff, 0x04, 0x00, 0x00, 0x00,
  0x10, 0x00, 0x00, 0x00, 0x67, 0xff, 0xff, 0xff, 0xe4, 0x01, 0x00, 0x00,
  0xcd, 0xfe, 0xff, 0xff, 0x74, 0xff, 0xff, 0xff, 0x92, 0xfe, 0xff, 0xff,
  0x04, 0x00, 0x00, 0x00, 0x08, 0x00, 0x00, 0x00, 0xff, 0xff, 0xff, 0xff,
  0x38, 0x00, 0x00, 0x00, 0xa6, 0xfe, 0xff, 0xff, 0x04, 0x00, 0x00, 0x00,
  0x10, 0x00, 0x00, 0x00, 0x01, 0x00, 0x00, 0x00, 0x0d, 0x00, 0x00, 0x00,
  0x01, 0x00, 0x00, 0x00, 0x08, 0x00, 0x00, 0x00, 0xc2, 0xfe, 0xff, 0xff,
  0x04, 0x00, 0x00, 0x00, 0x10, 0x00, 0x00, 0x00, 0x01, 0x00, 0x00, 0x00,
  0x01, 0x00, 0x00, 0x00, 0x0d, 0x00, 0x00, 0x00, 0x10, 0x00, 0x00, 0x00,
  0xde, 0xfe, 0xff, 0xff, 0x04, 0x00, 0x00, 0x00, 0x10, 0x00, 0x00, 0x00,
  0x01, 0x00, 0x00, 0x00, 0x19, 0x00, 0x00, 0x00, 0x01, 0x00, 0x00, 0x00,
  0x10, 0x00, 0x00, 0x00, 0xfa, 0xfe, 0xff, 0xff, 0x04, 0x00, 0x00, 0x00,
  0x10, 0x00, 0x00, 0x00, 0x01, 0x00, 0x00, 0x00, 0x01, 0x00, 0x00, 0x00,
  0x19, 0x00, 0x00, 0x00, 0x20, 0x00, 0x00, 0x00, 0x16, 0xff, 0xff, 0xff,
  0x04, 0x00, 0x00, 0x00, 0x10, 0x00, 0x00, 0x00, 0x01, 0x00, 0x00, 0x00,
  0x32, 0x00, 0x00, 0x00, 0x01, 0x00, 0x00, 0x00, 0x20, 0x00, 0x00, 0x00,
  0x32, 0xff, 0xff, 0xff, 0x04, 0x00, 0x00, 0x00, 0x10, 0x00, 0x00, 0x00,
  0x01, 0x00, 0x00, 0x00, 0x01, 0x00, 0x00, 0x00, 0x32, 0x00, 0x00, 0x00,
  0x0d, 0x00, 0x00, 0x00, 0xbc, 0xe8, 0xff, 0xff, 0xc0, 0xe8, 0xff, 0xff,
  0x0f, 0x00, 0x00, 0x00, 0x4d, 0x4c, 0x49, 0x52, 0x20, 0x43, 0x6f, 0x6e,
  0x76, 0x65, 0x72, 0x74, 0x65, 0x64, 0x2e, 0x00, 0x01, 0x00, 0x00, 0x00,
  0x14, 0x00, 0x00, 0x00, 0x00, 0x00, 0x0e, 0x00, 0x18, 0x00, 0x14, 0x00,
  0x10, 0x00, 0x0c, 0x00, 0x08, 0x00, 0x04, 0x00, 0x0e, 0x00, 0x00, 0x00,
  0x14, 0x00, 0x00, 0x00, 0x1c, 0x00, 0x00, 0x00, 0x50, 0x03, 0x00, 0x00,
  0x54, 0x03, 0x00, 0x00, 0x58, 0x03, 0x00, 0x00, 0x04, 0x00, 0x00, 0x00,
  0x6d, 0x61, 0x69, 0x6e, 0x00, 0x00, 0x00, 0x00, 0x0f, 0x00, 0x00, 0x00,
  0x14, 0x03, 0x00, 0x00, 0xb8, 0x02, 0x00, 0x00, 0x84, 0x02, 0x00, 0x00,
  0x34, 0x02, 0x00, 0x00, 0x10, 0x02, 0x00, 0x00, 0xcc, 0x01, 0x00, 0x00,
  0xa8, 0x01, 0x00, 0x00, 0x68, 0x01, 0x00, 0x00, 0x44, 0x01, 0x00, 0x00,
  0x00, 0x01, 0x00, 0x00, 0xdc, 0x00, 0x00, 0x00, 0x9c, 0x00, 0x00, 0x00,
  0x78, 0x00, 0x00, 0x00, 0x40, 0x00, 0x00, 0x00, 0x04, 0x00, 0x00, 0x00,
  0x8e, 0xfd, 0xff, 0xff, 0x1c, 0x00, 0x00, 0x00, 0x00, 0x00, 0x00, 0x09,
  0x1c, 0x00, 0x00, 0x00, 0x20, 0x00, 0x00, 0x00, 0x04, 0x00, 0x00, 0x00,
  0x00, 0x00, 0x06, 0x00, 0x08, 0x00, 0x04, 0x00, 0x06, 0x00, 0x00, 0x00,
  0x00, 0x00, 0x80, 0x3f, 0x01, 0x00, 0x00, 0x00, 0x1e, 0x00, 0x00, 0x00,
  0x01, 0x00, 0x00, 0x00, 0x1d, 0x00, 0x00, 0x00, 0xc6, 0xfd, 0xff, 0xff,
  0x14, 0x00, 0x00, 0x00, 0x00, 0x00, 0x00, 0x08, 0x10, 0x00, 0x00, 0x00,
  0x14, 0x00, 0x00, 0x00, 0x03, 0x00, 0x00, 0x00, 0xa4, 0xe9, 0xff, 0xff,
  0x01, 0x00, 0x00, 0x00, 0x1d, 0x00, 0x00, 0x00, 0x03, 0x00, 0x00, 0x00,
  0x1c, 0x00, 0x00, 0x00, 0x09, 0x00, 0x00, 0x00, 0x08, 0x00, 0x00, 0x00,
  0x9e, 0xfd, 0xff, 0xff, 0x08, 0x00, 0x00, 0x00, 0x0c, 0x00, 0x00, 0x00,
  0x01, 0x00, 0x00, 0x00, 0x1c, 0x00, 0x00, 0x00, 0x02, 0x00, 0x00, 0x00,
  0x1b, 0x00, 0x00, 0x00, 0x07, 0x00, 0x00, 0x00, 0x1a, 0xfe, 0xff, 0xff,
  0x14, 0x00, 0x00, 0x00, 0x00, 0x00, 0x00, 0x05, 0x20, 0x00, 0x00, 0x00,
  0x24, 0x00, 0x00, 0x00, 0x02, 0x00, 0x00, 0x00, 0x86, 0xfe, 0xff, 0xff,
  0x02, 0x00, 0x00, 0x00, 0x01, 0x00, 0x00, 0x00, 0x02, 0x00, 0x00, 0x00,
  0x01, 0x00, 0x00, 0x00, 0x01, 0x00, 0x00, 0x00, 0x1b, 0x00, 0x00, 0x00,
  0x01, 0x00, 0x00, 0x00, 0x1a, 0x00, 0x00, 0x00, 0xfa, 0xfd, 0xff, 0xff,
  0x08, 0x00, 0x00, 0x00, 0x0c, 0x00, 0x00, 0x00, 0x01, 0x00, 0x00, 0x00,
  0x1a, 0x00, 0x00, 0x00, 0x02, 0x00, 0x00, 0x00, 0x19, 0x00, 0x00, 0x00,
  0x06, 0x00, 0x00, 0x00, 0x76, 0xfe, 0xff, 0xff, 0x14, 0x00, 0x00, 0x00,
  0x00, 0x00, 0x00, 0x01, 0x1c, 0x00, 0x00, 0x00, 0x20, 0x00, 0x00, 0x00,
  0x01, 0x00, 0x00, 0x00, 0x68, 0xfe, 0xff, 0xff, 0x00, 0x00, 0x00, 0x01,
  0x01, 0x00, 0x00, 0x00, 0x01, 0x00, 0x00, 0x00, 0x01, 0x00, 0x00, 0x00,
  0x19, 0x00, 0x00, 0x00, 0x03, 0x00, 0x00, 0x00, 0x18, 0x00, 0x00, 0x00,
  0x0b, 0x00, 0x00, 0x00, 0x0a, 0x00, 0x00, 0x00, 0x5a, 0xfe, 0xff, 0xff,
  0x08, 0x00, 0x00, 0x00, 0x0c, 0x00, 0x00, 0x00, 0x01, 0x00, 0x00, 0x00,
  0x18, 0x00, 0x00, 0x00, 0x02, 0x00, 0x00, 0x00, 0x17, 0x00, 0x00, 0x00,
  0x05, 0x00, 0x00, 0x00, 0xd6, 0xfe, 0xff, 0xff, 0x14, 0x00, 0x00, 0x00,
  0x00, 0x00, 0x00, 0x05, 0x20, 0x00, 0x00, 0x00, 0x24, 0x00, 0x00, 0x00,
  0x02, 0x00, 0x00, 0x00, 0x42, 0xff, 0xff, 0xff, 0x02, 0x00, 0x00, 0x00,
  0x01, 0x00, 0x00, 0x00, 0x02, 0x00, 0x00, 0x00, 0x01, 0x00, 0x00, 0x00,
  0x01, 0x00, 0x00, 0x00, 0x17, 0x00, 0x00, 0x00, 0x01, 0x00, 0x00, 0x00,
  0x16, 0x00, 0x00, 0x00, 0xb6, 0xfe, 0xff, 0xff, 0x08, 0x00, 0x00, 0x00,
  0x0c, 0x00, 0x00, 0x00, 0x01, 0x00, 0x00, 0x00, 0x16, 0x00, 0x00, 0x00,
  0x02, 0x00, 0x00, 0x00, 0x15, 0x00, 0x00, 0x00, 0x04, 0x00, 0x00, 0x00,
  0x32, 0xff, 0xff, 0xff, 0x14, 0x00, 0x00, 0x00, 0x00, 0x00, 0x00, 0x01,
  0x1c, 0x00, 0x00, 0x00, 0x20, 0x00, 0x00, 0x00, 0x01, 0x00, 0x00, 0x00,
  0x24, 0xff, 0xff, 0xff, 0x00, 0x00, 0x00, 0x01, 0x01, 0x00, 0x00, 0x00,
  0x01, 0x00, 0x00, 0x00, 0x01, 0x00, 0x00, 0x00, 0x15, 0x00, 0x00, 0x00,
  0x03, 0x00, 0x00, 0x00, 0x14, 0x00, 0x00, 0x00, 0x0d, 0x00, 0x00, 0x00,
  0x0c, 0x00, 0x00, 0x00, 0x16, 0xff, 0xff, 0xff, 0x08, 0x00, 0x00, 0x00,
  0x0c, 0x00, 0x00, 0x00, 0x01, 0x00, 0x00, 0x00, 0x14, 0x00, 0x00, 0x00,
  0x02, 0x00, 0x00, 0x00, 0x13, 0x00, 0x00, 0x00, 0x03, 0x00, 0x00, 0x00,
  0x92, 0xff, 0xff, 0xff, 0x24, 0x00, 0x00, 0x00, 0x00, 0x00, 0x00, 0x05,
  0x30, 0x00, 0x00, 0x00, 0x34, 0x00, 0x00, 0x00, 0x02, 0x00, 0x00, 0x00,
  0x00, 0x00, 0x0e, 0x00, 0x14, 0x00, 0x00, 0x00, 0x10, 0x00, 0x0c, 0x00,
  0x08, 0x00, 0x04, 0x00, 0x0e, 0x00, 0x00, 0x00, 0x02, 0x00, 0x00, 0x00,
  0x01, 0x00, 0x00, 0x00, 0x02, 0x00, 0x00, 0x00, 0x01, 0x00, 0x00, 0x00,
  0x01, 0x00, 0x00, 0x00, 0x13, 0x00, 0x00, 0x00, 0x01, 0x00, 0x00, 0x00,
  0x12, 0x00, 0x00, 0x00, 0x82, 0xff, 0xff, 0xff, 0x08, 0x00, 0x00, 0x00,
  0x0c, 0x00, 0x00, 0x00, 0x01, 0x00, 0x00, 0x00, 0x12, 0x00, 0x00, 0x00,
  0x02, 0x00, 0x00, 0x00, 0x11, 0x00, 0x00, 0x00, 0x02, 0x00, 0x00, 0x00,
  0x00, 0x00, 0x0e, 0x00, 0x18, 0x00, 0x14, 0x00, 0x10, 0x00, 0x0c, 0x00,
  0x0b, 0x00, 0x04, 0x00, 0x0e, 0x00, 0x00, 0x00, 0x20, 0x00, 0x00, 0x00,
  0x00, 0x00, 0x00, 0x01, 0x28, 0x00, 0x00, 0x00, 0x2c, 0x00, 0x00, 0x00,
  0x01, 0x00, 0x00, 0x00, 0x0c, 0x00, 0x10, 0x00, 0x00, 0x00, 0x0c, 0x00,
  0x08, 0x00, 0x07, 0x00, 0x0c, 0x00, 0x00, 0x00, 0x00, 0x00, 0x00, 0x01,
  0x01, 0x00, 0x00, 0x00, 0x01, 0x00, 0x00, 0x00, 0x01, 0x00, 0x00, 0x00,
  0x11, 0x00, 0x00, 0x00, 0x03, 0x00, 0x00, 0x00, 0x10, 0x00, 0x00, 0x00,
  0x0f, 0x00, 0x00, 0x00, 0x0e, 0x00, 0x00, 0x00, 0x00, 0x00, 0x0a, 0x00,
  0x0c, 0x00, 0x00, 0x00, 0x08, 0x00, 0x04, 0x00, 0x0a, 0x00, 0x00, 0x00,
  0x08, 0x00, 0x00, 0x00, 0x0c, 0x00, 0x00, 0x00, 0x01, 0x00, 0x00, 0x00,
  0x10, 0x00, 0x00, 0x00, 0x02, 0x00, 0x00, 0x00, 0x00, 0x00, 0x00, 0x00,
  0x01, 0x00, 0x00, 0x00, 0x01, 0x00, 0x00, 0x00, 0x1e, 0x00, 0x00, 0x00,
  0x01, 0x00, 0x00, 0x00, 0x00, 0x00, 0x00, 0x00, 0x1f, 0x00, 0x00, 0x00,
  0xf0, 0x13, 0x00, 0x00, 0x80, 0x13, 0x00, 0x00, 0x2c, 0x13, 0x00, 0x00,
  0xd4, 0x12, 0x00, 0x00, 0x7c, 0x12, 0x00, 0x00, 0x24, 0x12, 0x00, 0x00,
  0xcc, 0x11, 0x00, 0x00, 0x80, 0x11, 0x00, 0x00, 0x04, 0x11, 0x00, 0x00,
  0x98, 0x10, 0x00, 0x00, 0xcc, 0x0f, 0x00, 0x00, 0x00, 0x0f, 0x00, 0x00,
  0xd4, 0x0d, 0x00, 0x00, 0xa8, 0x0c, 0x00, 0x00, 0xbc, 0x0a, 0x00, 0x00,
  0xd0, 0x08, 0x00, 0x00, 0x4c, 0x08, 0x00, 0x00, 0x60, 0x07, 0x00, 0x00,
  0xdc, 0x06, 0x00, 0x00, 0x60, 0x06, 0x00, 0x00, 0xdc, 0x05, 0x00, 0x00,
  0xe0, 0x04, 0x00, 0x00, 0x5c, 0x04, 0x00, 0x00, 0xe0, 0x03, 0x00, 0x00,
  0x5c, 0x03, 0x00, 0x00, 0x60, 0x02, 0x00, 0x00, 0xdc, 0x01, 0x00, 0x00,
  0x60, 0x01, 0x00, 0x00, 0xf4, 0x00, 0x00, 0x00, 0x70, 0x00, 0x00, 0x00,
  0x04, 0x00, 0x00, 0x00, 0xa2, 0xec, 0xff, 0xff, 0x00, 0x00, 0x00, 0x01,
  0x14, 0x00, 0x00, 0x00, 0x30, 0x00, 0x00, 0x00, 0x1f, 0x00, 0x00, 0x00,
  0x00, 0x00, 0x00, 0x09, 0x44, 0x00, 0x00, 0x00, 0x8c, 0xec, 0xff, 0xff,
  0x08, 0x00, 0x00, 0x00, 0x10, 0x00, 0x00, 0x00, 0x01, 0x00, 0x00, 0x00,
  0x80, 0xff, 0xff, 0xff, 0xff, 0xff, 0xff, 0xff, 0x01, 0x00, 0x00, 0x00,
  0x00, 0x00, 0x80, 0x3b, 0x19, 0x00, 0x00, 0x00, 0x53, 0x74, 0x61, 0x74,
  0x65, 0x66, 0x75, 0x6c, 0x50, 0x61, 0x72, 0x74, 0x69, 0x74, 0x69, 0x6f,
  0x6e, 0x65, 0x64, 0x43, 0x61, 0x6c, 0x6c, 0x3a, 0x30, 0x00, 0x00, 0x00,
  0x02, 0x00, 0x00, 0x00, 0x01, 0x00, 0x00, 0x00, 0x04, 0x00, 0x00, 0x00,
  0x0a, 0xed, 0xff, 0xff, 0x00, 0x00, 0x00, 0x01, 0x14, 0x00, 0x00, 0x00,
  0x30, 0x00, 0x00, 0x00, 0x1e, 0x00, 0x00, 0x00, 0x00, 0x00, 0x00, 0x09,
  0x5c, 0x00, 0x00, 0x00, 0xf4, 0xec, 0xff, 0xff, 0x08, 0x00, 0x00, 0x00,
  0x10, 0x00, 0x00, 0x00, 0x01, 0x00, 0x00, 0x00, 0x12, 0x00, 0x00, 0x00,
  0x00, 0x00, 0x00, 0x00, 0x01, 0x00, 0x00, 0x00, 0x01, 0xac, 0x16, 0x3e,
  0x32, 0x00, 0x00, 0x00, 0x73, 0x65, 0x71, 0x75, 0x65, 0x6e, 0x74, 0x69,
  0x61, 0x6c, 0x2f, 0x79, 0x5f, 0x70, 0x72, 0x65, 0x64, 0x2f, 0x4d, 0x61,
  0x74, 0x4d, 0x75, 0x6c, 0x3b, 0x73, 0x65, 0x71, 0x75, 0x65, 0x6e, 0x74,
  0x69, 0x61, 0x6c, 0x2f, 0x79, 0x5f, 0x70, 0x72, 0x65, 0x64, 0x2f, 0x42,
  0x69, 0x61, 0x73, 0x41, 0x64, 0x64, 0x00, 0x00, 0x02, 0x00, 0x00, 0x00,
  0x01, 0x00, 0x00, 0x00, 0x04, 0x00, 0x00, 0x00, 0x8a, 0xed, 0xff, 0xff,
  0x00, 0x00, 0x00, 0x01, 0x14, 0x00, 0x00, 0x00, 0x30, 0x00, 0x00, 0x00,
  0x1d, 0x00, 0x00, 0x00, 0x00, 0x00, 0x00, 0x09, 0x44, 0x00, 0x00, 0x00,
  0x74, 0xed, 0xff, 0xff, 0x08, 0x00, 0x00, 0x00, 0x10, 0x00, 0x00, 0x00,
  0x01, 0x00, 0x00, 0x00, 0x80, 0xff, 0xff, 0xff, 0xff, 0xff, 0xff, 0xff,
  0x01, 0x00, 0x00, 0x00, 0x0c, 0x50, 0x90, 0x3d, 0x1a, 0x00, 0x00, 0x00,
  0x73, 0x65, 0x71, 0x75, 0x65, 0x6e, 0x74, 0x69, 0x61, 0x6c, 0x2f, 0x66,
  0x6c, 0x61, 0x74, 0x74, 0x65, 0x6e, 0x2f, 0x52, 0x65, 0x73, 0x68, 0x61,
  0x70, 0x65, 0x00, 0x00, 0x02, 0x00, 0x00, 0x00, 0x01, 0x00, 0x00, 0x00,
  0x38, 0x00, 0x00, 0x00, 0xf2, 0xed, 0xff, 0xff, 0x00, 0x00, 0x00, 0x01,
  0x14, 0x00, 0x00, 0x00, 0x30, 0x00, 0x00, 0x00, 0x1c, 0x00, 0x00, 0x00,
  0x00, 0x00, 0x00, 0x09, 0x4c, 0x00, 0x00, 0x00, 0xdc, 0xed, 0xff, 0xff,
  0x08, 0x00, 0x00, 0x00, 0x10, 0x00, 0x00, 0x00, 0x01, 0x00, 0x00, 0x00,
  0x80, 0xff, 0xff, 0xff, 0xff, 0xff, 0xff, 0xff, 0x01, 0x00, 0x00, 0x00,
  0x0c, 0x50, 0x90, 0x3d, 0x22, 0x00, 0x00, 0x00, 0x73, 0x65, 0x71, 0x75,
  0x65, 0x6e, 0x74, 0x69, 0x61, 0x6c, 0x2f, 0x6d, 0x61, 0x78, 0x5f, 0x70,
  0x6f, 0x6f, 0x6c, 0x69, 0x6e, 0x67, 0x31, 0x64, 0x5f, 0x32, 0x2f, 0x4d,
  0x61, 0x78, 0x50, 0x6f, 0x6f, 0x6c, 0x00, 0x00, 0x04, 0x00, 0x00, 0x00,
  0x01, 0x00, 0x00, 0x00, 0x07, 0x00, 0x00, 0x00, 0x01, 0x00, 0x00, 0x00,
  0x08, 0x00, 0x00, 0x00, 0x6a, 0xee, 0xff, 0xff, 0x00, 0x00, 0x00, 0x01,
  0x14, 0x00, 0x00, 0x00, 0x34, 0x00, 0x00, 0x00, 0x1b, 0x00, 0x00, 0x00,
  0x00, 0x00, 0x00, 0x09, 0x54, 0x00, 0x00, 0x00, 0x54, 0xee, 0xff, 0xff,
  0x08, 0x00, 0x00, 0x00, 0x14, 0x00, 0x00, 0x00, 0x01, 0x00, 0x00, 0x00,
  0x80, 0xff, 0xff, 0xff, 0xff, 0xff, 0xff, 0xff, 0x00, 0x00, 0x00, 0x00,
  0x01, 0x00, 0x00, 0x00, 0x0c, 0x50, 0x90, 0x3d, 0x26, 0x00, 0x00, 0x00,
  0x73, 0x65, 0x71, 0x75, 0x65, 0x6e, 0x74, 0x69, 0x61, 0x6c, 0x2f, 0x6d,
  0x61, 0x78, 0x5f, 0x70, 0x6f, 0x6f, 0x6c, 0x69, 0x6e, 0x67, 0x31, 0x64,
  0x5f, 0x32, 0x2f, 0x45, 0x78, 0x70, 0x61, 0x6e, 0x64, 0x44, 0x69, 0x6d,
  0x73, 0x31, 0x00, 0x00, 0x04, 0x00, 0x00, 0x00, 0x01, 0x00, 0x00, 0x00,
  0x0d, 0x00, 0x00, 0x00, 0x01, 0x00, 0x00, 0x00, 0x08, 0x00, 0x00, 0x00,
  0xea, 0xee, 0xff, 0xff, 0x00, 0x00, 0x00, 0x01, 0x14, 0x00, 0x00, 0x00,
  0x34, 0x00, 0x00, 0x00, 0x1a, 0x00, 0x00, 0x00, 0x00, 0x00, 0x00, 0x09,
  0xcc, 0x00, 0x00, 0x00, 0xd4, 0xee, 0xff, 0xff, 0x08, 0x00, 0x00, 0x00,
  0x14, 0x00, 0x00, 0x00, 0x01, 0x00, 0x00, 0x00, 0x80, 0xff, 0xff, 0xff,
  0xff, 0xff, 0xff, 0xff, 0x00, 0x00, 0x00, 0x00, 0x01, 0x00, 0x00, 0x00,
  0x0c, 0x50, 0x90, 0x3d, 0x9d, 0x00, 0x00, 0x00, 0x73, 0x65, 0x71, 0x75,
  0x65, 0x6e, 0x74, 0x69, 0x61, 0x6c, 0x2f, 0x63, 0x6f, 0x6e, 0x76, 0x31,
  0x64, 0x5f, 0x32, 0x2f, 0x52, 0x65, 0x6c, 0x75, 0x3b, 0x73, 0x65, 0x71,
  0x75, 0x65, 0x6e, 0x74, 0x69, 0x61, 0x6c, 0x2f, 0x63, 0x6f, 0x6e, 0x76,
  0x31, 0x64, 0x5f, 0x32, 0x2f, 0x42, 0x69, 0x61, 0x73, 0x41, 0x64, 0x64,
  0x3b, 0x73, 0x65, 0x71, 0x75, 0x65, 0x6e, 0x74, 0x69, 0x61, 0x6c, 0x2f,
  0x63, 0x6f, 0x6e, 0x76, 0x31, 0x64, 0x5f, 0x32, 0x2f, 0x43, 0x6f, 0x6e,
  0x76, 0x31, 0x44, 0x2f, 0x53, 0x71, 0x75, 0x65, 0x65, 0x7a, 0x65, 0x3b,
  0x73, 0x65, 0x71, 0x75, 0x65, 0x6e, 0x74, 0x69, 0x61, 0x6c, 0x2f, 0x63,
  0x6f, 0x6e, 0x76, 0x31, 0x64, 0x5f, 0x32, 0x2f, 0x42, 0x69, 0x61, 0x73,
  0x41, 0x64, 0x64, 0x2f, 0x52, 0x65, 0x61, 0x64, 0x56, 0x61, 0x72, 0x69,
  0x61, 0x62, 0x6c, 0x65, 0x4f, 0x70, 0x3b, 0x73, 0x65, 0x71, 0x75, 0x65,
  0x6e, 0x74, 0x69, 0x61, 0x6c, 0x2f, 0x63, 0x6f, 0x6e, 0x76, 0x31, 0x64,
  0x5f, 0x32, 0x2f, 0x43, 0x6f, 0x6e, 0x76, 0x31, 0x44, 0x00, 0x00, 0x00,
  0x04, 0x00, 0x00, 0x00, 0x01, 0x00, 0x00, 0x00, 0x01, 0x00, 0x00, 0x00,
  0x0d, 0x00, 0x00, 0x00, 0x08, 0x00, 0x00, 0x00, 0xe2, 0xef, 0xff, 0xff,
  0x00, 0x00, 0x00, 0x01, 0x14, 0x00, 0x00, 0x00, 0x34, 0x00, 0x00, 0x00,
  0x19, 0x00, 0x00, 0x00, 0x00, 0x00, 0x00, 0x09, 0x54, 0x00, 0x00, 0x00,
  0xcc, 0xef, 0xff, 0xff, 0x08, 0x00, 0x00, 0x00, 0x14, 0x00, 0x00, 0x00,
  0x01, 0x00, 0x00, 0x00, 0x80, 0xff, 0xff, 0xff, 0xff, 0xff, 0xff, 0xff,
  0x00, 0x00, 0x00, 0x00, 0x01, 0x00, 0x00, 0x00, 0x93, 0x51, 0x9f, 0x3d,
  0x26, 0x00, 0x00, 0x00, 0x73, 0x65, 0x71, 0x75, 0x65, 0x6e, 0x74, 0x69,
  0x61, 0x6c, 0x2f, 0x63, 0x6f, 0x6e, 0x76, 0x31, 0x64, 0x5f, 0x32, 0x2f,
  0x43, 0x6f, 0x6e, 0x76, 0x31, 0x44, 0x2f, 0x45, 0x78, 0x70, 0x61, 0x6e,
  0x64, 0x44, 0x69, 0x6d, 0x73, 0x31, 0x00, 0x00, 0x04, 0x00, 0x00, 0x00,
  0x01, 0x00, 0x00, 0x00, 0x01, 0x00, 0x00, 0x00, 0x0d, 0x00, 0x00, 0x00,
  0x10, 0x00, 0x00, 0x00, 0x62, 0xf0, 0xff, 0xff, 0x00, 0x00, 0x00, 0x01,
  0x14, 0x00, 0x00, 0x00, 0x30, 0x00, 0x00, 0x00, 0x18, 0x00, 0x00, 0x00,
  0x00, 0x00, 0x00, 0x09, 0x4c, 0x00, 0x00, 0x00, 0x4c, 0xf0, 0xff, 0xff,
  0x08, 0x00, 0x00, 0x00, 0x10, 0x00, 0x00, 0x00, 0x01, 0x00, 0x00, 0x00,
  0x80, 0xff, 0xff, 0xff, 0xff, 0xff, 0xff, 0xff, 0x01, 0x00, 0x00, 0x00,
  0x93, 0x51, 0x9f, 0x3d, 0x22, 0x00, 0x00, 0x00, 0x73, 0x65, 0x71, 0x75,
  0x65, 0x6e, 0x74, 0x69, 0x61, 0x6c, 0x2f, 0x6d, 0x61, 0x78, 0x5f, 0x70,
  0x6f, 0x6f, 0x6c, 0x69, 0x6e, 0x67, 0x31, 0x64, 0x5f, 0x31, 0x2f, 0x4d,
  0x61, 0x78, 0x50, 0x6f, 0x6f, 0x6c, 0x00, 0x00, 0x04, 0x00, 0x00, 0x00,
  0x01, 0x00, 0x00, 0x00, 0x0d, 0x00, 0x00, 0x00, 0x01, 0x00, 0x00, 0x00,
  0x10, 0x00, 0x00, 0x00, 0xda, 0xf0, 0xff, 0xff, 0x00, 0x00, 0x00, 0x01,
  0x14, 0x00, 0x00, 0x00, 0x34, 0x00, 0x00, 0x00, 0x17, 0x00, 0x00, 0x00,
  0x00, 0x00, 0x00, 0x09, 0x54, 0x00, 0x00, 0x00, 0xc4, 0xf0, 0xff, 0xff,
  0x08, 0x00, 0x00, 0x00, 0x14, 0x00, 0x00, 0x00, 0x01, 0x00, 0x00, 0x00,
  0x80, 0xff, 0xff, 0xff, 0xff, 0xff, 0xff, 0xff, 0x00, 0x00, 0x00, 0x00,
  0x01, 0x00, 0x00, 0x00, 0x93, 0x51, 0x9f, 0x3d, 0x26, 0x00, 0x00, 0x00,
  0x73, 0x65, 0x71, 0x75, 0x65, 0x6e, 0x74, 0x69, 0x61, 0x6c, 0x2f, 0x6d,
  0x61, 0x78, 0x5f, 0x70, 0x6f, 0x6f, 0x6c, 0x69, 0x6e, 0x67, 0x31, 0x64,
  0x5f, 0x31, 0x2f, 0x45, 0x78, 0x70, 0x61, 0x6e, 0x64, 0x44, 0x69, 0x6d,
  0x73, 0x31, 0x00, 0x00, 0x04, 0x00, 0x00, 0x00, 0x01, 0x00, 0x00, 0x00,
  0x19, 0x00, 0x00, 0x00, 0x01, 0x00, 0x00, 0x00, 0x10, 0x00, 0x00, 0x00,
  0x5a, 0xf1, 0xff, 0xff, 0x00, 0x00, 0x00, 0x01, 0x14, 0x00, 0x00, 0x00,
  0x34, 0x00, 0x00, 0x00, 0x16, 0x00, 0x00, 0x00, 0x00, 0x00, 0x00, 0x09,
  0xcc, 0x00, 0x00, 0x00, 0x44, 0xf1, 0xff, 0xff, 0x08, 0x00, 0x00, 0x00,
  0x14, 0x00, 0x00, 0x00, 0x01, 0x00, 0x00, 0x00, 0x80, 0xff, 0xff, 0xff,
  0xff, 0xff, 0xff, 0xff, 0x00, 0x00, 0x00, 0x00, 0x01, 0x00, 0x00, 0x00,
  0x93, 0x51, 0x9f, 0x3d, 0x9d, 0x00, 0x00, 0x00, 0x73, 0x65, 0x71, 0x75,
  0x65, 0x6e, 0x74, 0x69, 0x61, 0x6c, 0x2f, 0x63, 0x6f, 0x6e, 0x76, 0x31,
  0x64, 0x5f, 0x31, 0x2f, 0x52, 0x65, 0x6c, 0x75, 0x3b, 0x73, 0x65, 0x71,
  0x75, 0x65, 0x6e, 0x74, 0x69, 0x61, 0x6c, 0x2f, 0x63, 0x6f, 0x6e, 0x76,
  0x31, 0x64, 0x5f, 0x31, 0x2f, 0x42, 0x69, 0x61, 0x73, 0x41, 0x64, 0x64,
  0x3b, 0x73, 0x65, 0x71, 0x75, 0x65, 0x6e, 0x74, 0x69, 0x61, 0x6c, 0x2f,
  0x63, 0x6f, 0x6e, 0x76, 0x31, 0x64, 0x5f, 0x31, 0x2f, 0x43, 0x6f, 0x6e,
  0x76, 0x31, 0x44, 0x2f, 0x53, 0x71, 0x75, 0x65, 0x65, 0x7a, 0x65, 0x3b,
  0x73, 0x65, 0x71, 0x75, 0x65, 0x6e, 0x74, 0x69, 0x61, 0x6c, 0x2f, 0x63,
  0x6f, 0x6e, 0x76, 0x31, 0x64, 0x5f, 0x31, 0x2f, 0x42, 0x69, 0x61, 0x73,
  0x41, 0x64, 0x64, 0x2f, 0x52, 0x65, 0x61, 0x64, 0x56, 0x61, 0x72, 0x69,
  0x61, 0x62, 0x6c, 0x65, 0x4f, 0x70, 0x3b, 0x73, 0x65, 0x71, 0x75, 0x65,
  0x6e, 0x74, 0x69, 0x61, 0x6c, 0x2f, 0x63, 0x6f, 0x6e, 0x76, 0x31, 0x64,
  0x5f, 0x31, 0x2f, 0x43, 0x6f, 0x6e, 0x76, 0x31, 0x44, 0x00, 0x00, 0x00,
  0x04, 0x00, 0x00, 0x00, 0x01, 0x00, 0x00, 0x00, 0x01, 0x00, 0x00, 0x00,
  0x19, 0x00, 0x00, 0x00, 0x10, 0x00, 0x00, 0x00, 0x52, 0xf2, 0xff, 0xff,
  0x00, 0x00, 0x00, 0x01, 0x14, 0x00, 0x00, 0x00, 0x34, 0x00, 0x00, 0x00,
  0x15, 0x00, 0x00, 0x00, 0x00, 0x00, 0x00, 0x09, 0x54, 0x00, 0x00, 0x00,
  0x3c, 0xf2, 0xff, 0xff, 0x08, 0x00, 0x00, 0x00, 0x14, 0x00, 0x00, 0x00,
  0x01, 0x00, 0x00, 0x00, 0x80, 0xff, 0xff, 0xff, 0xff, 0xff, 0xff, 0xff,
  0x00, 0x00, 0x00, 0x00, 0x01, 0x00, 0x00, 0x00, 0xa0, 0xb1, 0x77, 0x3d,
  0x26, 0x00, 0x00, 0x00, 0x73, 0x65, 0x71, 0x75, 0x65, 0x6e, 0x74, 0x69,
  0x61, 0x6c, 0x2f, 0x63, 0x6f, 0x6e, 0x76, 0x31, 0x64, 0x5f, 0x31, 0x2f,
  0x43, 0x6f, 0x6e, 0x76, 0x31, 0x44, 0x2f, 0x45, 0x78, 0x70, 0x61, 0x6e,
  0x64, 0x44, 0x69, 0x6d, 0x73, 0x31, 0x00, 0x00, 0x04, 0x00, 0x00, 0x00,
  0x01, 0x00, 0x00, 0x00, 0x01, 0x00, 0x00, 0x00, 0x19, 0x00, 0x00, 0x00,
  0x20, 0x00, 0x00, 0x00, 0xd2, 0xf2, 0xff, 0xff, 0x00, 0x00, 0x00, 0x01,
  0x14, 0x00, 0x00, 0x00, 0x30, 0x00, 0x00, 0x00, 0x14, 0x00, 0x00, 0x00,
  0x00, 0x00, 0x00, 0x09, 0x4c, 0x00, 0x00, 0x00, 0xbc, 0xf2, 0xff, 0xff,
  0x08, 0x00, 0x00, 0x00, 0x10, 0x00, 0x00, 0x00, 0x01, 0x00, 0x00, 0x00,
  0x80, 0xff, 0xff, 0xff, 0xff, 0xff, 0xff, 0xff, 0x01, 0x00, 0x00, 0x00,
  0xa0, 0xb1, 0x77, 0x3d, 0x20, 0x00, 0x00, 0x00, 0x73, 0x65, 0x71, 0x75,
  0x65, 0x6e, 0x74, 0x69, 0x61, 0x6c, 0x2f, 0x6d, 0x61, 0x78, 0x5f, 0x70,
  0x6f, 0x6f, 0x6c, 0x69, 0x6e, 0x67, 0x31, 0x64, 0x2f, 0x4d, 0x61, 0x78,
  0x50, 0x6f, 0x6f, 0x6c, 0x00, 0x00, 0x00, 0x00, 0x04, 0x00, 0x00, 0x00,
  0x01, 0x00, 0x00, 0x00, 0x19, 0x00, 0x00, 0x00, 0x01, 0x00, 0x00, 0x00,
  0x20, 0x00, 0x00, 0x00, 0x4a, 0xf3, 0xff, 0xff, 0x00, 0x00, 0x00, 0x01,
  0x14, 0x00, 0x00, 0x00, 0x34, 0x00, 0x00, 0x00, 0x13, 0x00, 0x00, 0x00,
  0x00, 0x00, 0x00, 0x09, 0x54, 0x00, 0x00, 0x00, 0x34, 0xf3, 0xff, 0xff,
  0x08, 0x00, 0x00, 0x00, 0x14, 0x00, 0x00, 0x00, 0x01, 0x00, 0x00, 0x00,
  0x80, 0xff, 0xff, 0xff, 0xff, 0xff, 0xff, 0xff, 0x00, 0x00, 0x00, 0x00,
  0x01, 0x00, 0x00, 0x00, 0xa0, 0xb1, 0x77, 0x3d, 0x24, 0x00, 0x00, 0x00,
  0x73, 0x65, 0x71, 0x75, 0x65, 0x6e, 0x74, 0x69, 0x61, 0x6c, 0x2f, 0x6d,
  0x61, 0x78, 0x5f, 0x70, 0x6f, 0x6f, 0x6c, 0x69, 0x6e, 0x67, 0x31, 0x64,
  0x2f, 0x45, 0x78, 0x70, 0x61, 0x6e, 0x64, 0x44, 0x69, 0x6d, 0x73, 0x31,
  0x00, 0x00, 0x00, 0x00, 0x04, 0x00, 0x00, 0x00, 0x01, 0x00, 0x00, 0x00,
  0x32, 0x00, 0x00, 0x00, 0x01, 0x00, 0x00, 0x00, 0x20, 0x00, 0x00, 0x00,
  0xca, 0xf3, 0xff, 0xff, 0x00, 0x00, 0x00, 0x01, 0x14, 0x00, 0x00, 0x00,
  0x30, 0x00, 0x00, 0x00, 0x12, 0x00, 0x00, 0x00, 0x00, 0x00, 0x00, 0x09,
  0xbc, 0x00, 0x00, 0x00, 0xb4, 0xf3, 0xff, 0xff, 0x08, 0x00, 0x00, 0x00,
  0x10, 0x00, 0x00, 0x00, 0x01, 0x00, 0x00, 0x00, 0x80, 0xff, 0xff, 0xff,
  0xff, 0xff, 0xff, 0xff, 0x01, 0x00, 0x00, 0x00, 0xa0, 0xb1, 0x77, 0x3d,
  0x93, 0x00, 0x00, 0x00, 0x73, 0x65, 0x71, 0x75, 0x65, 0x6e, 0x74, 0x69,
  0x61, 0x6c, 0x2f, 0x63, 0x6f, 0x6e, 0x76, 0x31, 0x64, 0x2f, 0x52, 0x65,
  0x6c, 0x75, 0x3b, 0x73, 0x65, 0x71, 0x75, 0x65, 0x6e, 0x74, 0x69, 0x61,
  0x6c, 0x2f, 0x63, 0x6f, 0x6e, 0x76, 0x31, 0x64, 0x2f, 0x42, 0x69, 0x61,
  0x73, 0x41, 0x64, 0x64, 0x3b, 0x73, 0x65, 0x71, 0x75, 0x65, 0x6e, 0x74,
  0x69, 0x61, 0x6c, 0x2f, 0x63, 0x6f, 0x6e, 0x76, 0x31, 0x64, 0x2f, 0x43,
  0x6f, 0x6e, 0x76, 0x31, 0x44, 0x2f, 0x53, 0x71, 0x75, 0x65, 0x65, 0x7a,
  0x65, 0x3b, 0x73, 0x65, 0x71, 0x75, 0x65, 0x6e, 0x74, 0x69, 0x61, 0x6c,
  0x2f, 0x63, 0x6f, 0x6e, 0x76, 0x31, 0x64, 0x2f, 0x42, 0x69, 0x61, 0x73,
  0x41, 0x64, 0x64, 0x2f, 0x52, 0x65, 0x61, 0x64, 0x56, 0x61, 0x72, 0x69,
  0x61, 0x62, 0x6c, 0x65, 0x4f, 0x70, 0x3b, 0x73, 0x65, 0x71, 0x75, 0x65,
  0x6e, 0x74, 0x69, 0x61, 0x6c, 0x2f, 0x63, 0x6f, 0x6e, 0x76, 0x31, 0x64,
  0x2f, 0x43, 0x6f, 0x6e, 0x76, 0x31, 0x44, 0x00, 0x04, 0x00, 0x00, 0x00,
  0x01, 0x00, 0x00, 0x00, 0x01, 0x00, 0x00, 0x00, 0x32, 0x00, 0x00, 0x00,
  0x20, 0x00, 0x00, 0x00, 0xb2, 0xf4, 0xff, 0xff, 0x00, 0x00, 0x00, 0x01,
  0x14, 0x00, 0x00, 0x00, 0x34, 0x00, 0x00, 0x00, 0x11, 0x00, 0x00, 0x00,
  0x00, 0x00, 0x00, 0x09, 0x54, 0x00, 0x00, 0x00, 0x9c, 0xf4, 0xff, 0xff,
  0x08, 0x00, 0x00, 0x00, 0x14, 0x00, 0x00, 0x00, 0x01, 0x00, 0x00, 0x00,
  0x00, 0x00, 0x00, 0x00, 0x00, 0x00, 0x00, 0x00, 0x00, 0x00, 0x00, 0x00,
  0x01, 0x00, 0x00, 0x00, 0x81, 0x58, 0x5f, 0x3d, 0x24, 0x00, 0x00, 0x00,
  0x73, 0x65, 0x71, 0x75, 0x65, 0x6e, 0x74, 0x69, 0x61, 0x6c, 0x2f, 0x63,
  0x6f, 0x6e, 0x76, 0x31, 0x64, 0x2f, 0x43, 0x6f, 0x6e, 0x76, 0x31, 0x44,
  0x2f, 0x45, 0x78, 0x70, 0x61, 0x6e, 0x64, 0x44, 0x69, 0x6d, 0x73, 0x31,
  0x00, 0x00, 0x00, 0x00, 0x04, 0x00, 0x00, 0x00, 0x01, 0x00, 0x00, 0x00,
  0x01, 0x00, 0x00, 0x00, 0x32, 0x00, 0x00, 0x00, 0x0d, 0x00, 0x00, 0x00,
  0x32, 0xf5, 0xff, 0xff, 0x00, 0x00, 0x00, 0x01, 0x14, 0x00, 0x00, 0x00,
  0xa8, 0x01, 0x00, 0x00, 0x10, 0x00, 0x00, 0x00, 0x00, 0x00, 0x00, 0x09,
  0xbc, 0x01, 0x00, 0x00, 0x1c, 0xf5, 0xff, 0xff, 0x08, 0x00, 0x00, 0x00,
  0x0c, 0x01, 0x00, 0x00, 0x20, 0x00, 0x00, 0x00, 0x00, 0x00, 0x00, 0x00,
  0x00, 0x00, 0x00, 0x00, 0x00, 0x00, 0x00, 0x00, 0x00, 0x00, 0x00, 0x00,
  0x00, 0x00, 0x00, 0x00, 0x00, 0x00, 0x00, 0x00, 0x00, 0x00, 0x00, 0x00,
  0x00, 0x00, 0x00, 0x00, 0x00, 0x00, 0x00, 0x00, 0x00, 0x00, 0x00, 0x00,
  0x00, 0x00, 0x00, 0x00, 0x00, 0x00, 0x00, 0x00, 0x00, 0x00, 0x00, 0x00,
  0x00, 0x00, 0x00, 0x00, 0x00, 0x00, 0x00, 0x00, 0x00, 0x00, 0x00, 0x00,
  0x00, 0x00, 0x00, 0x00, 0x00, 0x00, 0x00, 0x00, 0x00, 0x00, 0x00, 0x00,
  0x00, 0x00, 0x00, 0x00, 0x00, 0x00, 0x00, 0x00, 0x00, 0x00, 0x00, 0x00,
  0x00, 0x00, 0x00, 0x00, 0x00, 0x00, 0x00, 0x00, 0x00, 0x00, 0x00, 0x00,
  0x00, 0x00, 0x00, 0x00, 0x00, 0x00, 0x00, 0x00, 0x00, 0x00, 0x00, 0x00,
  0x00, 0x00, 0x00, 0x00, 0x00, 0x00, 0x00, 0x00, 0x00, 0x00, 0x00, 0x00,
  0x00, 0x00, 0x00, 0x00, 0x00, 0x00, 0x00, 0x00, 0x00, 0x00, 0x00, 0x00,
  0x00, 0x00, 0x00, 0x00, 0x00, 0x00, 0x00, 0x00, 0x00, 0x00, 0x00, 0x00,
  0x00, 0x00, 0x00, 0x00, 0x00, 0x00, 0x00, 0x00, 0x00, 0x00, 0x00, 0x00,
  0x00, 0x00, 0x00, 0x00, 0x00, 0x00, 0x00, 0x00, 0x00, 0x00, 0x00, 0x00,
  0x00, 0x00, 0x00, 0x00, 0x00, 0x00, 0x00, 0x00, 0x00, 0x00, 0x00, 0x00,
  0x00, 0x00, 0x00, 0x00, 0x00, 0x00, 0x00, 0x00, 0x00, 0x00, 0x00, 0x00,
  0x00, 0x00, 0x00, 0x00, 0x00, 0x00, 0x00, 0x00, 0x00, 0x00, 0x00, 0x00,
  0x00, 0x00, 0x00, 0x00, 0x00, 0x00, 0x00, 0x00, 0x00, 0x00, 0x00, 0x00,
  0x00, 0x00, 0x00, 0x00, 0x00, 0x00, 0x00, 0x00, 0x00, 0x00, 0x00, 0x00,
  0x00, 0x00, 0x00, 0x00, 0x00, 0x00, 0x00, 0x00, 0x00, 0x00, 0x00, 0x00,
  0x00, 0x00, 0x00, 0x00, 0x00, 0x00, 0x00, 0x00, 0x00, 0x00, 0x00, 0x00,
  0x00, 0x00, 0x00, 0x00, 0x20, 0x00, 0x00, 0x00, 0x74, 0x2d, 0xe4, 0x3b,
  0xc4, 0xb3, 0x2a, 0x3c, 0x44, 0x1d, 0xc2, 0x3b, 0x19, 0x09, 0x1a, 0x3c,
  0xfb, 0x14, 0xc3, 0x3b, 0xc8, 0x19, 0xaa, 0x3b, 0xb2, 0xea, 0x3f, 0x3c,
  0x4a, 0x62, 0xd1, 0x3b, 0x80, 0x2e, 0x7d, 0x3b, 0x53, 0xd2, 0x34, 0x3c,
  0x85, 0xbc, 0x89, 0x3b, 0xbf, 0xe5, 0xb2, 0x3b, 0x83, 0x72, 0x9b, 0x3b,
  0x3a, 0xcb, 0xde, 0x3b, 0x92, 0x66, 0xa4, 0x3b, 0xf0, 0x2b, 0xca, 0x3b,
  0x39, 0xd5, 0x84, 0x3c, 0x20, 0xe4, 0x16, 0x3c, 0xf0, 0xfb, 0xc4, 0x3b,
  0x2e, 0x5d, 0x6e, 0x3b, 0x30, 0xf0, 0x9a, 0x3b, 0xdb, 0xf4, 0xd9, 0x3b,
  0xf0, 0x3c, 0x5a, 0x3c, 0x1a, 0x23, 0xa0, 0x3b, 0xb6, 0xb1, 0xec, 0x3b,
  0x4e, 0x5f, 0x79, 0x3b, 0xa3, 0x6a, 0x88, 0x3b, 0x8c, 0x20, 0xb7, 0x3b,
  0x05, 0x79, 0x91, 0x3b, 0x8e, 0x0c, 0x4a, 0x3b, 0xa5, 0x4e, 0xac, 0x3b,
  0x7d, 0x58, 0xbb, 0x3b, 0x18, 0x00, 0x00, 0x00, 0x73, 0x65, 0x71, 0x75,
  0x65, 0x6e, 0x74, 0x69, 0x61, 0x6c, 0x2f, 0x63, 0x6f, 0x6e, 0x76, 0x31,
  0x64, 0x2f, 0x43, 0x6f, 0x6e, 0x76, 0x31, 0x44, 0x00, 0x00, 0x00, 0x00,
  0x04, 0x00, 0x00, 0x00, 0x20, 0x00, 0x00, 0x00, 0x01, 0x00, 0x00, 0x00,
  0x03, 0x00, 0x00, 0x00, 0x0d, 0x00, 0x00, 0x00, 0x1a, 0xf7, 0xff, 0xff,
  0x00, 0x00, 0x00, 0x01, 0x14, 0x00, 0x00, 0x00, 0xa4, 0x01, 0x00, 0x00,
  0x0f, 0x00, 0x00, 0x00, 0x00, 0x00, 0x00, 0x02, 0xc8, 0x01, 0x00, 0x00,
  0x04, 0xf7, 0xff, 0xff, 0x08, 0x00, 0x00, 0x00, 0x08, 0x01, 0x00, 0x00,
  0x20, 0x00, 0x00, 0x00, 0x00, 0x00, 0x00, 0x00, 0x00, 0x00, 0x00, 0x00,
  0x00, 0x00, 0x00, 0x00, 0x00, 0x00, 0x00, 0x00, 0x00, 0x00, 0x00, 0x00,
  0x00, 0x00, 0x00, 0x00, 0x00, 0x00, 0x00, 0x00, 0x00, 0x00, 0x00, 0x00,
  0x00, 0x00, 0x00, 0x00, 0x00, 0x00, 0x00, 0x00, 0x00, 0x00, 0x00, 0x00,
  0x00, 0x00, 0x00, 0x00, 0x00, 0x00, 0x00, 0x00, 0x00, 0x00, 0x00, 0x00,
  0x00, 0x00, 0x00, 0x00, 0x00, 0x00, 0x00, 0x00, 0x00, 0x00, 0x00, 0x00,
  0x00, 0x00, 0x00, 0x00, 0x00, 0x00, 0x00, 0x00, 0x00, 0x00, 0x00, 0x00,
  0x00, 0x00, 0x00, 0x00, 0x00, 0x00, 0x00, 0x00, 0x00, 0x00, 0x00, 0x00,
  0x00, 0x00, 0x00, 0x00, 0x00, 0x00, 0x00, 0x00, 0x00, 0x00, 0x00, 0x00,
  0x00, 0x00, 0x00, 0x00, 0x00, 0x00, 0x00, 0x00, 0x00, 0x00, 0x00, 0x00,
  0x00, 0x00, 0x00, 0x00, 0x00, 0x00, 0x00, 0x00, 0x00, 0x00, 0x00, 0x00,
  0x00, 0x00, 0x00, 0x00, 0x00, 0x00, 0x00, 0x00, 0x00, 0x00, 0x00, 0x00,
  0x00, 0x00, 0x00, 0x00, 0x00, 0x00, 0x00, 0x00, 0x00, 0x00, 0x00, 0x00,
  0x00, 0x00, 0x00, 0x00, 0x00, 0x00, 0x00, 0x00, 0x00, 0x00, 0x00, 0x00,
  0x00, 0x00, 0x00, 0x00, 0x00, 0x00, 0x00, 0x00, 0x00, 0x00, 0x00, 0x00,
  0x00, 0x00, 0x00, 0x00, 0x00, 0x00, 0x00, 0x00, 0x00, 0x00, 0x00, 0x00,
  0x00, 0x00, 0x00, 0x00, 0x00, 0x00, 0x00, 0x00, 0x00, 0x00, 0x00, 0x00,
  0x00, 0x00, 0x00, 0x00, 0x00, 0x00, 0x00, 0x00, 0x00, 0x00, 0x00, 0x00,
  0x00, 0x00, 0x00, 0x00, 0x00, 0x00, 0x00, 0x00, 0x00, 0x00, 0x00, 0x00,
  0x00, 0x00, 0x00, 0x00, 0x00, 0x00, 0x00, 0x00, 0x00, 0x00, 0x00, 0x00,
  0x00, 0x00, 0x00, 0x00, 0x00, 0x00, 0x00, 0x00, 0x00, 0x00, 0x00, 0x00,
  0x00, 0x00, 0x00, 0x00, 0x00, 0x00, 0x00, 0x00, 0x20, 0x00, 0x00, 0x00,
  0x7b, 0x12, 0xc7, 0x39, 0x9c, 0xed, 0x14, 0x3a, 0x9a, 0x5a, 0xa9, 0x39,
  0x2e, 0x63, 0x06, 0x3a, 0xb8, 0x32, 0xaa, 0x39, 0x44, 0x67, 0x94, 0x39,
  0xca, 0x6f, 0x27, 0x3a, 0x02, 0xad, 0xb6, 0x39, 0x09, 0xe3, 0x5c, 0x39,
  0xba, 0xc1, 0x1d, 0x3a, 0xac, 0x55, 0x70, 0x39, 0xfb, 0x13, 0x9c, 0x39,
  0x7e, 0x9e, 0x87, 0x39, 0x0e, 0x60, 0xc2, 0x39, 0x2f, 0x6e, 0x8f, 0x39,
  0x2b, 0x62, 0xb0, 0x39, 0x52, 0xc7, 0x67, 0x3a, 0xe2, 0xa4, 0x03, 0x3a,
  0x90, 0xdb, 0xab, 0x39, 0x93, 0xf5, 0x4f, 0x39, 0xca, 0x2c, 0x87, 0x39,
  0xa5, 0x27, 0xbe, 0x39, 0x88, 0x66, 0x3e, 0x3a, 0xf0, 0xb5, 0x8b, 0x39,
  0xa2, 0x80, 0xce, 0x39, 0x3b, 0x90, 0x59, 0x39, 0x1b, 0x08, 0x6e, 0x39,
  0xa9, 0xc4, 0x9f, 0x39, 0x6d, 0xd5, 0x7d, 0x39, 0xca, 0x46, 0x30, 0x39,
  0x14, 0x54, 0x96, 0x39, 0xda, 0x72, 0xa3, 0x39, 0x28, 0x00, 0x00, 0x00,
  0x73, 0x65, 0x71, 0x75, 0x65, 0x6e, 0x74, 0x69, 0x61, 0x6c, 0x2f, 0x63,
  0x6f, 0x6e, 0x76, 0x31, 0x64, 0x2f, 0x42, 0x69, 0x61, 0x73, 0x41, 0x64,
  0x64, 0x2f, 0x52, 0x65, 0x61, 0x64, 0x56, 0x61, 0x72, 0x69, 0x61, 0x62,
  0x6c, 0x65, 0x4f, 0x70, 0x00, 0x00, 0x00, 0x00, 0x01, 0x00, 0x00, 0x00,
  0x20, 0x00, 0x00, 0x00, 0x02, 0xf9, 0xff, 0xff, 0x00, 0x00, 0x00, 0x01,
  0x14, 0x00, 0x00, 0x00, 0xe8, 0x00, 0x00, 0x00, 0x0e, 0x00, 0x00, 0x00,
  0x00, 0x00, 0x00, 0x09, 0xfc, 0x00, 0x00, 0x00, 0xec, 0xf8, 0xff, 0xff,
  0x08, 0x00, 0x00, 0x00, 0x8c, 0x00, 0x00, 0x00, 0x10, 0x00, 0x00, 0x00,
  0x00, 0x00, 0x00, 0x00, 0x00, 0x00, 0x00, 0x00, 0x00, 0x00, 0x00, 0x00,
  0x00, 0x00, 0x00, 0x00, 0x00, 0x00, 0x00, 0x00, 0x00, 0x00, 0x00, 0x00,
  0x00, 0x00, 0x00, 0x00, 0x00, 0x00, 0x00, 0x00, 0x00, 0x00, 0x00, 0x00,
  0x00, 0x00, 0x00, 0x00, 0x00, 0x00, 0x00, 0x00, 0x00, 0x00, 0x00, 0x00,
  0x00, 0x00, 0x00, 0x00, 0x00, 0x00, 0x00, 0x00, 0x00, 0x00, 0x00, 0x00,
  0x00, 0x00, 0x00, 0x00, 0x00, 0x00, 0x00, 0x00, 0x00, 0x00, 0x00, 0x00,
  0x00, 0x00, 0x00, 0x00, 0x00, 0x00, 0x00, 0x00, 0x00, 0x00, 0x00, 0x00,
  0x00, 0x00, 0x00, 0x00, 0x00, 0x00, 0x00, 0x00, 0x00, 0x00, 0x00, 0x00,
  0x00, 0x00, 0x00, 0x00, 0x00, 0x00, 0x00, 0x00, 0x00, 0x00, 0x00, 0x00,
  0x00, 0x00, 0x00, 0x00, 0x00, 0x00, 0x00, 0x00, 0x00, 0x00, 0x00, 0x00,
  0x00, 0x00, 0x00, 0x00, 0x00, 0x00, 0x00, 0x00, 0x00, 0x00, 0x00, 0x00,
  0x10, 0x00, 0x00, 0x00, 0x72, 0xeb, 0xed, 0x3b, 0x49, 0x6a, 0x1a, 0x3b,
  0x66, 0x13, 0xf7, 0x3b, 0x1b, 0x30, 0x36, 0x3c, 0xf4, 0x56, 0x7b, 0x3b,
  0xd2, 0xaa, 0xff, 0x3b, 0xa3, 0x4a, 0x1f, 0x3c, 0xb7, 0x57, 0xd6, 0x3b,
  0x43, 0x74, 0x0a, 0x3c, 0x9e, 0xd1, 0xf0, 0x3b, 0xfe, 0x76, 0xf6, 0x3b,
  0xd8, 0x68, 0xfa, 0x3b, 0x5c, 0x9e, 0x0c, 0x3c, 0xcd, 0x8d, 0x9a, 0x3b,
  0x10, 0x8f, 0xb5, 0x3b, 0x03, 0xd4, 0x97, 0x3b, 0x1a, 0x00, 0x00, 0x00,
  0x73, 0x65, 0x71, 0x75, 0x65, 0x6e, 0x74, 0x69, 0x61, 0x6c, 0x2f, 0x63,
  0x6f, 0x6e, 0x76, 0x31, 0x64, 0x5f, 0x31, 0x2f, 0x43, 0x6f, 0x6e, 0x76,
  0x31, 0x44, 0x00, 0x00, 0x04, 0x00, 0x00, 0x00, 0x10, 0x00, 0x00, 0x00,
  0x01, 0x00, 0x00, 0x00, 0x03, 0x00, 0x00, 0x00, 0x20, 0x00, 0x00, 0x00,
  0x2a, 0xfa, 0xff, 0xff, 0x00, 0x00, 0x00, 0x01, 0x14, 0x00, 0x00, 0x00,
  0xe4, 0x00, 0x00, 0x00, 0x0d, 0x00, 0x00, 0x00, 0x00, 0x00, 0x00, 0x02,
  0x08, 0x01, 0x00, 0x00, 0x14, 0xfa, 0xff, 0xff, 0x08, 0x00, 0x00, 0x00,
  0x88, 0x00, 0x00, 0x00, 0x10, 0x00, 0x00, 0x00, 0x00, 0x00, 0x00, 0x00,
  0x00, 0x00, 0x00, 0x00, 0x00, 0x00, 0x00, 0x00, 0x00, 0x00, 0x00, 0x00,
  0x00, 0x00, 0x00, 0x00, 0x00, 0x00, 0x00, 0x00, 0x00, 0x00, 0x00, 0x00,
  0x00, 0x00, 0x00, 0x00, 0x00, 0x00, 0x00, 0x00, 0x00, 0x00, 0x00, 0x00,
  0x00, 0x00, 0x00, 0x00, 0x00, 0x00, 0x00, 0x00, 0x00, 0x00, 0x00, 0x00,
  0x00, 0x00, 0x00, 0x00, 0x00, 0x00, 0x00, 0x00, 0x00, 0x00, 0x00, 0x00,
  0x00, 0x00, 0x00, 0x00, 0x00, 0x00, 0x00, 0x00, 0x00, 0x00, 0x00, 0x00,
  0x00, 0x00, 0x00, 0x00, 0x00, 0x00, 0x00, 0x00, 0x00, 0x00, 0x00, 0x00,
  0x00, 0x00, 0x00, 0x00, 0x00, 0x00, 0x00, 0x00, 0x00, 0x00, 0x00, 0x00,
  0x00, 0x00, 0x00, 0x00, 0x00, 0x00, 0x00, 0x00, 0x00, 0x00, 0x00, 0x00,
  0x00, 0x00, 0x00, 0x00, 0x00, 0x00, 0x00, 0x00, 0x00, 0x00, 0x00, 0x00,
  0x00, 0x00, 0x00, 0x00, 0x10, 0x00, 0x00, 0x00, 0x3f, 0x33, 0xe6, 0x39,
  0xb0, 0x67, 0x15, 0x39, 0x26, 0x0f, 0xef, 0x39, 0xd3, 0x46, 0x30, 0x3a,
  0x4a, 0x2f, 0x73, 0x39, 0x36, 0x5f, 0xf7, 0x39, 0x89, 0x1f, 0x1a, 0x3a,
  0x5a, 0x63, 0xcf, 0x39, 0x3e, 0xf6, 0x05, 0x3a, 0x57, 0x01, 0xe9, 0x39,
  0xd1, 0x77, 0xee, 0x39, 0xe7, 0x48, 0xf2, 0x39, 0x5c, 0x0e, 0x08, 0x3a,
  0x0d, 0x8a, 0x95, 0x39, 0x02, 0xab, 0xaf, 0x39, 0xe7, 0xe6, 0x92, 0x39,
  0x2a, 0x00, 0x00, 0x00, 0x73, 0x65, 0x71, 0x75, 0x65, 0x6e, 0x74, 0x69,
  0x61, 0x6c, 0x2f, 0x63, 0x6f, 0x6e, 0x76, 0x31, 0x64, 0x5f, 0x31, 0x2f,
  0x42, 0x69, 0x61, 0x73, 0x41, 0x64, 0x64, 0x2f, 0x52, 0x65, 0x61, 0x64,
  0x56, 0x61, 0x72, 0x69, 0x61, 0x62, 0x6c, 0x65, 0x4f, 0x70, 0x00, 0x00,
  0x01, 0x00, 0x00, 0x00, 0x10, 0x00, 0x00, 0x00, 0x52, 0xfb, 0xff, 0xff,
  0x00, 0x00, 0x00, 0x01, 0x14, 0x00, 0x00, 0x00, 0x88, 0x00, 0x00, 0x00,
  0x0c, 0x00, 0x00, 0x00, 0x00, 0x00, 0x00, 0x09, 0x9c, 0x00, 0x00, 0x00,
  0x3c, 0xfb, 0xff, 0xff, 0x08, 0x00, 0x00, 0x00, 0x4c, 0x00, 0x00, 0x00,
  0x08, 0x00, 0x00, 0x00, 0x00, 0x00, 0x00, 0x00, 0x00, 0x00, 0x00, 0x00,
  0x00, 0x00, 0x00, 0x00, 0x00, 0x00, 0x00, 0x00, 0x00, 0x00, 0x00, 0x00,
  0x00, 0x00, 0x00, 0x00, 0x00, 0x00, 0x00, 0x00, 0x00, 0x00, 0x00, 0x00,
  0x00, 0x00, 0x00, 0x00, 0x00, 0x00, 0x00, 0x00, 0x00, 0x00, 0x00, 0x00,
  0x00, 0x00, 0x00, 0x00, 0x00, 0x00, 0x00, 0x00, 0x00, 0x00, 0x00, 0x00,
  0x00, 0x00, 0x00, 0x00, 0x00, 0x00, 0x00, 0x00, 0x00, 0x00, 0x00, 0x00,
  0x08, 0x00, 0x00, 0x00, 0xd1, 0x03, 0xd7, 0x3b, 0x3d, 0xf3, 0x98, 0x3b,
  0x5b, 0x65, 0xd7, 0x3b, 0xdf, 0x4f, 0xa5, 0x3b, 0x94, 0xab, 0x03, 0x3c,
  0x11, 0x36, 0xcb, 0x3b, 0x25, 0x4d, 0xe5, 0x3b, 0x9c, 0x8e, 0xc1, 0x3b,
  0x1a, 0x00, 0x00, 0x00, 0x73, 0x65, 0x71, 0x75, 0x65, 0x6e, 0x74, 0x69,
  0x61, 0x6c, 0x2f, 0x63, 0x6f, 0x6e, 0x76, 0x31, 0x64, 0x5f, 0x32, 0x2f,
  0x43, 0x6f, 0x6e, 0x76, 0x31, 0x44, 0x00, 0x00, 0x04, 0x00, 0x00, 0x00,
  0x08, 0x00, 0x00, 0x00, 0x01, 0x00, 0x00, 0x00, 0x03, 0x00, 0x00, 0x00,
  0x10, 0x00, 0x00, 0x00, 0x1a, 0xfc, 0xff, 0xff, 0x00, 0x00, 0x00, 0x01,
  0x14, 0x00, 0x00, 0x00, 0x84, 0x00, 0x00, 0x00, 0x0b, 0x00, 0x00, 0x00,
  0x00, 0x00, 0x00, 0x02, 0xa8, 0x00, 0x00, 0x00, 0x04, 0xfc, 0xff, 0xff,
  0x08, 0x00, 0x00, 0x00, 0x48, 0x00, 0x00, 0x00, 0x08, 0x00, 0x00, 0x00,
  0x00, 0x00, 0x00, 0x00, 0x00, 0x00, 0x00, 0x00, 0x00, 0x00, 0x00, 0x00,
  0x00, 0x00, 0x00, 0x00, 0x00, 0x00, 0x00, 0x00, 0x00, 0x00, 0x00, 0x00,
  0x00, 0x00, 0x00, 0x00, 0x00, 0x00, 0x00, 0x00, 0x00, 0x00, 0x00, 0x00,
  0x00, 0x00, 0x00, 0x00, 0x00, 0x00, 0x00, 0x00, 0x00, 0x00, 0x00, 0x00,
  0x00, 0x00, 0x00, 0x00, 0x00, 0x00, 0x00, 0x00, 0x00, 0x00, 0x00, 0x00,
  0x00, 0x00, 0x00, 0x00, 0x08, 0x00, 0x00, 0x00, 0xe2, 0xcf, 0x05, 0x3a,
  0x9f, 0x5f, 0xbe, 0x39, 0x96, 0x0c, 0x06, 0x3a, 0x91, 0xc2, 0xcd, 0x39,
  0x0c, 0xe3, 0x23, 0x3a, 0xab, 0xee, 0xfc, 0x39, 0xfb, 0xb3, 0x0e, 0x3a,
  0x80, 0xea, 0xf0, 0x39, 0x2a, 0x00, 0x00, 0x00, 0x73, 0x65, 0x71, 0x75,
  0x65, 0x6e, 0x74, 0x69, 0x61, 0x6c, 0x2f, 0x63, 0x6f, 0x6e, 0x76, 0x31,
  0x64, 0x5f, 0x32, 0x2f, 0x42, 0x69, 0x61, 0x73, 0x41, 0x64, 0x64, 0x2f,
  0x52, 0x65, 0x61, 0x64, 0x56, 0x61, 0x72, 0x69, 0x61, 0x62, 0x6c, 0x65,
  0x4f, 0x70, 0x00, 0x00, 0x01, 0x00, 0x00, 0x00, 0x08, 0x00, 0x00, 0x00,
  0xe2, 0xfc, 0xff, 0xff, 0x00, 0x00, 0x00, 0x01, 0x14, 0x00, 0x00, 0x00,
  0x30, 0x00, 0x00, 0x00, 0x0a, 0x00, 0x00, 0x00, 0x00, 0x00, 0x00, 0x09,
  0x44, 0x00, 0x00, 0x00, 0xcc, 0xfc, 0xff, 0xff, 0x08, 0x00, 0x00, 0x00,
  0x10, 0x00, 0x00, 0x00, 0x01, 0x00, 0x00, 0x00, 0x00, 0x00, 0x00, 0x00,
  0x00, 0x00, 0x00, 0x00, 0x01, 0x00, 0x00, 0x00, 0xd3, 0x7d, 0x02, 0x3c,
  0x18, 0x00, 0x00, 0x00, 0x73, 0x65, 0x71, 0x75, 0x65, 0x6e, 0x74, 0x69,
  0x61, 0x6c, 0x2f, 0x79, 0x5f, 0x70, 0x72, 0x65, 0x64, 0x2f, 0x4d, 0x61,
  0x74, 0x4d, 0x75, 0x6c, 0x00, 0x00, 0x00, 0x00, 0x02, 0x00, 0x00, 0x00,
  0x04, 0x00, 0x00, 0x00, 0x38, 0x00, 0x00, 0x00, 0x4a, 0xfd, 0xff, 0xff,
  0x00, 0x00, 0x00, 0x01, 0x14, 0x00, 0x00, 0x00, 0x34, 0x00, 0x00, 0x00,
  0x09, 0x00, 0x00, 0x00, 0x00, 0x00, 0x00, 0x02, 0x58, 0x00, 0x00, 0x00,
  0x34, 0xfd, 0xff, 0xff, 0x08, 0x00, 0x00, 0x00, 0x14, 0x00, 0x00, 0x00,
  0x01, 0x00, 0x00, 0x00, 0x00, 0x00, 0x00, 0x00, 0x00, 0x00, 0x00, 0x00,
  0x00, 0x00, 0x00, 0x00, 0x01, 0x00, 0x00, 0x00, 0x28, 0x1f, 0x13, 0x3a,
  0x28, 0x00, 0x00, 0x00, 0x73, 0x65, 0x71, 0x75, 0x65, 0x6e, 0x74, 0x69,
  0x61, 0x6c, 0x2f, 0x79, 0x5f, 0x70, 0x72, 0x65, 0x64, 0x2f, 0x42, 0x69,
  0x61, 0x73, 0x41, 0x64, 0x64, 0x2f, 0x52, 0x65, 0x61, 0x64, 0x56, 0x61,
  0x72, 0x69, 0x61, 0x62, 0x6c, 0x65, 0x4f, 0x70, 0x00, 0x00, 0x00, 0x00,
  0x01, 0x00, 0x00, 0x00, 0x04, 0x00, 0x00, 0x00, 0xc2, 0xfd, 0xff, 0xff,
  0x00, 0x00, 0x00, 0x01, 0x14, 0x00, 0x00, 0x00, 0x14, 0x00, 0x00, 0x00,
  0x08, 0x00, 0x00, 0x00, 0x00, 0x00, 0x00, 0x02, 0x28, 0x00, 0x00, 0x00,
  0x18, 0xfe, 0xff, 0xff, 0x18, 0x00, 0x00, 0x00, 0x73, 0x65, 0x71, 0x75,
  0x65, 0x6e, 0x74, 0x69, 0x61, 0x6c, 0x2f, 0x66, 0x6c, 0x61, 0x74, 0x74,
  0x65, 0x6e, 0x2f, 0x43, 0x6f, 0x6e, 0x73, 0x74, 0x00, 0x00, 0x00, 0x00,
  0x01, 0x00, 0x00, 0x00, 0x02, 0x00, 0x00, 0x00, 0x0a, 0xfe, 0xff, 0xff,
  0x00, 0x00, 0x00, 0x01, 0x14, 0x00, 0x00, 0x00, 0x14, 0x00, 0x00, 0x00,
  0x07, 0x00, 0x00, 0x00, 0x00, 0x00, 0x00, 0x02, 0x34, 0x00, 0x00, 0x00,
  0x60, 0xfe, 0xff, 0xff, 0x25, 0x00, 0x00, 0x00, 0x73, 0x65, 0x71, 0x75,
  0x65, 0x6e, 0x74, 0x69, 0x61, 0x6c, 0x2f, 0x6d, 0x61, 0x78, 0x5f, 0x70,
  0x6f, 0x6f, 0x6c, 0x69, 0x6e, 0x67, 0x31, 0x64, 0x5f, 0x32, 0x2f, 0x45,
  0x78, 0x70, 0x61, 0x6e, 0x64, 0x44, 0x69, 0x6d, 0x73, 0x00, 0x00, 0x00,
  0x01, 0x00, 0x00, 0x00, 0x04, 0x00, 0x00, 0x00, 0x5e, 0xfe, 0xff, 0xff,
  0x00, 0x00, 0x00, 0x01, 0x14, 0x00, 0x00, 0x00, 0x14, 0x00, 0x00, 0x00,
  0x06, 0x00, 0x00, 0x00, 0x00, 0x00, 0x00, 0x02, 0x34, 0x00, 0x00, 0x00,
  0xb4, 0xfe, 0xff, 0xff, 0x25, 0x00, 0x00, 0x00, 0x73, 0x65, 0x71, 0x75,
  0x65, 0x6e, 0x74, 0x69, 0x61, 0x6c, 0x2f, 0x63, 0x6f, 0x6e, 0x76, 0x31,
  0x64, 0x5f, 0x32, 0x2f, 0x43, 0x6f, 0x6e, 0x76, 0x31, 0x44, 0x2f, 0x45,
  0x78, 0x70, 0x61, 0x6e, 0x64, 0x44, 0x69, 0x6d, 0x73, 0x00, 0x00, 0x00,
  0x01, 0x00, 0x00, 0x00, 0x04, 0x00, 0x00, 0x00, 0xb2, 0xfe, 0xff, 0xff,
  0x00, 0x00, 0x00, 0x01, 0x14, 0x00, 0x00, 0x00, 0x14, 0x00, 0x00, 0x00,
  0x05, 0x00, 0x00, 0x00, 0x00, 0x00, 0x00, 0x02, 0x34, 0x00, 0x00, 0x00,
  0x08, 0xff, 0xff, 0xff, 0x25, 0x00, 0x00, 0x00, 0x73, 0x65, 0x71, 0x75,
  0x65, 0x6e, 0x74, 0x69, 0x61, 0x6c, 0x2f, 0x6d, 0x61, 0x78, 0x5f, 0x70,
  0x6f, 0x6f, 0x6c, 0x69, 0x6e, 0x67, 0x31, 0x64, 0x5f, 0x31, 0x2f, 0x45,
  0x78, 0x70, 0x61, 0x6e, 0x64, 0x44, 0x69, 0x6d, 0x73, 0x00, 0x00, 0x00,
  0x01, 0x00, 0x00, 0x00, 0x04, 0x00, 0x00, 0x00, 0x06, 0xff, 0xff, 0xff,
  0x00, 0x00, 0x00, 0x01, 0x14, 0x00, 0x00, 0x00, 0x14, 0x00, 0x00, 0x00,
  0x04, 0x00, 0x00, 0x00, 0x00, 0x00, 0x00, 0x02, 0x34, 0x00, 0x00, 0x00,
  0x5c, 0xff, 0xff, 0xff, 0x25, 0x00, 0x00, 0x00, 0x73, 0x65, 0x71, 0x75,
  0x65, 0x6e, 0x74, 0x69, 0x61, 0x6c, 0x2f, 0x63, 0x6f, 0x6e, 0x76, 0x31,
  0x64, 0x5f, 0x31, 0x2f, 0x43, 0x6f, 0x6e, 0x76, 0x31, 0x44, 0x2f, 0x45,
  0x78, 0x70, 0x61, 0x6e, 0x64, 0x44, 0x69, 0x6d, 0x73, 0x00, 0x00, 0x00,
  0x01, 0x00, 0x00, 0x00, 0x04, 0x00, 0x00, 0x00, 0x5a, 0xff, 0xff, 0xff,
  0x00, 0x00, 0x00, 0x01, 0x14, 0x00, 0x00, 0x00, 0x14, 0x00, 0x00, 0x00,
  0x03, 0x00, 0x00, 0x00, 0x00, 0x00, 0x00, 0x02, 0x30, 0x00, 0x00, 0x00,
  0xb0, 0xff, 0xff, 0xff, 0x23, 0x00, 0x00, 0x00, 0x73, 0x65, 0x71, 0x75,
  0x65, 0x6e, 0x74, 0x69, 0x61, 0x6c, 0x2f, 0x6d, 0x61, 0x78, 0x5f, 0x70,
  0x6f, 0x6f, 0x6c, 0x69, 0x6e, 0x67, 0x31, 0x64, 0x2f, 0x45, 0x78, 0x70,
  0x61, 0x6e, 0x64, 0x44, 0x69, 0x6d, 0x73, 0x00, 0x01, 0x00, 0x00, 0x00,
  0x04, 0x00, 0x00, 0x00, 0xaa, 0xff, 0xff, 0xff, 0x00, 0x00, 0x00, 0x01,
  0x18, 0x00, 0x00, 0x00, 0x18, 0x00, 0x00, 0x00, 0x02, 0x00, 0x00, 0x00,
  0x00, 0x00, 0x00, 0x02, 0x34, 0x00, 0x00, 0x00, 0x04, 0x00, 0x04, 0x00,
  0x04, 0x00, 0x00, 0x00, 0x23, 0x00, 0x00, 0x00, 0x73, 0x65, 0x71, 0x75,
  0x65, 0x6e, 0x74, 0x69, 0x61, 0x6c, 0x2f, 0x63, 0x6f, 0x6e, 0x76, 0x31,
  0x64, 0x2f, 0x43, 0x6f, 0x6e, 0x76, 0x31, 0x44, 0x2f, 0x45, 0x78, 0x70,
  0x61, 0x6e, 0x64, 0x44, 0x69, 0x6d, 0x73, 0x00, 0x01, 0x00, 0x00, 0x00,
  0x04, 0x00, 0x00, 0x00, 0x00, 0x00, 0x16, 0x00, 0x1c, 0x00, 0x18, 0x00,
  0x17, 0x00, 0x10, 0x00, 0x0c, 0x00, 0x08, 0x00, 0x00, 0x00, 0x00, 0x00,
  0x00, 0x00, 0x07, 0x00, 0x16, 0x00, 0x00, 0x00, 0x00, 0x00, 0x00, 0x01,
  0x20, 0x00, 0x00, 0x00, 0x3c, 0x00, 0x00, 0x00, 0x01, 0x00, 0x00, 0x00,
  0x00, 0x00, 0x00, 0x09, 0x48, 0x00, 0x00, 0x00, 0x0c, 0x00, 0x0c, 0x00,
  0x00, 0x00, 0x00, 0x00, 0x08, 0x00, 0x04, 0x00, 0x0c, 0x00, 0x00, 0x00,
  0x08, 0x00, 0x00, 0x00, 0x10, 0x00, 0x00, 0x00, 0x01, 0x00, 0x00, 0x00,
  0x00, 0x00, 0x00, 0x00, 0x00, 0x00, 0x00, 0x00, 0x01, 0x00, 0x00, 0x00,
  0x81, 0x58, 0x5f, 0x3d, 0x13, 0x00, 0x00, 0x00, 0x73, 0x65, 0x72, 0x76,
  0x69, 0x6e, 0x67, 0x5f, 0x64, 0x65, 0x66, 0x61, 0x75, 0x6c, 0x74, 0x5f,
  0x78, 0x3a, 0x30, 0x00, 0x02, 0x00, 0x00, 0x00, 0x01, 0x00, 0x00, 0x00,
  0x8a, 0x02, 0x00, 0x00, 0x05, 0x00, 0x00, 0x00, 0x6c, 0x00, 0x00, 0x00,
  0x4c, 0x00, 0x00, 0x00, 0x2c, 0x00, 0x00, 0x00, 0x18, 0x00, 0x00, 0x00,
  0x04, 0x00, 0x00, 0x00, 0xd0, 0xff, 0xff, 0xff, 0x19, 0x00, 0x00, 0x00,
  0x02, 0x00, 0x00, 0x00, 0x00, 0x00, 0x00, 0x19, 0xe0, 0xff, 0xff, 0xff,
  0x09, 0x00, 0x00, 0x00, 0x04, 0x00, 0x00, 0x00, 0x00, 0x00, 0x00, 0x09,
  0xf0, 0xff, 0xff, 0xff, 0x11, 0x00, 0x00, 0x00, 0x02, 0x00, 0x00, 0x00,
  0x00, 0x00, 0x00, 0x11, 0x0c, 0x00, 0x10, 0x00, 0x0f, 0x00, 0x00, 0x00,
  0x08, 0x00, 0x04, 0x00, 0x0c, 0x00, 0x00, 0x00, 0x03, 0x00, 0x00, 0x00,
  0x03, 0x00, 0x00, 0x00, 0x00, 0x00, 0x00, 0x03, 0x0c, 0x00, 0x0c, 0x00,
  0x0b, 0x00, 0x00, 0x00, 0x00, 0x00, 0x04, 0x00, 0x0c, 0x00, 0x00, 0x00,
  0x16, 0x00, 0x00, 0x00, 0x00, 0x00, 0x00, 0x16
};
unsigned int tflite_learn_3_len = 10784;
#endif // _EI_CLASSIFIER_TFLITE_LEARN_3_H_
